i n
a n
t h
r e
o n
e r
a t
e s
o r
e n
a l
an d
o u
in g
th e
t i
t o
s t
l e
a r
i t
i s
e d
e l
o f
a s
o m
c h
y ou
i c
i on
p r
a c
v e
en t
f or
a re
at ion
s u
d e
o l
s e
o w
c an
th at
b e
i l
ti on
u l
pr o
er s
c e
a b
s i
e c
g e
m o
c om
d i
h e
a y
u s
l y
you r
i r
i m
i th
c on
t r
a m
e x
a d
es s
m ent
o p
w ith
u n
k e
re s
at e
p l
f e
v er
v i
u r
t e
w h
an t
h el
h a
m e
hel p
l i
t s
g h
it y
a in
d u
s o
n e
o t
f ul
t er
p or
' s
st r
c i
u t
q u
al l
ou t
ha ve
w or
a ge
a p
tion s
om e
m a
the ir
s h
o o
th er
f r
an y
g r
por t
c l
p er
ab le
T h
c re
ou r
T he
i es
s p
c es
i f
en d
re n
e f
A I
i d
ou n
e m
w e
k ing
l d
s ome
ation s
es t
i ti
mo re
p o
d er
o c
o g
u re
com m
a g
in d
for m
p e
wor k
il l
i z
v el
in e
i gh
es e
ac ti
en ti
p s
e t
al ly
I t
g u
a ch
ec t
an ce
al s
ou ld
wh i
ac t
p le
I n
on e
Y ou
si st
n ot
b y
d s
pro vi
ar t
t a
l ow
u c
en ce
o ver
w ay
ac k
p re
u se
at i
fr om
u m
Th is
m ay
g n
p ers
su ch
u d
o ther
ti ve
m ed
help ful
res s
di f
fe ren
du c
a v
d o
c r
u p
t ing
as sist
ci al
c ess
b r
the m
c are
ch n
al so
e ver
d es
the y
it s
al th
ti me
e v
b ut
assist ant
c o
h as
pers on
te chn
im port
ti c
at ing
e p
l an
d el
h ow
d is
el l
ou gh
he alth
ou s
o re
ul t
u st
ex per
com p
at ed
ne w
ab out
r o
if ic
ment s
in cl
on g
ac e
su re
th ese
a st
lan gu
ol og
ic al
A s
en g
ow n
whi ch
oo d
import ant
il d
ma ke
el y
or s
k s
f ol
o th
li ke
the re
b er
s el
langu age
le ar
' t
dif feren
en er
ef f
t en
H ow
t y
w ill
re at
an s
c ur
v es
ent s
comm un
i st
of f
oun d
b le
t ain
mo del
g o
il ity
as s
ge t
ne ed
fol low
su p
o y
W h
f l
str uc
a u
ul ar
st and
person al
igh t
exper i
iti es
n ess
ch an
in v
a f
provi de
s er
o b
i p
c is
vel op
sp ec
us ed
b l
pr acti
b u
me m
m an
i gn
ic e
enti al
c ol
un der
he re
i a
sel f
at er
re l
s y
i v
op le
ar d
ion s
techn olog
im p
di tion
v ir
ex am
n ing
ati ve
It 's
d r
differen t
m y
c al
it 's
re c
con t
wh o
n o
pro duc
im pro
re g
de velop
as e
i de
ar y
to m
en c
ing s
pe ople
fe el
so cial
I '
ti m
in ter
R e
in k
be t
p ar
l l
H e
tr a
c oun
p ol
way s
ur al
re st
eff ec
D o
g g
di vi
c ult
res p
p h
wh en
as ed
s ol
in t
u res
divi du
le c
us ing
s k
v al
How ever
ful ly
c us
on 't
th is
it e
f in
u e
f ore
f ind
in dividu
ad v
in form
b ack
o d
m any
tr y
b re
k n
m ar
sup port
wh at
c er
in te
sh ould
under stand
g an
cre ate
re d
d at
am e
a w
le ad
le d
in to
se e
g y
ar ch
i ve
com e
l o
th r
u al
re e
pr om
i qu
g reat
in ess
m ind
du ce
or y
l ine
ti ps
e w
j ust
c or
ad d
our ces
whi le
ex p
f ic
ti es
st em
ti v
imp act
ta ke
c ould
a k
med ia
technolog y
h igh
re qu
ab ility
si gn
is h
vir on
v ing
in struc
w ell
spec ific
b us
gr am
f oc
in cre
impro ve
al ity
sy stem
pl an
th ink
thr ough
oo k
en viron
ur ing
a th
f un
He re
r is
ar i
mem ber
po si
incl ud
a ke
il y
p ot
ic es
se t
be ing
dat a
po s
l es
v ers
m us
care fully
d ing
st e
d on't
inte rest
pro cess
Y es
i al
re duce
iz e
bus iness
inform ation
pr of
instruc tions
s m
at es
m in
environ ment
or gan
p ut
Th ese
b i
p res
en ces
st ain
ser v
e ar
con tr
s ti
follow s
en sure
et y
y s
pl oy
w as
ma king
ch all
m s
cus tom
ic ation
c ar
su stain
fe w
m ain
d ay
C h
S t
l oc
pl ay
si der
st ud
w ar
des ign
f i
o s
c a
de p
u de
li fe
se arch
m on
b el
pl es
s a
v is
pro gram
ener gy
du str
ap pro
b ased
experi ence
be en
comm end
th o
re commend
si ble
vi ew
z e
I f
bu ild
s en
kn ow
ex t
b en
A d
o id
requ i
resp on
p ec
pr i
e ach
re ad
v ari
C on
off er
in dustr
d uring
on line
em ploy
ben ef
p art
i e
f act
w here
e mo
com ple
g ood
mo st
l ong
a ir
th an
si ve
n er
st ay
su l
er cis
su r
e as
ke ep
b est
individu als
includ ing
U se
all ow
sign ific
li st
man age
pot ential
is su
n s
lear ning
to ol
exam ple
for t
res ources
st art
F or
C an
n ec
iz ed
li gh
su m
p op
h um
ag ing
a il
ess ion
be fore
fr i
inv est
g ener
of ten
chall eng
n at
t w
I' m
su c
so ci
mar ke
tr ain
E n
str ate
ch ild
w ater
p ow
ex ercis
B y
sk ill
su gg
dition al
sm all
sol u
signific ant
oth ers
rel ation
posi tive
your self
st s
ic i
pl ace
ever y
t ed
go als
es tions
wor ld
u es
fri end
P r
relation sh
Re member
pro t
Wh at
ev en
inv ol
are n
ed uc
f y
organ iz
g es
an ies
r an
suc cess
p u
iqu e
provi des
we en
c our
vel y
bet ween
ic k
r y
foc us
chan ge
practi ces
at form
ex pl
ess ential
b al
re search
f am
ation al
l ab
s it
ic s
bet ter
The y
ac cur
you '
v en
prof ession
incl ude
qu ality
need s
ar ti
pl atform
ch ar
th ing
w ould
t ur
le vel
gr ow
ag es
ch o
effec tive
con sider
ol d
sustain able
i le
id enti
v ed
o te
exam ples
od y
skill s
S ome
to p
and s
te am
A n
r a
dep end
st ress
in fl
l ess
en s
g l
experi ences
tr ans
r i
sti ll
ment al
The re
n um
in es
i ps
bel i
iti cal
B e
commun ication
w r
employ e
mus ic
per form
ac cess
acti vi
lear n
an c
comp anies
industr y
de cis
sa fe
as h
O ver
tion al
x i
it ation
s ing
gr ou
practi ce
war ds
si m
w ant
ple ment
ma de
ut ure
v ent
pu bl
cont in
ac tions
at ely
on om
sh ow
cult ural
tho se
f er
port un
j ec
b ility
it ed
solu tions
b o
ter m
ce p
f uture
av oid
st y
activi ties
c le
it ing
p es
co de
over n
b ody
op portun
health y
h y
l im
pop ular
pol ic
pow er
cl ass
k es
ac tion
ar m
ap p
re al
al ways
se ver
ac y
af f
j oy
issu es
re li
b oth
appro ach
develop ment
lab or
benef its
cont ent
f ood
d own
train ing
un ique
add ress
ca use
c ap
with out
ph ys
beli ef
C om
pri or
fe ed
re sul
mo ve
at ter
nat ural
produc ts
si de
re duc
v ity
pres ent
prom ote
mo tiv
p ur
op in
su b
pre vent
g in
t ure
m ater
au di
og n
ac coun
sh are
ant s
publ ic
i als
an al
op tions
sever al
ie ve
Over all
is e
pos sible
c y
commun ity
g en
ne g
t as
is m
cor por
r ight
ha vi
b ers
h and
accur ate
incre ase
ta king
ris k
stud ents
to wards
op en
le t
enc y
tool s
system s
ran ge
ec k
work s
at ch
wor king
fe at
im plement
m er
mind ful
strate g
tra ditional
infl u
ne t
av ail
be havi
loc al
ec onom
we b
reg ular
business es
fin an
le g
ligh t
aw are
you' re
be come
main tain
con cer
as es
oo se
tr i
cer tain
hum an
st re
dition ally
ther ap
j ect
l ar
feed back
gu id
belief s
vi de
m is
g ive
f ree
comp any
j ob
profession al
iqu es
com fort
u ch
requi re
sp e
t al
ter n
ke y
1 0
reg ul
g iv
Ad ditionally
ar ound
em p
techn iques
de fin
a x
h ad
te m
ic t
prot ect
individu al
g ing
phys ical
op e
to o
e th
c am
strateg ies
enc our
we re
e qu
E x
on es
o st
I' ll
s to
cre ating
on ly
C re
s s
g overn
understand ing
follow ing
en joy
h er
m uch
chan ges
tim es
it al
finan cial
at t
c ent
fact ors
identi fy
n ect
eng age
s ci
sen se
p ati
dif fic
manage ment
com es
ge ther
organiz ations
th ough
gr ap
pro g
health care
g am
ar r
med itation
m ight
feren ces
employe es
Wh ile
t ual
help s
f ac
program s
f ir
tur n
g er
ex c
to gether
cult ure
re f
resp ect
c lear
are as
avail able
nec ess
re ally
off ers
fam ily
pro per
U n
t reat
ide as
il ities
2 0
s al
serv ices
prior iti
e lec
av or
neg ative
S o
pro ble
me as
recommend ations
ro le
ev ents
opportun ities
sit u
challeng es
se cur
prog ress
e le
ic ate
r out
diffic ult
a ve
or t
s of
f it
in ation
opin ions
custom er
val ues
bal ance
platform s
mater ials
accoun t
rec t
th en
eff ici
u tion
an ces
u ally
it ely
p a
p p
con nect
or ies
exp ect
l ing
c tion
Th at
b oo
pers pec
contr i
ot ing
vari ous
audi ence
p aren
i er
P ro
reduc ing
behavi or
el s
n ow
marke t
m ing
educ ation
commun ities
fr u
sugg estions
ten tion
h ome
li k
grow th
secur ity
as ing
ex plan
m i
relationsh ips
h ist
ic ally
di tions
ide a
col labor
bre ak
i ous
defin itely
tic s
ti vely
or ing
ci p
n u
f ace
exercis e
cur ren
In put
a ther
ul ti
comple x
str ong
con sum
pre ferences
sk in
p ain
do es
emo tions
y ear
di vers
s le
some one
contr ol
tr ack
necess ary
acti ve
th ings
sp ace
a king
b on
z ing
l ook
ar ing
explan ations
S ure
comm on
re le
build ing
ste ps
em s
tr ies
me et
tim ately
T o
tw o
au th
ver se
tr ust
af ter
op er
led ge
o il
par tic
br and
in corpor
de v
custom ers
p ay
rec ogn
ab les
s ources
mindful ness
over all
m ulti
me an
t ext
Cre ate
feat ures
polic ies
ta il
h old
perform ance
cl im
on s
p ing
re ach
en h
in st
ste ad
T ake
tas ks
kn own
l ish
f il
rout ine
partic ular
grou ps
lik ely
giv en
w ard
no v
ch ed
ch eck
A l
ap pl
ar ies
ty pe
cr u
com b
s c
coun tries
ren g
ach ieve
bre ath
exp ress
prioriti ze
iz ation
aff ect
child ren
h is
emo tional
st ory
n on
relationsh ip
pol itical
co st
Wh en
qu estions
te ach
at s
concer ns
an xi
oo king
environment al
ti ves
ty pes
M ake
tra vel
p ass
or d
exercis es
provi ding
g re
fir st
can not
as k
cho ol
h ab
every one
pr int
end ing
rel ax
oun ds
econom ic
us ers
se c
ec o
tr an
eth ical
us ion
par ti
t ar
st ate
str u
re new
level s
sle ep
in nov
challeng ing
contin ue
O n
interest ing
s ha
g or
S et
friend ly
technolog ies
ic ations
c over
some thing
divers ity
d a
comfort able
he ad
s ite
pe ti
v ol
con sist
r un
st reng
s ame
us er
op tion
t u
set ting
ag ree
m ess
d ed
val ue
og a
list en
g ame
us es
n ers
am oun
i ally
tw are
anal y
sp ir
aware ness
anxi ety
con f
de m
one y
si gh
igh ts
decis ion
ent ly
s es
d am
ast e
an im
for ts
fr a
ab lish
mem bers
oo ds
soci ety
s ion
vir tual
e ep
con vers
n 't
ris ks
s ions
c ing
es pec
view s
espec ially
fun ction
sugg est
pr iv
oc k
jec ts
di str
sty le
adv ice
effec tively
cult ures
renew able
f ound
ef forts
num ber
vari ety
allow s
ati ves
sof tware
e k
T r
g ar
us h
ch oose
effec ts
feel ings
elec tr
encour age
com ing
m ust
cle an
ly ing
decis ions
eas y
val u
tiv ity
invol ves
low er
con nec
ve get
b ook
qu ick
A r
con fl
lead ing
anc ed
ash ion
t le
sy m
clim ate
t ren
b an
ver y
motiv ated
er tain
ic an
cl oth
therap y
ha pp
produc t
t est
ac ter
grap h
br ing
safe ty
know ledge
re turn
l aw
our ce
at tention
di g
a h
end er
contri bu
ch e
are a
g ain
parti cip
fi el
struc ture
res h
ro om
si bility
lo ve
ag ed
de ep
por ts
se qu
con ditions
ur ther
foc used
marke ting
K eep
W ith
h ard
cre ative
mo der
lec t
pa ign
arti sts
ti l
tho ds
M any
prom oting
col or
po se
Pr acti
en sive
gr ound
po st
me thods
ag ain
B ut
po int
w id
A c
O ne
in iti
ef fort
i ev
de f
h ol
t ell
govern ment
it er
appro pri
D e
b ound
f ashion
gor ith
ut es
h i
s ent
curren t
h arm
web site
er ing
w he
w al
cam paign
ab ilities
0 0
f le
an ti
pr in
s chool
requi res
con tain
ar k
w aste
p atter
dis cus
j our
invest ment
ma ch
eng aging
iz ing
year s
serv ice
u le
pro ject
interest s
stud y
at ure
al gorith
wor th
im ent
f ast
ac ts
conf id
in sigh
h ar
grou p
reli g
a ks
h ip
rel ated
t or
for ce
c ul
resul t
in king
cr ip
Con sider
li g
t our
min im
comm it
success ful
part ner
sh ort
get ting
ar ds
T ry
ch ain
spec ial
cep t
te in
meas ures
m un
di et
is tic
du e
pre d
f o
uc k
re mo
be gin
gr ad
re member
y oga
med ical
mon it
br ands
g ate
expl ore
ap ps
A v
lar ge
pl ant
no te
dig ital
A mer
stru gg
m il
U l
di es
b ud
com peti
ha ir
b ur
friend s
acti vity
h ope
cru cial
amoun t
al tern
s ched
al ing
da ily
incre asing
h es
or der
pre ci
p ast
il ar
term ine
gener al
tar get
streng th
influ enc
ev ol
u b
find ing
di verse
pati ent
o es
ma kes
adv ance
l ack
as soci
we ar
en ough
ad ap
li f
s at
cre d
ta kes
s ay
cr itical
leg al
c ase
impro ving
est ablish
ach iev
S e
be cause
t ch
re as
wor ds
B r
an g
in c
p are
ta x
with in
eas ier
i ed
bound aries
develop ing
r up
n am
Ul timately
em er
design ed
sh op
I s
di ents
trans port
int el
min utes
ob al
ath y
o to
il i
s ound
re ality
s tic
on ic
S h
com pl
di rect
situ ation
iv ers
fle xi
go ing
En cour
pro tein
That 's
mi x
ad just
per i
f avor
s n
f low
ou se
am ong
stre am
hist ory
dev ices
m oney
e y
ap preci
re ce
i re
ar s
l and
ma il
sp aren
cl es
su n
incl u
paren ts
sel ves
di st
wh y
mean ing
produc tion
re present
regul ations
Practi ce
we ight
proble m
H ave
d ate
at ors
m al
commun icate
ro ss
al u
ev ent
through out
for d
ing re
1 9
appropri ate
multi ple
try ing
incre ased
feel ing
an other
ac ces
n a
es ts
P l
i tion
k ind
regular ly
W r
gam es
s w
though ts
er y
at ic
n ational
in s
whe ther
bre aks
ex ist
r ights
vis ual
Av oid
sustain ability
d y
rele v
treat ment
do ing
ap pe
hy dr
ec tion
b as
per f
polic y
l ot
car bon
char acter
W e
perspec tives
patter ns
high er
ac es
ra ther
C ol
ha ving
ev alu
cr im
a im
d ers
ty p
ad ditional
d oc
om en
p ly
D on't
I m
am a
op tim
import ance
sequ ences
L ook
ati vity
issu e
ress ion
n or
lim it
m en
af ford
un til
sh ip
l ooking
again st
tran sparen
n ame
d one
at tr
wor d
O f
it ch
D es
ne y
or i
engage ment
gl obal
if y
emp athy
work out
W ow
anc ing
ys is
W or
m om
in tr
includ es
at ory
de termine
invol ved
St art
li ves
I' ve
co sts
ph oto
moder n
ac ross
c ast
E m
wr iting
contribu te
re main
ingre dients
p ack
f arm
l a
med i
w ide
c u
relev ant
c ed
st ep
con sequences
sim ple
insigh ts
s mo
lo ss
d ress
os s
ur y
influ ence
depend ing
organiz ation
inform ed
form s
great er
f resh
e ah
olog y
nu tri
fiel d
So cial
col lec
enh ance
inte gr
ass ess
sci enti
resul ts
G r
lig ence
r ol
en ge
J o
proble ms
s ource
mo vi
new s
pur ch
effici ent
ti fic
p tion
j o
Y eah
h our
st or
t end
st u
in j
ti ce
pol l
al ign
particular ly
l uck
see k
tren ds
associ ated
k en
read y
v ary
in ten
f oods
ac king
need ed
lead ers
on d
typ ically
L e
c ity
anal ysis
in stead
me ans
C ertain
perf ect
transport ation
pro jects
ack s
cour se
sty les
vide o
l ast
posi tion
w atch
nat ure
f air
str ing
industr ies
s we
cloth ing
sit es
adv ant
t ely
w ind
e mail
veget ables
boo ks
pre pare
tr ue
p ed
cre ativity
perspec tive
produc tivity
< /
qu es
ak es
it able
cred it
le br
sul t
ce lebr
l ic
ist s
A re
ele ments
v o
differen ces
T e
l og
serv ation
cr i
invol ve
a ut
o se
Encour age
se en
l ines
th inking
bud get
situ ations
personal ized
collabor ation
F in
reg ard
as tic
s ounds
Wr ite
j ud
mach ine
sim ilar
bi o
go al
i red
t re
priv acy
exper iment
fl avor
employe e
coun try
fo ot
p an
quick ly
F oc
imp acts
sen si
favor ite
iv ing
vi d
dam age
sat is
se ems
hab it
dr aw
el f
work place
au tom
ter ms
re sist
b ar
auth or
equ ip
sh aring
c ir
fit ness
valu able
chall enge
s ess
F ind
implement ing
them selves
Certain ly
d en
can 't
di d
net work
f urther
r ound
sti tu
r ates
av ing
if t
stre tch
it ems
Re g
end ed
guid ance
ans w
s cal
h ot
G ood
convers ation
respon sible
b ed
c ases
sent ence
in ce
a way
power ful
re ci
a de
afford able
f requ
em is
ne ver
fru str
allow ing
di o
m or
li ve
comp are
expect ations
intel ligence
will ing
p t
k ers
en ess
recogn ize
ques tion
in ts
r ate
em ic
M o
differen ce
Ch oose
col ors
ph one
move ment
p air
sched ule
tem per
respon sibility
interest ed
gen e
experi enc
initi atives
ad op
consist ent
sm art
bl ock
si ze
g ender
id s
strate gy
n ext
ke t
ti li
recommend ed
he art
A t
side red
inclu sive
profession als
There fore
ic ult
model s
re port
con sidered
sto re
in come
t on
sp read
adap t
ob jec
gr icult
emis sions
stay ing
pl ants
R es
con struc
part ners
dr y
b it
on est
invest ing
acces sible
cre en
ici ous
' re
dem and
comp ass
care er
ci es
start ing
col le
pres sure
loc ation
act ers
i ch
electr ic
spec ies
f ill
algorith ms
u su
ti t
s he
Com mun
spir it
re put
plan ning
u g
sec ure
in ing
con sult
sur ing
si b
eng ine
s low
practi cing
show s
St ay
f ost
t ers
Foc us
cho ice
con duc
s or
at or
bel ieve
so il
opportun ity
iti ve
na vi
Un ited
p i
ser ve
cy ber
relax ation
br ain
ul es
mom ent
he ar
Amer ican
r ic
as c
sym p
con ven
maintain ing
re ly
f u
adv oc
bu y
char acters
on t
auth enti
el se
ic ts
t ors
t ab
in put
ar gu
cor ding
re views
tom s
g ed
cr iti
breath ing
out comes
altern ative
br o
res ol
of fe
expl ain
vi ol
C l
incorpor ate
cour ses
comple tely
w omen
tal k
chan ging
cor rect
lim ited
sc en
incorpor ating
st ories
emp has
listen ing
f all
tas k
we ek
we ather
gam ing
el ines
ap er
it ate
in sp
con servation
connec tion
ou ts
account able
wh el
pred ict
B u
de b
ou d
Ch eck
M ind
stud ent
sum m
compass ion
b all
ama zing
over whel
e red
depend s
G ener
relig ious
appreci ate
expect ed
hour s
e ase
symp toms
cal m
me th
tiv eness
al ong
w ild
L ist
se ts
ens es
b ot
cr y
contin u
campaign s
a z
qu al
de mo
vide os
con cl
l ands
gin al
jour ney
a gricult
respect ful
gener ate
O r
c and
though t
E duc
govern ments
ic ial
ma j
go ti
respon se
over come
solu tion
confl ict
un te
ref lec
meth od
olog ical
vis it
al ready
m ist
b ir
m iti
arr ay
u ter
hum ans
require ments
au ti
remo te
Y our
b ul
small er
ma x
law s
ta ken
d enti
pur pose
benef it
en ing
ear ly
mess age
inc enti
c s
is ing
ful l
M ed
ad dition
co ol
p ush
n ight
swe et
ati vely
mus cle
equip ment
f ish
man aging
lo ad
spe ak
high ly
work ers
spirit ual
ri ch
C o
ul ation
de t
monit or
D r
spe ed
inter pre
re place
war m
m atter
In stead
develop ed
g ment
e vid
sen s
b ol
maj or
process es
implement ed
advance ments
innov ation
who le
pr im
De velop
a ur
al i
eas ily
h ic
i g
Pro vide
w on
po ints
u fact
ore d
de ter
pro duce
effici ency
sol ar
he ard
s ports
class es
to day
L ear
intr o
s ou
l ay
he at
se as
c up
n al
sh oes
f re
comp ut
co re
innov ative
ag s
g le
um s
s ong
j us
N o
ou ch
rec y
confl icts
appl ications
stand ards
guid elines
ur t
R ese
me al
real istic
exc ited
h onest
ell ent
cre ated
w a
c li
rec over
bo ard
e ts
M ore
Rese arch
p en
anim als
harm ful
sensi tive
some times
that 's
l er
ne goti
scienti fic
cre am
summ ary
del i
l it
pre fer
A p
school s
fun ding
bi g
evid ence
t able
out side
de mon
long er
de tail
h or
g ent
con st
sh own
techn ique
I denti
pe ace
en suring
see king
che ese
comp uter
vis ion
num bers
answ er
est y
pre h
U S
rec ent
3 0
hist or
P e
effec tiveness
l iter
you n
sha pe
stu dies
ey e
St ates
R ed
he av
ul timately
any thing
y th
ta ste
Com p
un ch
top ics
b s
start ed
S up
for ward
comple te
se con
move ments
man ufact
M an
dis crim
N ew
sa ve
ac cording
p and
c ook
er r
inter national
th ree
usu ally
se em
m ers
motiv ation
exc ellent
ul ner
be coming
concl usion
an a
ris e
impro ved
En g
peri od
smo oth
bi ases
hand le
ve y
econom y
A u
sess ions
V R
fra structure
re view
prot ection
do or
s ince
in spir
1 5
c ell
it ude
identi ty
d est
su gar
grap hy
cont ext
al e
d on
s au
oo gle
doc u
Mind ful
s av
mon th
com preh
dis hes
web sites
meas ure
comb ination
o k
ve hic
does n't
consum ers
Identi fy
cr op
an ge
te a
consum ption
c all
in ating
stic k
po sure
dis cover
rece ive
In di
G oogle
An other
sib ilities
fore st
v ulner
hold ers
c op
offer ing
con dition
cent r
confid ence
m atch
wr it
o ing
fr ame
c um
ogn itive
F r
eng aged
produc tive
S tr
reli able
inst all
sci ous
d om
therap ist
provi der
M ar
P re
test ing
flexi bility
yth on
< |
<| tab
<|tab |
<|tab| >
m ut
wr ite
g ency
fi ed
opin ion
lar ger
sal es
adv anced
c k
lif esty
sym bol
transparen cy
r ain
l s
ic tion
sup ply
z ed
cri be
o x
eng th
pl astic
me chan
m ic
om an
benef icial
design s
exc iting
wal k
rest aur
S m
sci ence
acti vely
connect ed
u ps
minim ize
st ake
R ec
top ic
Ad d
il ies
se lec
guid ed
e ating
ic a
keep ing
gl ad
con scious
pe p
mo sp
D is
in frastructure
mater ial
Se ek
authenti c
A fr
share d
Te chn
hab its
li ving
requi red
the tic
day s
inter act
boo st
ac a
chan n
contri but
inter active
S p
ne ur
tem por
help ed
t ouch
aut y
sur ance
fol i
In st
ic ated
d ance
s creen
analy ze
i or
N ational
f ab
pati ents
r ow
j u
mil k
ac cept
v est
at mosp
B re
add ing
read ing
d ur
ch r
ed s
exp enses
w are
priv ate
se x
l at
del icious
colle ag
pos ed
offe e
con cep
iv en
foc using
use ful
P h
seas on
E ur
f ail
st at
anim al
th reat
G et
ink ed
pres er
ligh ting
so le
ong oing
n ed
b or
oo sing
help ing
com mo
c as
al y
cho ices
mis sion
ver ti
Th an
tra de
de ci
i led
flexi ble
enti ally
jus tice
pol iti
par ties
pl aces
meaning ful
struc t
pec ts
giv ing
s ell
at itude
cl ing
temper ature
as pects
con cept
Fin ally
gre en
movi e
ul ate
sing le
Ex pl
expl oring
provi ders
ec es
More over
exp ensive
ro ad
f f
particip ate
inter net
por tive
ps y
fru its
achiev ing
navi gate
M on
As k
ci v
fam ilies
poll ution
p aper
gener ally
f t
practi cal
sy n
en se
grow ing
gr ounds
prof it
feren ce
Reg ular
pos es
A R
bro ad
mo ist
strugg le
mo od
a id
exist ing
pi eces
evalu ate
connec tions
h o
adv is
all er
feel s
tempor ary
teach ers
pand emic
sup portive
ad option
lit tle
Eur ope
frustr ating
lifesty le
them es
c ognitive
i ent
pr ice
me t
be auty
l ength
i x
on ce
sol ving
distr actions
y ond
sof t
organ ic
pl ans
in f
gu ide
vo ice
grad ually
ack now
p ress
sur round
im mers
tr acking
crip t
fr ont
fost er
ant um
In cre
proper ly
im age
const ant
g as
incl usion
play ing
An d
run ning
feat ure
im ages
agricult ure
e ch
express ion
bl og
address ing
res sive
account ability
e gg
in depend
part y
dat es
L i
miti gate
bas ic
oc cur
satis f
prin ci
ma g
respon d
compreh ensive
P ers
improve ment
ex posure
de cre
support ing
stake holders
me als
wid ely
fic ial
company 's
comm er
analy tics
P ython
e at
ref lect
c ooking
class ic
work outs
re in
educ ational
cont act
av a
ad ing
i ble
oy al
P o
stor age
P ol
g ard
G overn
On ce
ci d
T im
c ut
inst ance
iz z
F urther
c offee
h ouse
par k
ic ine
er t
you' ll
bl ood
state ment
fact or
p ie
med it
bal anced
man ag
discus s
vol unte
ex tra
sto res
val id
Bu ild
Gener ate
ne ar
Sup port
deter min
u te
or ation
farm ers
o vers
ten sion
accur acy
mo dif
provi ded
reg ion
ous ly
pot entially
in stitu
mist akes
U sing
S he
en able
at tit
bi le
it am
h ands
a gram
coun sel
tra ditions
satisf action
c el
am m
interpre t
mo bile
P lan
monit oring
confid ent
le ast
histor ical
if ied
p ite
atmosp here
play ers
g i
ch ick
m ass
coun t
gene tic
invest ors
scal e
ma kers
reas ons
un ivers
re move
significant ly
in ks
every thing
treat ments
ec ts
we ak
ir ing
par ts
convers ations
reas on
ver age
cand id
bar ri
but ter
won der
meet ing
ad verti
discrim ination
exper ts
be yond
mess ages
influenc ed
fru it
V is
sau ce
ul ations
su per
advant age
S im
sh ift
ap an
dis ease
in surance
J apan
f asc
Further more
r ies
text ure
c ash
sub ject
m at
ch at
end s
su me
aca dem
cer tific
de al
distr i
recogn ition
accoun ts
one 's
fl av
ef ore
spe ech
ch oosing
eco systems
bu il
commit ment
sp ending
incenti ves
b atter
di al
im ag
me at
av es
wild life
o ve
ti z
ent ertain
attr act
m it
as p
arch it
arti ficial
b ow
af fic
ve gan
ou th
bl ack
inter actions
ac commo
l oyal
o ce
ish ed
re str
resist ance
bur n
Jo h
ser ious
appl ication
p ath
colleag ues
experienc ed
trans form
il led
ut ely
ol ate
techn ical
ven ue
mem ory
iv ed
ur ies
ent al
sol utely
shop s
assist ance
ca used
tr ic
h t
dr iving
ap s
T w
ac compl
mus cles
gr atitude
E ar
tr ip
en cies
1 2
H igh
bo x
det ect
psy ch
c ard
Of fer
ough t
re ward
tran si
Wor ld
v ac
i et
A f
tur ns
direct ly
act ually
cap e
dep ression
h ips
wh ite
app ly
f ar
behavi ors
program ming
cal led
pe t
tr affic
youn g
cr af
ti re
ic tions
gh t
inj ury
fe et
M y
iz es
ac ing
r ules
er 's
He alth
an ger
is ms
ch ec
ci ties
Col labor
back grounds
ti se
Comp anies
back s
d og
h ost
stream ing
pur su
com prom
Q u
max im
Pers on
child 's
qu e
intro duc
h ind
C ele
in a
purch ase
prin ting
Cele br
d ark
own ers
in ations
ar ily
strength s
proper ty
rec ord
T V
de ad
dist ance
fil m
approach es
ci tiz
u tili
institu tions
dis h
appe ar
exp and
oc olate
ach es
dev ice
eas es
lat est
di rec
demo cr
reput ation
t one
po d
reg ions
inter view
expl o
A b
og ue
f a
m ill
fe es
contin ues
exper tise
fasc inating
reci pe
us age
B T
res ili
s ity
chr onic
si des
sn ack
ser ies
dis eases
langu ages
fun ds
i str
cl ose
algorith m
design ers
transparen t
b ase
back ground
comp on
er a
N e
influenc ers
ord ers
dis rup
ur n
nor ms
princi ples
fun c
at a
Im pro
competi tion
b ing
eff ect
R o
rol es
B efore
oil s
ci pl
begin ners
su f
ot es
ex tr
ra ise
e per
G reat
detail s
specific ally
play ed
mind set
block chain
dy nam
recover y
ro ot
cr is
C ar
se eds
compare d
h ob
J ava
oun tain
Inst agram
happ y
academ ic
ay s
chann els
m as
class room
fi x
su itable
to w
team s
be hind
in ed
M e
foot print
mi gr
affect ed
civ il
pr ices
spe aking
ific ation
G ree
L et
gl ass
c au
be auti
cu is
dis cipl
f es
regard less
S ec
char ge
car s
tour ism
ro bo
sw im
ent y
N ame
enjoy able
G P
pod cast
ten ance
b ell
competi tive
wal king
pie ce
S E
s pr
flav ors
arti st
prepare d
transi tion
g ers
cl oud
cl os
S er
graph ics
leaders hip
S y
bre ad
sn acks
r ap
qu antum
infl amm
in ate
f its
proper ties
inten sity
st ances
s af
ge ts
st er
shop ping
accompl ish
S w
process ing
personal ity
c ou
docu ment
movi es
Joh n
Some times
ir d
evol ution
cal cul
ul y
ed om
lo ved
limit ations
ex change
adv ent
med icine
ven tion
oper ations
s il
ligh ts
re pl
job s
fiel ds
ir r
vehic les
equ al
d ou
in de
Ar t
ac ed
sp end
marke ts
n arr
person 's
fra id
im medi
increasing ly
pain ting
read ers
ment or
On line
In vest
a fraid
in ner
men tion
pl enty
t ut
fl u
l u
commit ted
pay ment
h ood
m el
sal t
F ace
beauti ful
protect ing
Govern ments
ill s
nu ts
ic y
re tail
setting s
V ir
ca uses
is tics
re venue
net works
ari an
de eper
pati ence
im pl
ad s
strugg ling
was h
tell ing
on y
at oes
fam ous
A ll
w ood
out door
clean ing
medit ations
re vol
force ment
bi as
wa it
cr oss
I D
my self
Af ter
dial ogue
In ter
Em ploy
al one
F i
in ary
re mind
le ave
tra il
fe ar
reduc ed
play s
cl ar
teach ing
immers ive
T ra
dr ive
al le
sa id
nutri ents
ok ay
ci ent
ele ment
no vel
h om
et al
fill ing
at ures
le ft
Mindful ness
fast er
v itam
ast er
graph ic
advant ages
W ar
ow s
sign s
en e
Or gan
d ating
S u
prom o
main tenance
C O
r ice
objec tives
contain s
I I
z es
success fully
optim ize
v oting
N et
stand ing
train ed
ca using
con vey
s qu
technolog ical
cl aim
archit ect
ec tive
o ds
str ain
dis abilities
be comes
M us
re am
pre vi
Ear th
at o
stre et
v oc
concep ts
avoid ing
r ics
adverti sing
ch ocolate
se par
net working
em br
s l
ness es
add ed
rele ase
hi king
B l
gener ated
enh ouse
barri ers
fac il
res on
F ol
ad o
oo ks
invest ments
le ather
P ar
ab ly
i k
ade qu
Pe ople
cre ates
O ut
happ en
Afr ican
reci pes
dep th
me tr
comput ing
tr uly
t ex
streng then
comm only
o ts
cr ow
Eng age
crip tion
Celebr ate
ext re
z z
gre enhouse
tri ed
A pp
mar ginal
cir cum
inspir ation
fre edom
ur ban
v ot
gr ain
paren t
sav ings
p age
c ot
In corpor
le an
environ ments
beli ev
dr ug
E st
Des ign
di v
g est
1 8
strong er
they 're
oce an
00 0
Sh are
respon ses
k y
T u
u tr
let es
mar ine
S ur
emer gency
in stru
cuis ine
bl ue
regul atory
b ath
List en
ph r
ar ts
N or
constant ly
ob jects
cli ents
a is
in o
revol ution
L inked
s cr
cre ation
br id
f ans
cul tiv
l ater
tern al
c ame
mar k
Lear ning
al se
up dates
encour aging
can cer
su it
pres ence
organ ized
ad es
sp aces
du ces
pep per
i an
co hol
paren ting
P ark
trans l
Ap ple
tire ment
contr ast
a head
and om
L E
f ive
p y
le ts
s top
follow ers
w all
fi re
p ic
soci etal
ple ments
im mun
nor mal
an n
achiev able
U R
ren t
C al
adop t
T aking
Con t
altern atives
2 5
sw itch
s ession
wid er
man ner
G o
ber ries
g ather
hum or
E ven
gent le
Than ks
liter ature
mo ving
th or
Pr ior
Est ablish
consum er
health ier
Wh y
allow ed
cap able
d le
cloth es
cep tion
re pe
Linked In
dr ink
Face book
overwhel med
ud es
engine ering
conduc t
show case
jour nal
su sp
secon d
l en
ch em
f at
criti cis
certain ly
You Tu
L im
st ates
entertain ment
s tim
st aff
des ired
farm ing
ish ing
buil t
att end
di ag
resol ution
z on
sol ve
Educ ation
og urt
peri ods
Techn ology
i ke
id es
pow der
loc k
S te
fi g
st ability
cry p
demon strate
med ication
as si
discus sions
there 's
si d
P er
pro ced
mention ed
ine quality
chec king
consider ing
res ource
celebr ate
is es
t ough
amoun ts
ju ice
int ended
sur face
bul lying
M ix
hydr ated
ey es
last ing
circum stances
audi ences
N A
un expected
go es
distri bu
individual 's
re tirement
l ap
employ ers
re wards
cap ture
establish ed
prevent ing
cap ital
An aly
chick en
acknow ledge
tren d
g ation
bre aking
deb t
Un der
tem p
stretch ing
fi le
sup pl
ar ise
Fol low
to ler
collabor ate
ph il
insp ire
manufact uring
R en
respon sibilities
ce ed
Em p
u als
mem or
am p
off ice
h im
st age
fac ed
w el
num er
ow er
i el
plan et
ide al
it es
ith er
represent ation
loyal ty
gar lic
si vity
given ess
experienc ing
A ma
cl o
con temporary
tic al
regard ing
re turns
avail ability
c led
Can 't
coun ts
viol ence
sim ply
e quality
ic ating
marginal ized
h un
or al
os op
Vir tual
1 1
pow ered
int age
prim ary
w ed
se a
ex cl
according ly
D ata
sex ual
overwhel ming
effici ently
diag no
sur ve
ew el
v ital
ag on
stat us
mut ual
Expl ain
sur vi
ath letes
pre neur
research ers
ic ing
tut or
gu ar
meet ings
sup plements
B us
insp ired
D if
be ach
car dio
sto ck
ent er
g a
fu el
al cohol
In te
cis e
Prior iti
S al
valu ed
Res p
or k
Ama zon
Wor k
UR L
buy ing
work shops
crop s
emer ging
D ep
begin ner
Y oga
ed iting
J ust
man ip
b and
s and
impl ications
Ab solutely
metr ics
citiz ens
an e
ser ving
G u
oper ation
pass ion
p un
sha ping
5 0
anc y
inj uries
you' ve
candid ates
popular ity
P ay
identify ing
ta iled
comple ment
ve re
H ar
har ass
Gree k
Red u
ori ginal
an ch
ear th
de cl
m id
under lying
o ke
10 0
e ties
Person al
YouTu be
environment ally
as sign
ph ones
equ itable
un ning
gener ations
s core
fab ric
port foli
T al
it ter
emo tion
construc tive
sh ips
g ree
el im
br ush
att acks
br ight
out fit
out put
cell s
an cient
ex ec
de tailed
j um
Pr om
cover age
po sts
for get
photo s
ded icated
r ac
rec or
in tim
En joy
implement ation
burn out
car ry
resili ence
struct ures
En sure
pop ulation
arti cles
con ut
independ ent
gen ous
r ing
construc tion
ne utr
ici ans
de aling
regul ation
j ewel
u bl
ob ject
coun ter
Al so
criticis m
heav ily
ren ch
restaur ants
r ough
ke ts
ac ity
Bus iness
Des cribe
phil osop
gen u
politi cs
we aring
state ments
D i
deli ver
accommo d
pre ad
R educ
Ex ercis
par ks
S how
to x
v ast
autom ation
Pro vi
cl ub
focus es
ent re
so on
immun e
F e
de ath
b ags
deci de
agree ment
Ex per
H um
wr ong
B lack
b ag
resul ting
b old
C r
Tim e
develop ers
expl oration
C ult
objec tive
argu e
it or
e ither
collec tion
it em
consider ations
ag encies
pre par
recy cled
ast ed
hes itate
kind ness
cur ious
G ive
any one
s am
habit ats
w on't
contribu tions
dest ination
car ds
z er
su res
G l
h oney
c atch
frequ ency
comprom ise
fi ber
architect ure
Wh ich
bio diversity
centr al
Incre ased
hel d
H ell
er al
t d
in ated
inclu sivity
inter action
o or
serv ed
evol ve
v intage
mess aging
fir m
ab sor
oc ado
i bility
understand able
In tern
s our
batter y
r andom
An y
y ogurt
people 's
dif fer
Str ing
ban k
in al
writ ten
mind ed
L oc
we alth
tal ent
li br
gen res
frequ ently
ot y
jud gment
re fer
pers ist
ac qu
qu iet
W ater
build ings
say ing
reput able
tr o
acces sibility
t ree
lim its
un i
watch ing
Sim ilar
td >
col d
is ed
C T
ir st
event ually
str a
u sive
gard en
it ary
relig ion
distr act
O pen
rap id
F rench
attit udes
reflec tion
u th
pack aging
prior ities
G er
At tend
T each
tail ored
I o
incre di
consist ency
y et
ell ing
consist ently
study ing
Lear n
inflamm ation
bir th
reach ing
jo in
ac cep
att ending
al mon
lands cape
ab ove
iz ations
fin ance
hol ding
vulner able
jec tive
b acter
Io T
jewel ry
electric ity
R O
egg s
d ess
col lect
G iven
accur ately
asp ect
purch asing
su its
mor ning
Redu ce
M L
impact ed
entre preneur
pop ulations
fac ing
f ats
r ace
ang le
harass ment
lay er
chan ged
motiv ate
concer n
no ise
ap art
ch emic
fin ancing
L G
ili ar
thor ough
commer ce
chemic als
f our
ti an
n i
ve red
20 0
gg est
adequ ate
th ird
d anger
i ef
s ac
fun d
pro to
encour ages
story telling
E ach
cent ury
re oty
teach er
numer ous
mic ro
lab el
well ness
consum ing
particip ation
portfoli o
hom es
el low
int u
Im plement
dr inks
g oods
c ks
Intern ational
A ir
' ll
bl oc
su s
b ad
s hel
LG BT
manufact ure
k ne
t acti
break fast
b ies
as king
Tw itter
enti re
ch ance
trans fer
lo an
aff ir
m ountain
employ ment
her bs
es te
con centr
b aking
be ans
month s
C us
ul ts
p ace
fra ud
to tal
slow ly
B i
Pl ay
decre ase
ob tain
form al
pa id
G re
on to
cy cle
ar tic
ref resh
sp ices
current ly
M ay
reduc tion
co ord
neutr al
to re
Tr ain
c at
proced ures
tre es
pay ments
v ation
bring ing
li p
advis or
learn ers
analy zing
l ate
sh or
ex ternal
po on
as sum
prom otes
C ould
V e
se vere
h iring
le ase
scienti sts
for giveness
threat s
ti fied
surround ing
S ol
com post
Commun ication
secon ds
emphas is
deli very
B ud
j ac
counsel ing
Prioriti ze
has ht
ear li
b es
loc ated
ur ally
st ac
particip ants
re tention
aut onom
visit ors
curren cy
F irst
wor ry
an k
h al
tri gg
stra ight
app lying
comb at
R el
des pite
con sume
comp ati
insigh t
prin ts
este em
n y
manag ers
sc ul
care ful
every day
gu ess
D ef
S outh
M ex
remain s
t ables
mach ines
br own
writ ers
regul ate
b ab
continu ed
bus y
ge ting
O ther
dr op
fore ign
prof ile
qual ities
mis s
cap acity
w ine
w in
bi ke
C oun
did n't
H aving
Exercis e
ri ed
policy makers
Cus tom
th es
dis orders
advent ure
pre ference
per ce
song s
f alse
co vered
ob stac
restaur ant
B ar
electr onic
ol ive
deep ly
B est
M ain
heav y
clear ly
fl our
str act
vis m
c ate
i ance
oth ing
a i
ste reoty
bi ased
pay ing
re lying
demon str
ex ten
appreci ation
n an
fam iliar
necess arily
prioriti zing
V ol
posi tions
Vis ual
ex ces
H T
not es
lo op
assess ments
loc ations
lo st
doc tor
Bre ak
us able
cal ming
cent er
Be ing
is ol
s car
complex ity
aller g
fin al
ori gin
prof its
we t
the me
ad ers
report ing
moist ure
forest ation
believ ed
improve ments
ner gy
craf t
r ock
te ch
memor able
ve gg
err ors
w ise
dr iven
ubl ic
com ed
broad er
relax ing
Exper iment
cor rup
bow l
de cor
Amer ica
te le
te en
P art
re pair
D uring
n ic
pr icing
p at
h ous
The ir
di a
com ments
achiev ed
lead s
oss il
direc tion
the ory
r it
vers ion
hob bies
E nergy
target ed
lo se
tal king
com pe
st unning
ar range
U p
compon ents
fac ts
discipl ine
fil ter
understand ings
tour s
pass word
produc ed
j e
S cript
achieve ments
u me
we igh
R evolution
scen ari
mechan isms
is n't
collabor ative
soci eties
p ul
ab use
M ic
tr uth
sal ad
Hell o
earli er
mor al
sub jective
re med
stitu te
tutor ials
arti stic
d ream
po or
let ter
pro of
sk y
cid ents
Similar ly
hydr ation
Tr ans
URL >
sh o
S ust
Sust ain
< URL>
is on
de grad
view ers
signific ance
willing ness
E R
med ications
ec tions
room s
a verage
out come
ac id
align s
1 6
r s
pan els
swim ming
up on
h op
appear ance
ge ar
d ated
ver t
fac es
affir m
pos sibilities
O p
advoc acy
selec tion
play er
tiv als
sim pl
pur poses
cryp to
chan ces
ligh ten
En gl
sole ly
in take
Japan ese
inv ent
make up
light ly
perform ances
col on
1 7
W ear
c af
m use
eco system
am es
discus sion
cyber security
po ol
peace ful
tra its
acti vism
learn ed
W al
art work
t ests
se ction
r ot
og en
list s
conven ient
Mus ic
special ized
sub s
ap ple
add iction
medi um
ti tle
previ ous
f ight
H er
resist ant
mil itary
G od
cap abilities
L ack
o ven
Man age
extre me
no tice
e e
f ossil
dis cour
re tain
tr ading
fil led
neg atively
es tern
bl end
oper ating
Provi ding
gu e
dis comfort
c ow
S k
assess ment
qu ery
success es
c ope
fore cast
l on
M in
Al ways
dead lines
si zes
act ors
well being
St ud
oman tic
dest inations
inter rup
form ation
its elf
travel ing
af ood
enc oun
equ ity
tr ay
es tim
be came
sh ir
lead er
re ef
ar ms
pre gn
form at
email s
as sets
u si
fa ith
Java Script
E very
ed ge
temper atures
commun icating
k er
gr and
educ ate
corpor ations
le aves
trans actions
enti rely
Build ing
mis understandings
vis ually
gen re
cor al
off ici
C lim
address ed
fes tivals
advoc ate
y iel
pe ak
D ec
g ating
ify ing
Re ad
dur ation
sec tor
ch ol
co conut
Impro ved
partners hips
as set
de gree
organ ize
A si
guid es
sup ports
b ly
cop ing
le mon
minim al
G e
rol l
E d
Commun icate
ver bal
scen e
in di
C S
dynam ic
m es
f an
see ing
dep art
n ia
mo tion
pol y
1 4
ab stract
dress ing
Sy stem
ap point
distribu tion
uni verse
trust ed
visual ization
su ns
lu x
V ID
other 's
fail ure
a es
Q L
S ci
person ally
sum mer
bo dies
av ocado
Ch ild
m ask
Europe an
cy cling
fab rics
m ap
sol id
cou ples
ad ults
un ders
happ iness
Jo in
Y ork
dat ab
un c
ome tric
mix ture
inten se
Ch ina
sal ary
stereoty pes
access ories
facil itate
ves ti
v ic
Encour aging
breath s
prior ity
fic tion
as y
found ation
Pr ot
te as
p ick
inter ven
nutri ent
gr ass
f ed
s can
Indi a
oc cas
S chool
pro active
W i
sens ors
au gment
express ing
i ves
Th rough
st able
an te
he aling
ab ling
artic le
cyber bullying
Here 's
r id
exces sive
cry ption
appe aling
g old
democr atic
difficult y
cook ed
z y
ati le
alle vi
wid es
se afood
S elf
V P
fu els
manag er
remed ies
mus ical
izz a
wides pread
p itch
relig ions
tax es
el i
not ing
agree ments
re cru
gener ation
past a
perform ing
travel ers
re duces
In dustr
recy cling
H y
vegg ies
Dif feren
audi o
pr ay
suc ceed
less ons
offici als
tr ol
work ed
cultiv ate
se lect
ivers ity
ag g
c ater
h urt
Cult ural
v ous
co ach
high light
ex act
Pro gram
d ough
w ish
Des pite
I P
O b
tre ating
rece ived
our selves
dis counts
manage able
en ables
po ver
compl iance
i ence
ow ing
St and
li es
lar gest
ill ing
toler ance
sell ing
P aren
bo ards
tur ning
dis play
ti val
str ict
cot ton
N ot
un certain
P op
read er
ful filling
You 're
tox ic
ex hi
tim el
draw backs
moist ur
o om
Incorpor ate
r ating
fig ure
genu ine
dou b
certific ation
cop y
re charge
des tr
f el
S QL
i ers
p tions
evol ving
accept ance
ch op
f ine
Ch ris
duc t
s ke
veget arian
inde x
sp ot
func tions
pos ing
de c
gu ests
t el
pred ic
requ est
contr overs
Rec ogn
podcast s
min istr
Mic ro
St u
lo ans
t un
sha pes
initi al
mus icians
ner vous
nec k
accommod ations
M ach
Wh o
mass age
en forcement
present ation
g al
what 's
re usable
contribut ed
til ity
ti ci
Cre ating
f ake
for ums
D I
B oth
nutri tion
qual ified
adop ting
har sh
vir us
sp in
por tion
tific ations
per ception
weak nesses
assum ptions
obstac les
co operation
cl in
P lease
ath le
reli ef
pl ot
s aving
concentr ation
call s
cre di
Po si
R ef
att ach
lec tual
vi br
asc ular
Ex am
am ing
bet es
sou p
v ascular
phys ically
boo ts
bacter ia
authentic ation
allevi ate
ori ent
cli ent
surve ys
in y
r omantic
pro p
inspir ing
fac ial
CO VID
n ative
mon y
ens ion
str ings
s cript
protect ed
a er
class ical
pover ty
co ast
wed ding
ch air
lighten ment
ser ver
cal ories
almon d
end or
s enti
form ul
end ur
endur ance
hard ware
employ er
Set ting
sun light
A P
F un
Ch ar
le ep
competi tors
v an
VP N
om ic
l in
en abling
them at
strugg les
ox id
cris is
de forestation
interpret ation
collec tive
me ets
all oc
stand ard
dif f
C ost
tacti cs
ra di
ti ght
volunte er
sti r
flow ers
imp ressive
ad ds
= "
includ ed
psych ological
ne ak
how ever
in ese
fish ing
separ ate
St re
end ers
har der
en sures
lab els
restr ictions
vi a
Mon itor
team work
re ports
fe ine
P ublic
elec tion
um ber
Clim ate
in vesti
as ide
ce re
Sm all
vo ices
owners hip
satis fy
i ver
down sides
fun dam
C ity
retail ers
proto col
Nor th
att ack
affirm ations
r ural
fl at
HT ML
al b
guar ante
p al
veget able
optim al
put ting
Educ ate
aff ects
Con sist
immedi ately
s on
infl ation
oper ate
char ging
er ts
s is
he aring
ill ness
differen ti
Br ing
her it
ca de
brain stor
br ow
program med
au to
frequ ent
co vers
th ick
des cribe
reward ing
W estern
appl ied
Of f
sou l
in tention
con cise
intr icate
appe al
th usi
skin care
Gre en
as ive
Sm art
Differen t
mom ents
recor ds
light weight
S ched
20 2
incre ases
chem ical
sti t
attit ude
in sul
iti ous
no tic
ge o
ad a
tow n
prom pt
cam era
shor ter
te red
comput ers
m ort
ur ch
patter n
un necessary
T ha
n ation
author ity
selec ting
u ge
r u
fra gr
err or
le aving
work load
vot ers
re ve
S un
s lightly
1 3
en thusi
leg s
ph en
ut en
st al
cent ers
sugg ests
ric ul
robo ts
correct ly
cr iter
Ch inese
custom s
Tal k
vitam in
mill ion
particip ating
danger ous
be at
migr ation
b ill
ha z
conven tional
ap h
re actions
show ing
C our
Inte rest
un comfortable
certific ations
contribut ing
hasht ags
comple ting
st one
crow d
wash ing
func tional
pep pers
att le
vis ibility
integr ation
an gu
for ced
preser ve
m outh
maxim um
k ids
Engl ish
E lec
Ad v
evalu ation
decl ine
Ch ange
respon ding
develop ments
app ing
qu ite
pol ice
pro s
per pe
Sustain able
Un ion
suf fer
au ma
i res
b ands
dia betes
di m
to oth
r hy
in u
corrup tion
n aling
T est
s ance
evol ved
ol der
min ute
sh i
c ues
l or
habit at
ul ing
In dividu
p izza
l ooks
thes is
ur ity
em power
commer cial
i um
iti sh
en cryption
criter ia
Med itation
C or
conduc ted
ar a
tom atoes
pres ents
Vol unte
Br itish
consider ation
serious ly
pursu e
work force
rel atively
wel come
ti ces
vac c
m l
a ud
D on
f ing
glass es
GP S
intel lectual
bon d
dr inking
jo int
inter face
univers ities
es ter
super vis
M ost
il ing
reson ates
R ep
ma themat
v ine
let ters
educ ators
Commun ity
libr ary
LGBT Q
want ed
4 0
mar ks
ais sance
immedi ate
ho sp
mem ories
Indi an
agricult ural
contain ers
no tifications
augment ed
cardio vascular
di ges
w inter
la unch
t ack
hol ds
extr act
mix ed
z en
adv ances
ex foli
politi ci
bir d
pe as
en ed
C he
Ren aissance
T ur
invent ory
relax ed
s end
cur ricul
C y
it ure
ino a
hand ling
er ies
wid th
Sched ule
b ust
gr ate
grain s
e ks
up unc
cour t
qu anti
explo res
ne igh
bab y
docu ments
L ast
He ad
saf ely
support ed
P ot
H old
fil es
Pr of
t les
inter views
vehic le
resol ve
ext ended
s pl
oo ts
down load
br ought
vic tim
K now
fer tili
H el
S T
up coming
tail or
photo graphy
cas ual
ri age
et c
argu ment
post ure
s neak
A m
res er
aim ed
authenti city
ind ic
En viron
l am
mal e
sensi tivity
a ids
suns creen
sto cks
s now
L angu
tex ti
bir ds
connect ing
sh if
ti fy
Con nect
mis information
ti ll
Posi tive
fic ient
interven tions
ali an
g ently
vitam ins
fel t
p ression
diet ary
author ized
pu ts
w ich
l inked
H ol
adjust ments
r ide
accomplish ments
great ly
S um
In tel
tr ou
attr actions
world wide
bon ds
de als
De termine
volunte ering
y e
phr ase
dur able
offe red
su shi
DI Y
se m
smooth ie
symbol s
acknow led
Bud d
system ic
affect ing
sur pr
everyone 's
g el
maxim ize
pass words
bor row
B lock
mil est
cl ick
elf are
organ isms
sib ly
Pl us
min ing
sp icy
anti oxid
vac ation
vis iting
caf feine
il es
Than k
g ence
is k
F ore
mo bility
recogn izing
hous ing
er als
a di
do ors
r ule
c auti
vulner ability
sched ules
integr ated
cre ators
h ate
sh ad
air y
install ation
bas is
J our
vers atile
Main tain
Afr ica
Con sum
compon ent
s lic
min or
um p
few er
trail s
W ind
po e
des k
th ers
por tray
represent ed
chop ped
fore sts
modif y
r ou
st ar
ange red
f ati
enh ancing
F ost
Au str
involve ment
str ive
elim inate
h id
an cial
te eth
feren cing
up dated
T ik
bel ong
ic ed
produc ing
tr auma
r og
negoti ation
Practi cing
ple ase
6 0
s co
pen al
ra ising
We b
ass er
frame work
gi ves
ind icate
pred ictions
ro asted
deb ate
To k
fil ters
f urn
Ch r
Fin ancial
com ment
RO M
intu ition
LE CT
different ly
fac ilities
s ort
P arti
character istics
text ures
S a
cate g
calcul ate
SE LECT
M id
mechan ics
draw ing
begin ning
for ces
W est
emotion ally
sur vey
Ac t
at temp
conduc ting
Loc al
ill a
Regular ly
cl assi
as tics
de ploy
recru it
ic onic
Re ach
industr ial
real ize
happ ening
con sole
In cl
C ur
P il
Amer ic
pre vention
Ger many
repe at
instru ments
vari able
out lets
sh ar
str aw
push ing
exten sive
lay ers
ded ication
ex cess
it ting
F ROM
Langu age
sty lish
conven ience
protocol s
St ar
S P
to t
ast s
bo ts
determin ed
eli hood
Mach ine
Micro soft
sp ark
up date
A T
datab ase
dynam ics
herit age
minim um
prepar ation
ni che
dist inc
squ are
wr iter
ap y
S n
Fr om
exercis ing
v ote
lik elihood
Mo ve
minim izing
in side
s op
af t
Parti cip
w elfare
S ou
ag ers
gl uten
his tic
loss es
pos sibility
x ide
we eks
V er
politici ans
le verage
def ine
B al
l un
rein force
sam ple
design ing
vine gar
tr ial
C lear
grate ful
counsel or
p ings
moder ation
ones elf
rece iving
enable d
W he
sop histic
ast ers
rout ines
bo hydr
ht ml
cu ps
u ts
cauti ous
color ful
she et
r or
os ion
C iv
tot ally
D ig
sub jects
H is
P at
f ant
2 4
end angered
I T
po em
im e
ti al
Train ing
K ing
sequ ence
Tik Tok
than k
cam ping
H R
s aw
dou ble
t es
preser ving
structure d
St ate
rapid ly
l unch
i ances
h in
surround ings
prof ound
gr own
sor ry
pregn ancy
clos ely
Sec urity
cor n
reef s
dio xide
gu res
sha ped
conscious ness
n el
gain ed
at ically
re peti
colle ge
e es
indi genous
C ali
En lightenment
g ot
O h
Re view
tar gets
hal f
so y
s port
exist ence
N on
set backs
excl usive
gr oc
tic k
As soci
sup plement
nam es
pes tici
con ferencing
la un
pe er
un able
comp elling
pre cau
inter nal
gr ade
not able
om a
Teach ers
g s
Th er
B an
follow ed
sigh t
str ike
Ph ys
Ser v
c il
influenc er
vibr ant
b oss
pol ar
experiment ing
eng ines
worth y
earth qu
fi gures
ro ts
to fu
furn iture
R et
negoti ate
top pings
introduc ed
entrepreneur s
inde ed
jac ket
B en
depend ent
L a
fost ering
con ferences
posi tively
gy m
brainstor ming
lim iting
su ited
min erals
jec tion
B er
inter vention
E con
notic ed
V al
stretch es
invest ed
Cali for
des ire
m ate
appl iances
Pl ant
work space
mer ch
thr ive
clar ity
comp ar
L o
am s
scenari os
E valu
war ming
adap ted
curricul um
advoc ating
sto red
lux ury
r oots
v aries
Hum an
youn ger
res ent
exper t
innov ations
reflec ts
w ent
h at
Califor nia
cut ting
ir on
comp ens
pot atoes
Pr iv
um b
c ally
b ars
ob by
sand wich
drug s
cel er
scal p
B el
discover y
ar di
wear able
fati gue
remind ers
Be gin
senti ment
philosop h
cis ion
track s
Out put
recogn ized
r al
Collabor ation
Li fe
me tal
igh ting
vol ume
hot els
t ap
care ers
fundam ental
hi ke
ma th
az z
ox y
integr ate
h ale
in ch
U s
collabor ations
custom ized
O S
o technology
occas ion
Analy ze
dess ert
remo tely
Th ink
Re pe
gener ating
gain ing
al ter
F ran
gr av
ment ed
ne ural
bloc ks
Fost er
II T
Pr oper
li qu
jud g
isol ation
Al though
perpe tu
Dig ital
end ors
appropri ately
he ight
ban ana
ob serve
instruc tion
purch ases
control led
embr ace
inter n
frustr ation
comb ine
democr acy
S D
C am
emphas izes
vis uals
suf ficient
sens ations
lif ting
p atch
cal end
dr ones
mis sions
Al low
le y
ic o
re sid
R ob
S ub
ver ify
im possible
alb um
any where
t an
un likely
fix ed
continu ous
Manage ment
pic ture
H IIT
process ed
my th
mo d
s cam
ti s
n ut
qu ir
lap top
In struc
0 .
pe ers
man aged
pre t
fin ish
fes tival
C ap
upunc ture
di e
co s
slic ed
scen es
special ize
jour naling
author ities
high est
at ers
integr ity
fer tility
emphas ize
poe try
determin ing
usu al
a thetic
univers al
act ing
ad ministr
precau tions
th in
vis ible
ta st
iv al
ban ks
di ving
plant ing
in sec
narr ative
equip ped
E ating
invol ving
eng er
com position
pack age
op h
spin ach
E mo
accep ting
respect ed
prot ests
n uc
App ly
ref ers
an ges
li ps
a ising
imag ine
fic ation
attr action
W atch
suppl ies
gr illed
c in
S A
B ody
tem pl
er osion
Individu als
fe min
Sp ace
photo graph
therap ies
sched uling
emp athetic
Con duct
E ff
intim acy
rele ased
ple as
T reat
nat urally
itch en
des cription
a str
crim inal
F it
promo tions
dis asters
im al
design er
rhy th
fil ms
I N
chain s
bot tom
id ity
instruc tor
encoun ter
20 20
gu il
i os
cream y
tre ated
nu tr
ir l
reli ance
bohydr ates
accept able
tom ato
to od
N at
Interest ing
R oman
r are
ha ven
inst ances
Tr ust
tem pt
nutr itious
frame works
w aves
phr ases
P ower
ful fill
publ ished
be gan
near by
il li
mid dle
own ed
o at
Resp ect
a vi
ac celer
p ages
prim arily
au gh
but ed
Under standing
N one
concer ned
H ost
Civ il
argu ments
con strain
M use
cre ens
r aw
lic ens
comm and
fall s
pu zz
Whe ther
Americ ans
cer tified
d airy
ak ed
sub st
h am
reli ability
credi bility
d ol
vot er
phen omen
sk illed
encour aged
club s
comb ined
candid ate
curren cies
Ar tific
refresh ing
Recogn ize
are d
li ber
er as
autonom ous
cl ou
Le aders
M is
r ific
bel ow
open ing
Gr ou
R est
fl oor
j un
incredi ble
Artific ial
strateg ic
od or
irr itation
place ment
I' d
p aste
fe e
Chris tian
satisfy ing
des crip
for cing
oxy gen
modif ied
m att
al together
promo tion
ab solutely
Bl ue
R A
av ender
g ap
bu b
contain er
co ding
incenti vi
cus to
transl ation
real ized
st ages
rac ial
Fr ance
so da
Al tern
other wise
Ac cess
aim s
ch est
sti g
v a
mentor ship
gr id
le x
C ook
thorough ly
cam p
autom ate
unders tood
absor b
In gre
ag er
ill u
Pil ates
l inks
incorpor ated
arrange ments
Prof ession
des cri
on ions
pursu ing
mis sing
collec ted
Can ada
pro cr
procr ast
Repe at
jo ining
bio tics
R ights
the less
ony m
house hold
O s
Net work
ex ts
hob by
col l
sur rog
M ich
defin ed
act ual
or g
den im
bal ancing
antioxid ants
Consist ency
ren tices
decre ased
bot tles
open ly
ter y
e ve
S mo
behavior al
ener g
It alian
< td>
v endors
hid den
Phys ical
con v
F ood
ab or
Li ke
organiz ing
Health care
ac ids
kne es
</ td>
hot el
discus sing
bed time
attr active
per cent
sat ell
autom ated
A ge
ex posed
f light
speak ers
iz er
on ion
form ing
es tic
teas poon
tur b
Par is
comple ted
F am
Pl ace
cont exts
we ights
gre ens
Lim it
A C
str y
partners hip
share s
m m
Associ ation
crim e
19 9
fr y
up per
flavor ful
Environ mental
Ingre dients
T urn
olog ist
U tili
robo tics
st ation
evalu ating
sac rific
n ail
rating s
uc tu
rein forcement
M ental
mo de
suffer ing
muse ums
sent ences
saf er
reg ist
Business es
scul p
pl aced
introduc tion
want s
bot tle
hy gi
men u
Re al
after life
se cre
m and
w and
ul ties
dem ands
claim s
pre val
ap olog
le ver
f ly
respon sibly
syn thetic
manufacture rs
a the
Cl oud
ra ised
rit uals
E gy
P al
b one
car rots
cid ent
to ck
ack ers
y ellow
P C
encourage ment
ag ency
stu di
spr ay
post ing
establish ing
o ot
Tr ail
ser ves
D a
sub stitute
Paren ts
W ell
bi ggest
therap ists
f s
Cl ass
Prom ote
stim ulate
feat uring
st atic
ang ers
in i
z ation
aes thetic
requ ests
pray er
pun ish
al ert
p ants
S pec
inform ative
ren tal
op t
express ions
R E
Emp ire
ul ating
compassion ate
s cent
cent uries
on ics
s chol
comb inations
En h
Ar r
main stream
auth ors
continu ously
ul l
be ef
Eng aging
h ur
Incorpor ating
Collabor ate
diffic ulties
con sent
it r
m ac
D eep
to ward
Block chain
c uc
U gh
reason able
contr act
compati bility
d iction
dr ied
th ous
pro b
w ing
fl uctu
sec tors
batter ies
disrup t
Ch all
pos al
un healthy
Indi genous
diagno sis
ind oor
destr uc
del icate
Vis it
haven 't
Th en
id ge
tr >
si vely
prom p
imag ery
re presents
chann el
remo ving
parti cles
sever ity
w ax
intro duce
W all
start ups
re form
pestici des
Reduc ing
W ash
revolution ize
Un iversity
function ality
nam ed
resul ted
Sec ond
par a
answ ers
Re ward
incredi bly
tw ist
pow ers
Su ggest
et te
bl es
cre te
sophistic ated
Develop ing
lo sing
when ever
l ation
predict able
fed eral
ess ay
hab il
differenti ate
E th
fr o
sho e
w oman
key words
facil it
qu inoa
T om
mic r
should ers
car bohydrates
Sh ould
H onest
br ace
exc ite
so ap
b un
stit ution
C enter
independ ence
milest ones
coord ination
pass ed
8 0
rout es
grad u
children 's
demo graphics
influ ences
w i
Exam ples
es cal
eth ics
ther n
g ut
ic it
Ad voc
b its
character ized
suppl iers
ob lig
blog s
Child ren
chick peas
Reduc ed
pe ts
acknowled ging
celebr ities
am en
Nat ural
world 's
Mid dle
As sist
Mex ico
k itchen
at able
st ery
il legal
pes ts
advance ment
clean er
cau ght
fro zen
k a
ment ors
T y
L and
am bi
pro ven
inf ections
war ning
Custom er
ific ations
c ake
p on
criti ci
S pan
x im
p ill
n ice
hygi ene
sp o
Lim ited
enti als
Evalu ate
constrain ts
trigg ers
E at
finan ces
vari ables
I ts
m int
C ut
ici an
S am
sit ting
C lean
fort un
wall s
U V
N ative
shir t
someone 's
comb ines
resp ir
col um
cont am
loc als
neigh bor
appoint ment
th us
controvers ial
discour aged
ink le
e u
penal ties
me ant
fi res
html >
Med ia
mix ing
u pl
br ings
ic ted
tis su
anti cip
al ous
but ton
previ ously
perce ived
compe te
hy po
ro bust
r ati
So vi
Se e
ging er
assign ments
Ac cording
cep tions
sleep ing
dog s
adop ted
s ed
trou ble
School s
poll ut
excite ment
design ated
rac ism
Ac knowledge
In de
s an
Sh op
gram mar
comed y
frustr ated
1 .
ex it
co des
Tra ditional
iz able
Con struct
guarante e
A D
bor n
negoti ations
F l
W ild
E T
re verse
moment um
over coming
habil itation
hin der
ri x
Move ment
l as
est ate
we 're
Gl obal
c ular
brand ing
br ief
M aking
Invest ing
shar p
res tore
Def ine
d ens
ma ster
Sovi et
pr one
posi tivity
C are
doc tors
inst ant
groc ery
ear n
ch ips
cou ple
f lower
Asi a
agg ressive
vir t
tex ts
emer ge
des er
fol k
a use
b ored
E ast
instruc tors
accommo date
B ra
H in
imp ression
rec ently
coast al
identi fied
influ ential
sens ory
respon sive
sm ell
ri ver
7 7
enjoy ing
cent ered
sul ting
clim bing
dist ur
bre aches
start up
n othing
ir s
happ ens
ly rics
honest y
es cape
j ar
flow s
nuc lear
Ste p
W H
con vert
dr ivers
st arts
conf usion
W omen
er ry
h on
wor ried
' ve
M ountain
med itate
H app
l obby
bal ances
B et
ber ry
match es
dr ain
re min
ci um
achieve ment
w it
M c
k it
mas ks
tra dition
Profession al
prot ective
Econ omic
ic ting
il s
reve al
V i
Tha i
Employ ers
z one
pos sess
too k
engine ers
M or
z ers
Hin du
sh r
ch ili
dis order
g lo
re sume
there fore
co hes
advis ors
O T
ag o
ke e
hy brid
st ations
B ased
d inner
nam on
S ha
h oods
mist ake
an ut
protein s
country 's
W ill
Com pare
reli eve
K ore
fre el
today 's
app rentices
D oc
stor m
4 5
pain t
sac red
allerg ies
here 's
initi ative
we 'll
st ars
et ed
should er
det ection
liter acy
t ag
br anch
clou ds
survi val
Head space
se min
tim er
Sa fe
n ations
loc ally
se am
bre ast
dr ama
persist ent
pre cision
blog gers
jud ge
citiz en
mar tial
p up
Mar ket
D NA
GP T
smo king
m ur
mus h
tack le
we ap
b ills
compl icated
Span ish
Re write
un authorized
s ad
cow or
H ome
calend ar
smart phone
With out
a ise
perfect ly
a ult
appl ic
body >
ste ak
Tr ack
app end
C er
os en
stream s
He y
mar ize
compati ble
impro ves
dim ension
h uge
pack ed
experiment ation
brand 's
vent ure
aster n
Pol itical
H mm
smart phones
ext ent
jum ping
to ps
l enders
Tra vel
en force
prom ising
Fe ed
soci o
optim ization
pr ol
Intel ligence
H ot
ac er
Stu dies
associ ations
ul ated
dr am
distract ed
b oy
C BT
ac cidents
ran ging
gr ab
suggest ed
at tri
im ents
bud geting
cowor kers
sustain ably
yiel ds
Last ly
U N
re forms
profit ability
enjoy ed
Com b
S ince
satis fied
SE O
vari ations
hi re
susp icious
mo ther
def ensive
hosp it
P ost
rest oration
fe as
symbol ism
month ly
ate ver
crowd funding
d ro
resili ent
con front
nutri tional
sk i
al ia
rel atable
S tore
D ay
emer ged
syn thesis
b a
rel lo
view points
comp ly
Ren ew
t ac
ol l
Earth 's
respect ing
T rello
autom atically
fl ash
in cidents
fr ies
st oring
sp ent
pair s
inflamm atory
adjust ing
dec ades
R em
and a
fat ty
Mex ican
dis aster
timel ine
run s
manip ulate
scul pt
sub tle
M em
5 00
elec ted
er ie
sol o
am pl
represent ative
philosop hy
air craft
lif t
hum mus
fac eted
eth nic
clo ser
ios ity
mill ions
procrast ination
g one
students '
i king
comb ining
install ations
re ps
view ed
un a
o ol
produc ers
or ange
out doors
hor mon
uncertain ty
C ent
search ing
scar f
ele v
ill nesses
   
passion ate
qual ifications
stic king
F ree
sub mit
lim e
spread ing
mas sive
ur able
rel ations
ar ma
spiritual ity
g age
B C
di an
mo ves
de gre
M ag
fri ed
ar oma
report ed
percent age
mor ale
Ser ve
corpor ate
az y
expand ing
vol can
meas uring
Pro ject
high lighting
p ict
confid ential
20 19
Sol ar
Cal cul
r ush
cont est
the ories
ac c
where as
brid ge
div ine
gg er
Emo tional
f li
Instruc tions
amp oo
F le
we et
equ ally
athle tic
in quir
b n
att or
deci ding
em on
l ink
body 's
Employ ees
spl it
ill ance
A N
instru ment
viol ent
olog ies
Incre ase
compost ing
T op
stress ed
present ed
rele ases
ver b
dis covered
tables poon
leg iti
et ers
anim ation
sur faces
at ten
clos ed
degre es
cap es
ent ry
van illa
econom ies
an as
accomplish ment
ic king
distinc t
M ulti
pp ing
fall ing
mar riage
al tit
prepar ing
adap ting
ex ha
un ethical
Cy ber
S of
m ild
compens ation
L at
n ood
j azz
Dep ending
vulner abilities
utili zing
psych ology
sour ced
con crete
Au tom
chat bots
acer b
pl om
str oke
Industr ial
speak er
G ame
ment ally
ex acerb
over ly
cade my
accep ted
eng ers
stream line
remin der
m p
non verbal
occur s
pre v
ext end
olog ists
cre atures
rou te
research ing
ke ting
nan otechnology
cr azy
perce ive
Co de
ans ion
U ser
ch osen
partner 's
Pr oc
bl az
survi ve
ap ples
R ock
cau tion
discover ies
com posed
ati re
pict ures
phys ics
S peak
commit ments
negoti ating
iz on
con serve
press ing
trigg er
less on
N ike
subs cription
reson ate
per man
wor n
d it
over view
R us
Col or
aren 't
licens ed
v ict
hol id
ro of
depend ence
D ress
um es
off ensive
ed ing
Jour nal
cir cul
cap t
ref ine
R ather
Austr alia
mag ical
re action
Wr iting
Pre pare
M a
custom ize
Eff ective
Me et
je alous
Op tim
prim e
F resh
prefer red
s ick
student 's
home made
L L
degrad able
compl ain
fe male
Utili ze
po ons
m one
cu ts
Cont inu
acqu is
un conventional
v ill
barri er
d educ
oc o
sim ulations
liter ary
Volunte er
turb ines
pl astics
thought ful
inter fe
Ed it
stand ardi
pot ato
eth ically
path s
E le
it ar
T od
sl ices
S an
jum p
mil es
ch am
mo on
gam i
pro duces
Ac tive
ris ing
clin ical
T ran
align ed
govern ance
he els
tar geting
cal cium
Sur round
Organ izations
laun ched
ist ance
ol es
real ism
S pe
un sure
P T
visual ize
E l
promp ts
p il
trans mit
k new
ment oring
vary ing
un biased
atten de
trust worthy
perform ed
di r
f usion
inten tions
al most
dom in
T able
2 .
ti ble
n our
iti s
An ti
bl ing
Visual ize
re jection
sor ted
introduc ing
chec ks
bloc king
thous ands
high lights
electr onics
para graph
re habilitation
r aft
bn b
contain ing
F ashion
pret ty
tim ate
St reng
ap hor
Stre tch
el ig
tour ist
sculp ture
g un
par am
L ow
Renew able
pre cise
be er
ol a
s ending
LE D
si x
fun dr
matt ers
i o
den se
CS S
Air bnb
Con sult
ste am
st uck
agon ist
inst ability
control s
ball s
un intended
oth ic
fr anch
ro id
k in
overs ight
region al
Se arch
O ri
surve illance
un fair
ter min
B as
con ver
cur iosity
modif ications
dam aged
un d
kne e
and ise
Cal m
user 's
Is lam
Bu y
bas ics
ob ic
p ine
tr ips
prof iles
Sci ence
cin namon
interpret ations
sco res
elec tions
B ur
gr an
Implement ing
li kes
in se
har vest
favor ites
col ored
ub a
copy right
Hel p
Mo del
ac ne
ti vi
collec ting
b attle
E M
ac upuncture
log o
un ting
H and
h an
concer ts
Stud ents
co al
l enti
H ist
custo dy
An gel
N ow
p acking
criti cally
tim ing
distri buted
v oid
Analy tics
b lan
ec raft
S C
anxi ous
model ing
in er
F ound
202 1
sneak ers
Under stand
the ater
offer ings
sav ory
r ub
Un ity
O N
attende es
autonom y
central ized
con s
ir o
h it
exp ense
oce ans
ind ul
head >
identi ties
c ue
S it
inv asive
cris py
Tod ay
activi sts
izz es
kee ps
pl ain
stress ful
employ ed
sal mon
" >
gard ening
formul a
my ster
exact ly
respir atory
in n
V iet
ic tive
break through
s creens
in ser
Ad ding
Ther apy
seam less
r oc
belong ing
it arian
mag az
in appropriate
Wor king
mo lec
el ing
be an
ac ci
compar ison
sid ent
rel ate
pot tery
ater ials
comp aring
Cre ative
her o
pollut ants
ligh ter
feed ing
apolog ize
fail ures
interfe re
Develop ment
L u
Con trol
function ing
r am
mis concep
ob serv
fulfill ment
per ceptions
as et
optim izing
cool ing
challeng ed
recor ding
replace ment
dur ability
m ates
P sy
n ur
ti e
he rent
ta u
O ur
al leg
P interest
off icial
cost ly
punish ment
Tr ue
organization 's
de leg
even ly
b inary
Per form
liqu id
o tic
May be
moder ate
je ans
forecast ing
N ote
log ical
categ ories
P ass
Har ry
ch art
ast ing
br a
he ating
qu izzes
G ar
overn ight
dress es
in fr
no de
aw s
dom estic
oun ce
leg is
grad ing
bi ometric
persist ence
stig ma
tell s
gl ob
re t
ban king
bi gger
lig ent
Q ual
Employ ee
grad es
sign al
cour age
meas urable
d iced
pre mi
ol y
remain ing
as leep
i to
ch ant
Pat agon
global ization
continu ing
depart ment
test ed
S ing
Expl ore
igh ten
motiv ations
doub t
transform ed
Inst all
other mal
regul ating
e leg
be ings
sculpt ures
gr y
shir ts
tra um
pl ate
Wh ite
S tick
tim ely
merch andise
long est
b order
game play
train er
har mony
Bet ter
Viet nam
ta sty
su med
ti red
Patagon ia
cam eras
k arma
deliver ing
extre m
M al
pack ages
G othic
know ing
utili ze
E astern
ab s
So ci
9 0
tast es
educ ating
Honest ly
nu anced
gr ace
ask ed
d ancing
Resp on
philosoph ical
me mo
prof ess
ach ing
who se
cultiv ating
su d
sud den
ap ers
inst inc
Tw o
dis par
L ong
bon acci
bl ind
w is
an onym
tau ght
h ism
wind ow
tr op
be aches
de tr
Rus si
Qu antum
ER E
k ill
prop ag
Ad dress
met aphor
insec ts
b il
Mar keting
B ooks
oc cup
di plom
her b
wel coming
bud dy
man ual
preser vation
dam aging
personal ize
sc ope
cus h
wr ap
en tion
document ation
destruc tion
ske p
er o
fair ness
cred its
mathemat ical
c ab
bur den
form er
utili zed
S leep
di ent
sp ots
V ide
In tro
requ iring
exper iments
li ved
along side
perform ers
It aly
E D
f ont
has e
M ob
a ul
t ang
fluctu ations
yiel d
find ings
special izes
victim s
col i
hol der
ener y
fragr ance
List ening
amen ities
bill ion
patient 's
Get ting
G al
scr atch
revolution ized
recruit ment
car ving
Prom oting
g ases
Re ading
predic tive
navi gation
attach ment
itam in
fertili zers
What 's
g ift
equ ation
S pr
sign als
navi gating
se ed
T re
pos ite
ing u
ur gency
cal or
Le gal
incentivi ze
ric ular
leg acy
m ine
soci ally
J ob
fli x
bio degradable
char ts
cr ust
fr ag
Find ing
ol ic
gr ants
resid ents
dream s
wa iting
l ers
glob ally
dat aset
WH ERE
pass port
weap ons
g aps
O ce
param eters
risk y
p ure
volunte ers
C R
cult urally
coach ing
sub si
bur ning
ges tion
tre k
let ting
di um
U K
al led
descrip tions
char ges
ag ue
form ed
le af
mal ware
Bra z
Off ers
jo ints
A im
Jo ining
r ad
round ed
M eas
Part ner
Grou p
l avender
Ch at
d ining
Net flix
gene tics
correct ness
practi tion
Ve get
la very
sy rup
un known
watch es
cu it
no se
wealth y
teen agers
B ook
num s
t ender
am ent
explore d
i dif
B ack
che aper
orient ed
Ph oto
d ys
O thers
Ad just
pat ent
S qu
Sci enti
ke ys
P om
ra dio
ut ing
ingre dient
Support ing
person nel
Mo der
der mat
inst alled
susp ense
reason ing
Re move
B o
Fr u
w ave
out line
Feed back
Br ain
As sess
title >
clar ify
radi ation
b oring
play ful
h ats
Keep ing
prom in
mem es
prot est
back up
Offer ing
endor se
jealous y
de red
g il
D ark
Gr and
W ould
intu itive
ch ore
dol lar
preval ent
gr ant
p ha
Re mo
y es
whe at
D J
Inter net
cr unch
inte gers
address es
anc ers
des ires
aller ies
emp ty
pl acing
Re ality
Dis cus
un usual
w ake
bub ble
de le
Cl assi
satell ite
with draw
l ately
scam s
you t
imp ul
narr ow
ber t
S elec
gr ill
M er
Emp athy
sal ads
alth ough
at ility
muse um
an nu
H ope
the tics
ner ves
degrad ation
exam s
gor ous
stat istics
av ings
regist ered
access ing
ev oke
R un
Fle xi
in ars
In stitute
gold en
am ic
ear ning
se g
Ch urch
energ ized
T our
oc coli
M il
imp air
crip ts
P R
judg mental
sun glasses
incorpor ates
o ats
up front
f ighting
contribut es
gard ens
pr on
V itamin
l ender
ship ping
host ing
stu ff
p as
s atire
r ays
T ell
Ne g
ter rain
bes ides
child hood
sun set
l ace
re p
libr aries
hy per
manufacture r
ch a
als a
L ove
Ar ti
resol ving
tra it
fun ny
ac cum
texti les
ang les
rati o
season al
repe ated
char ged
pe anut
B ec
appreci ated
or ce
Prot ect
diges tive
Safe ty
resp ective
pul l
prom ise
stain s
sim ulate
timel ess
el ess
b ac
bas ket
collabor ating
Tra de
smooth ies
re act
br ut
dens ity
Ve gan
o the
cir cular
mort gage
st ers
sh ot
mush rooms
ve c
Ph one
P ort
am boo
istic al
mat rix
Res istance
craf ts
ver sus
human ity
un predictable
fundr aising
con sulting
m aps
ma gn
20 18
ch ef
comp an
F ed
P ac
Sm ith
embr acing
miti gating
show c
S uc
F re
Budd hism
attor ney
D A
bur ger
Com ple
I M
femin ist
honest ly
appro xim
Ben ef
collec tions
rol ling
ec ological
distract ing
con firm
remo val
Asi an
cor rec
ut ter
poll s
lands capes
gu ard
tables poons
Muse um
aff iti
business 's
mountain s
enti ve
C D
vers ions
plan e
treat s
S at
earthqu ake
imp ress
e an
il let
reflec ting
19 8
Chall enge
install ing
In vol
prot agonist
Serv ice
pl ug
tele vision
l ining
connec tivity
ch un
ra ises
US A
boo king
di ets
Sn ap
squ ats
nood les
home work
en n
dist ances
drop s
exp ansion
Particip ate
cere mony
surrog acy
intim id
straight forward
control ling
el der
electr ical
archit ects
k ed
gu itar
sustain ed
secur ities
women 's
ir ri
sh ampoo
explo itation
r ings
pro vo
Psy ch
show er
ell a
ro bot
Calcul ate
intention ally
invest or
l augh
gen cies
pro posed
inj us
g alleries
know s
ac ur
acur ricular
orient ation
head phones
out weigh
us ions
contin ually
vi gil
hor ror
k ay
S uch
may be
prog ressive
adapt able
St ress
op s
enh ances
mer ic
al d
extrem ely
P ati
line ar
don ations
cush ion
plan ned
zer o
I r
integr ating
C ome
law y
transition ing
con gestion
Pl atform
g irl
AP I
mon ies
or ship
ot ed
manip ulation
S ever
enthusi asts
concer ning
t ent
haz ard
A cademy
calor ie
be es
Ch anges
there by
tle bell
Bre ath
l oud
T ar
team 's
l ined
N ever
qu eries
resol ved
as ana
li graphy
Govern ment
speed s
ab ular
inter connected
Stre et
B each
Oce an
celebr ated
ran ch
bi ological
trans action
s lavery
sk ip
si zed
pass engers
wet lands
T ext
emp ath
F alse
M ass
it ant
open ed
un e
con sumed
cl ay
En d
in puts
lif es
audience 's
dispar ities
sil k
Tran sparen
L ond
off line
L ight
be ar
defin ition
im mer
cuc umber
Lond on
compl ications
before hand
E mer
No de
discuss ed
crow ded
fri ger
ol s
fit ting
19 6
app ed
o ors
Do es
oper ational
explan ation
T ax
P ose
in ely
celebr ating
ult y
ble d
At t
F arm
7 0
High light
pup py
N ations
breath able
el abor
ic ks
Gr illed
p aced
prol ong
rhyth m
wor ship
represent atives
artist 's
Reg ard
deb ates
complement ary
wind ows
repl icate
so othing
the ft
abular y
dess erts
lever aging
ven ess
Pom odor
altit ude
s che
pair ing
sur ger
as ion
str ip
g ely
Pro duc
g on
even ing
In flu
texti le
av en
lar gely
others '
sk illet
R iver
th >
pro hi
paren tal
du ty
impact ing
ep ic
web inars
Industr y
demo graphic
sha de
look ed
P ok
eu tic
log ic
anti virus
tour ists
l oose
w ins
un realistic
under represented
dis advantages
tit les
res or
ing e
Ref lect
ch ia
W illi
Eng ine
phenomen on
painting s
land marks
wh atever
u f
mag ic
contr acts
stand s
diction ary
G ene
Ex peri
In iti
instinc ts
emer gence
oblig ations
dis posal
A ware
lobby ing
D en
fir ms
guar dian
ad ult
s ought
wal ks
c ure
teach ings
fl ag
dist ingu
depart ments
is o
Wal king
ne tic
to ys
miss ed
ad verse
div >
my stery
dr iver
li e
a qu
elabor ate
multi faceted
inten tional
fe ars
M ax
end less
ph ishing
7 5
To ky
br is
prot ections
clo sure
gain s
schol ar
f ur
ser a
P ain
contribu tion
Ger man
ac ies
A lex
Cont act
valid ation
Cour sera
extr acurricular
Sever al
P ack
fant astic
F ri
fic i
or ge
per mission
impact ful
Ex press
discrim in
ent ering
Vide o
des ert
scenari o
Toky o
demand ing
intel ligent
C ross
Ph il
gram s
v als
irri gation
Wash ing
strengthen ing
so othe
ren ess
m ir
div orce
maintain ed
S ti
autom atic
Pomodor o
con sen
pro ps
am b
Pac ific
ut ed
mo sa
distr action
Hindu ism
mean ings
moistur izer
T em
direct ory
S il
standardi zed
ag end
asser tive
voc abulary
sol d
adv ancing
dr ills
s li
N umber
hum idity
direc ted
perpetu ate
with stand
discipl inary
Assist ant
H aw
tren dy
legiti mate
tr ick
et ary
haz ards
attemp ts
dermat ologist
PT SD
prompt ly
nail s
Arr ay
B ig
happen ed
3 .
Mo on
pr ais
Aware ness
in herent
Ad dressing
cred entials
ro be
repeti tive
ph y
lo ving
assistant s
dis course
o que
less er
set tle
in ting
employees '
out fits
Smo oth
"  
N G
Sp end
K n
Remo te
Fam ily
quanti ty
inter section
car nation
li >
alloc ate
gr a
se gment
H ouse
Te am
out reach
print ed
pan el
so reness
deploy ment
scen ic
feas ible
guil ty
dis agree
ine qualities
sol es
Program s
hes itant
Research ers
predic ting
board ing
cum in
R isk
om ile
F act
ten sions
sc ary
condition er
Classi fy
u ment
D u
sou ven
her bal
view ing
tac os
del ay
dis placement
typ ical
p it
puzz les
wild fires
Th ose
to es
ev il
Mon it
tific ation
char ity
subsi dies
Priv acy
dis plays
Y ellow
at tempt
fost ers
Ch ick
stead y
blaz er
own er
m irr
M S
an o
Qual ity
chat bot
enh anced
work day
re ference
be e
cre w
t all
th y
Pot ter
dram atic
I mag
Imag ine
Lat in
you th
ban anas
re con
lives tock
gr affiti
Con servation
geo graphic
ul timate
athle te
pre jud
certain ty
br oth
Mob ile
cap ability
Happ y
t ones
genu inely
p est
publ ish
ali ke
Th us
M ess
del ays
as sem
oc a
emo j
cohes ive
Benef its
personal ities
Gr ad
G old
Bar oque
n est
None theless
N ature
el iness
ign ore
I S
accoun ting
Inte gr
Em brace
d d
c ation
entertain ing
D el
sc enery
Proc ess
o e
ang el
Gener ally
Sh aring
public ations
evalu ations
re productive
templ ates
D iversity
lifes pan
Monit oring
re friger
emer gencies
exhi bi
Sum marize
interact ing
Suc cess
Consum ers
vir al
Red dit
Organ ic
First ly
nor m
me tab
ear s
adop tive
L ar
ann ual
Bl end
sens ation
brow ser
re vers
pass ions
b uc
interpre ted
P A
vigil ant
ose m
diges tion
oco a
Tim er
accommod ation
bro ken
elder ly
conven tions
vis ions
repl acing
out lines
colon ial
polar ization
gr ief
M i
all s
Comp any
b low
Stay ing
fo am
And roid
is land
divi de
cand les
J ames
k id
er up
fing er
bre athe
break down
op posite
jac kets
therap eutic
he ated
for give
ane ously
sh ades
experiment al
st ones
indic ators
perman ent
co at
great est
road s
mo bil
adapt ation
ill um
ch i
D id
Fore st
G en
deci ded
integr al
major ity
C ha
S eas
sp ac
bre ach
breakthrough s
fol d
P ur
respect fully
Dr ink
sec tions
circul ation
whe el
A M
turn ed
week ly
E f
lenti ls
D ivers
w ool
h ier
propag anda
y ard
Incl ude
ad here
franch ise
celebr ity
le m
plan ets
imag ination
vari ed
du st
optim ized
exacerb ate
R ome
ir ony
imp ly
t ags
uc ch
sweet ness
gather ing
9 9
f ather
r ated
ben ch
at om
oun t
is s
H D
pri vi
showc asing
tri angle
H ab
e cho
pol ling
In nov
tw ice
reli es
y ing
distribu te
r als
well ing
traum atic
le f
log istics
ab il
ph ins
Cont ent
U r
p >
L ive
ed it
motiv ating
du m
de bris
D own
r ivers
univers ity
H ip
photo synthesis
wh it
refer rals
advoc ates
di am
resent ment
colleag ue
L os
sat ur
rein carnation
i tions
friend ship
re ferences
shel ter
l enses
L ay
bi king
fr on
ri er
cover ing
A g
sh ine
bi om
D og
aller gy
tr um
consist s
acquis ition
bul bs
A gricult
Found ation
aw ards
sp on
consen sus
mo des
hor izon
supervis or
or a
b in
2 1
T ree
deep en
misconcep tions
Cl ub
align ment
profession ally
promin ent
valid ate
Foc using
tr ials
de hydration
pass ing
switch ing
fin ished
m apping
Z oom
destr oy
sp an
ach e
a el
Selec t
Dr inking
C old
Wind ows
Christian ity
s alsa
Med ical
lon eliness
ul ent
aud it
M ac
th read
work er
def ense
brut ality
ag ility
gam ers
water ing
weak ness
Po or
as m
subst ance
C E
genetic ally
convers ion
Let 's
Emp has
sour cing
than ks
ts p
L inu
Linu x
off ic
br occoli
ic ter
Br and
g ary
weight lifting
recommend ation
fre ely
Th ings
premi um
B M
ri gorous
allerg ic
ke pt
tivi ties
Start ing
surpr ise
Elec tric
hydr ate
H un
criti cs
carry ing
ir ical
sen ses
con form
lef to
T ri
d ict
fa iled
observ ations
vi vid
hol istic
wor se
don ors
av y
mut ually
m ul
ser vers
mur als
ward robe
d ental
Transparen cy
could n't
Rec y
fr idge
dis agreements
S low
Con vert
met aph
cru ise
illu str
tan gy
p ump
tr ation
G ames
me ats
is ure
S ign
row s
Com pu
al erts
he al
present ing
Ad ap
gen es
Pro tein
Chr ist
Re port
w ages
acti v
T ex
cep tive
In sight
c ub
pro portion
interrup ting
comprom ising
R ain
Rel ig
hazard ous
D emo
repl aced
per m
2 2
advis able
P an
H ub
pre p
cr avings
exec ute
r ican
he t
Invol ve
ste el
dimension al
bas il
Car bon
M at
cir cle
inter personal
warm th
Ar ch
Ge orge
gor ize
discour age
dis ability
u tri
mal icious
hy dro
j og
gr ip
Egy p
Ber lin
multi media
initi ally
flow ing
ex pose
K ey
or n
princi ple
c ocoa
sus cep
ye ast
crypto currency
che es
Su per
D E
ad ed
itr us
W ord
Hy dr
key board
li vel
Us ers
S c
viol ations
de my
vi able
ren ce
Pol icy
custom izable
swe at
form ats
exec u
gg ing
commun ications
F ish
sche me
gest ures
di p
op pression
tissu e
discrimin atory
r om
Comb ine
sim ult
ies t
l ash
b ake
Com mon
subs cri
inter vals
Altern atively
O c
Sw im
S ep
fi bers
Impro ving
fair s
ucch ini
stim ul
and al
Impro ve
boost ing
Str ong
Organ ize
fig ur
im migration
Def in
neur o
domin ant
cir cles
rot ation
rel ess
ci ally
h 1
L ower
Li ves
chool ing
p ink
en cryp
He at
com pet
distingu ish
Washing ton
Mo ist
P ut
mark ed
S pread
dis put
s lower
istr y
la yout
recy cle
fant asy
cul inary
F ail
dir t
out look
ex hale
appe ars
tend s
B ay
Ro asted
cere monies
kind s
har mon
escal ate
c tic
Le g
S pain
identi fication
c ock
Inde ed
ten se
practi ced
almon ds
o ily
em b
irr it
U demy
Snap chat
on 's
ase ts
livel i
Coun cil
F es
el ong
In d
poly ester
bl ends
at tain
z ones
diff user
Ac count
bio tic
cal ligraphy
fortun ately
O ld
oper ators
spr ing
and er
organiz ers
cep tional
character 's
answ ering
di ve
Priv ate
A S
broad en
cor d
L aw
h1 >
en forcing
tow el
C at
lec ting
um bers
ol f
per su
sing ing
Sw itch
thr ow
P red
into ler
collabor atively
dat asets
re cip
turn over
Fi bonacci
En suring
M ars
re ject
pas sive
at r
critici zed
catch ing
listen ers
J ew
Discus s
pl u
im aging
G M
dom ain
season ing
cr um
Who le
Sal es
Eth ical
g ave
man us
su ite
or ative
n es
re tr
simpl er
reach ed
ag ents
k ale
T um
D eco
S cot
Establish ing
investi g
fin es
ph arm
rele asing
teach es
intern ships
L ine
Sal t
fl ood
assess ing
ic acy
cast ing
comfort ably
ur gent
l n
C P
P ress
sp ect
fair ly
back pack
approach ing
f lights
In c
res ort
L P
s lip
un it
neg lect
prof ici
count less
custom ization
Be at
determin ation
ven ues
il and
sign ature
W arm
Co conut
worry ing
enthusi asm
ath ers
d angers
Part ners
F il
op pon
partner ing
E lim
approxim ately
tun e
Rem ind
non profit
fraud ulent
ac cident
con serv
inv ention
da unting
pa ired
pos it
st ack
smo ke
formul ated
Maintain ing
A ug
v as
histor ic
ge othermal
Go als
re fin
3 2
T es
sp ice
di stress
win ning
hun t
acqu ire
gu est
i ors
volcan ic
Mich ael
p iv
isol ated
feature d
cir cuit
ket tlebell
don ate
electr oly
sum mar
to ast
os is
sal e
pay roll
tu ce
aud its
fin ally
ep iso
su peri
Tha iland
F A
of u
Pre sident
ag re
k i
E r
L ou
sever ance
am or
shad owing
pro spec
de cade
estim ate
nour ish
inte ger
T ay
ash ed
20 17
shif ts
curren ts
comm is
am y
el ine
Neg ative
pleas ure
clos ing
Th ree
ver a
die ti
it tle
sigh ts
regard ed
thr itis
E ver
doub ted
H ard
glo ves
mis leading
secre t
sl ice
simult aneously
rol ls
anim ations
ex ceptional
Le ad
perf ection
bored om
far ms
ran king
head aches
str icter
arch y
match ing
Net working
cel ery
Da vid
promo tional
disrup tions
in fo
view er
train s
medi ation
myster ious
transform ation
un conscious
vis its
b aked
earthqu akes
un doubted
undoubted ly
D istr
wor sen
adv ers
call ing
wit ness
studi os
expl icit
L A
condition ing
deser ve
sub text
ag ent
socio economic
grav ity
discover ing
pl ing
aer obic
bo iled
vacc ines
To ols
def ault
Braz il
ti le
susp ect
st ew
S po
adverti se
diagno se
S W
h ang
civ ic
commit ting
C ath
tor till
Cent ral
water proof
ul ous
f lying
P y
stor ms
sy ll
insul ation
minor ity
pre dat
NG Os
A th
lec ture
co zy
fragr ances
relev ance
Advoc ate
Soci ety
B ob
Ac ces
ber g
hospit ality
later al
b att
Optim ize
di gn
r ides
ling erie
co in
rap port
S imply
B ab
magaz ines
V ari
hon or
concer t
ch es
tang ible
in stitution
off set
p hase
organiz ational
ank le
sau ces
3 5
ob serving
o graphy
un ity
op ol
F air
hasht ag
C as
spo ken
b amboo
Pr ime
st adi
Second ly
du ci
ab r
table ts
emphas ized
g au
c ats
al pha
inv o
categ ory
E ss
giv ers
the ast
gar ment
studi ed
veget ation
transform ing
obtain ing
Sw ift
ha ps
Tes la
Tum bl
dieti tian
par alle
SP F
me tric
Au th
un wind
e ze
sp ine
</ tr>
E V
l st
interview er
v ar
Br ands
play lists
it an
id el
i Phone
so dium
w age
li ance
pun c
sty ling
secure ly
straw berries
wal let
Moder n
Personal ized
jun ction
sugar s
se ating
qu est
N uts
hormon es
Gr atitude
av enger
ou ter
Dep ression
minimal ist
O il
lan g
ob served
le isure
bi ology
Fun d
Se a
Tumbl r
dr ives
G ard
Dep art
ar thritis
P ick
begin s
me ters
W ars
hous es
Gu id
d il
inquir ies
En ter
L emon
C ir
m ature
pro ve
pr aise
B oo
en em
astr on
illu strate
k il
Rel ax
em it
ver ages
Aug mented
stay s
Br own
lo ts
Pr og
if ts
Serv ices
metaph ors
complain ts
< tr>
See king
tr aders
emphas izing
Educ ating
dr one
In formation
Te a
sub stances
claim ed
ri pe
empath ize
elig ible
an tro
tas king
provo king
contest ants
gam ification
comment ary
disput es
cle ans
graph ical
S ky
stat istical
body weight
t ons
open ness
print ln
E co
re cur
ment ation
empower ing
smooth ly
ch or
past oral
ment ee
For m
seas ons
ch erry
exist s
en gr
wa ist
P ic
p ython
bur gers
mon og
tr action
cru el
An imal
expand ed
virt ually
reflec ted
Ch ocolate
mind s
Con vers
Ap pro
transl ate
ir ls
arr ive
cam ps
estim ated
pic nic
work wear
grow s
P ep
demonstr ating
r ational
co aches
Prot ection
Tay lor
sn ip
S ports
h edge
w aters
travel s
N ight
rain forest
flu id
Influ enc
D an
Im p
ori gami
V IP
Techn ical
L ab
Platform s
cur ry
week end
imp arti
no stal
nostal g
Th ird
draw n
distur b
Ty pe
medi ator
Med icine
m old
min ced
con ference
hor mone
cock tail
alloc ation
ampl ify
connec ts
in correct
Pre heat
S ar
trop ical
R oll
Str ate
bacter ial
bu zz
ET F
ink les
C ate
regul ated
the med
As ana
S ort
website 's
H am
or m
colum n
sam ples
R u
cos play
dign ity
Spo tify
F ire
stic ks
instru mental
B A
emoj is
micr oph
flu ids
ist er
Y osem
Yosem ite
so c
basket ball
S lack
idel ity
jo ke
customer 's
Fed eral
de centralized
sou ps
demonstr ated
d re
M ark
pr ison
so red
vec tor
play list
S S
spr inkle
con junction
Elec tr
Cath olic
mechan ism
O R
in accurate
c ens
the ore
A gree
nu ances
ren der
alle y
Co ol
ol ling
shif ting
Re place
in tri
aer o
Bi o
neighbor hood
Defin itely
ut ens
un its
fact ual
An cient
Volunte ering
Streng th
mut ations
M atter
ome ga
What s
users '
innov ate
H om
sacrific ing
Sim ple
ba it
str o
process or
L og
Reg ul
s in
foot wear
wonder ful
comple ments
holid ay
lect ures
dis connect
bul k
le ge
C ooking
measure ments
C el
ang els
C red
occas ions
al a
Fran cis
R ow
divi ded
Sof tware
se at
capt uring
J ack
A do
en si
dr ag
izz le
reg im
di ed
present ations
investi gate
p ad
apprentices hip
Do ing
un ions
voc al
dry ing
care givers
occur red
os sing
hydr ogen
Bec ause
por tions
independ ently
chant ing
om ics
s cru
attract ing
ali en
port able
ref uge
screen ing
sp ons
administr ation
NA SA
vir uses
F er
t am
elim inating
syn tax
adapt ations
C u
express ed
represent ing
mis use
p our
knowledge able
disrup tion
liveli hoods
2 8
ur ious
po c
Ch oosing
exhibi tions
T oo
guil t
k ick
map le
chem istry
enti ties
am el
Scienti sts
R ich
stit utes
legis lation
pr ide
sti ff
gu mes
L ever
Clear ly
colum ns
Sti r
demonstr ates
Egy pt
subst anti
Whats App
practition ers
direct ories
main ly
reg ain
per severance
sp a
K en
sk ir
z a
shr imp
customers '
tal ents
eleg ant
Ado be
rain fall
st ance
b sp
mar in
chun ks
exha ust
l ens
as sume
J ane
cl ock
tra ditionally
des ir
complex ities
classi fy
bre eding
consult ation
Chr onic
appoint ments
her ic
Enh anced
mo le
if ting
dollar s
understand s
2 3
su gary
pol ite
st d
z ucchini
f are
find s
str ange
dev ast
Perform ance
cor ner
E qu
al ysis
in ery
F T
st abil
pleas ant
mathemat ics
Seas on
land ing
gym n
inf ection
li ability
j son
world s
attemp ting
20 16
gg ed
A W
medi ums
souven irs
T ele
ren ting
de ce
to ld
tur meric
lic ense
cr ackers
fl oat
suscep tible
str iking
igh ter
Av ocado
it ative
under go
s anc
immers ion
Intro duc
comm ands
r ip
ve ys
om b
Every one
S top
influenc ing
op position
bed room
C over
ph er
judg ments
gran ola
measure d
St ory
asp ir
u ation
box ing
remo ved
di vision
Ch an
am i
comp ress
SW OT
photograph ers
E S
W here
c akes
g all
al ive
prioriti zes
s often
fl oral
sexual ity
un employment
cre atively
access ed
i fe
Depart ment
review ing
disrup ted
individual ized
key word
jec tions
As sign
Fran k
molec ules
credi ble
sh ore
T or
list ed
in security
P S
portray al
Gree ce
au ts
P aul
pine apple
host els
cap tiv
b other
ut ch
Sou theast
S weet
acceler ate
grand parents
sti tch
S and
top ped
prolong ed
don ating
competi tions
Ex posure
W a
puzz le
compe ting
he w
lun ges
J S
crypto currencies
o tion
H P
C op
av ed
Dr aw
classroom s
ass is
prob ability
camp us
Spec ial
Flexi bility
d ili
Demo cr
ob servation
public ly
Kore an
document aries
di agram
sto mach
cil antro
mo tor
M ath
reg ener
eff icacy
Haw ai
Breath ing
car ing
list ener
wet land
establish ment
in fin
infr inge
finan cially
life time
G ather
Angel es
h ackers
mor ality
Qu ick
semin ars
F ac
aw ard
mar gin
let tuce
sh ut
De ad
M art
re build
con stitu
brow sing
re use
vis ited
St ream
met als
20 15
Elim inate
h aling
I V
novel s
G D
gener ates
sp am
sh ots
Emer gency
ti ous
utens ils
appro ved
Arti sts
T a
Fes tival
Collabor ating
en rich
endor phins
coun ting
Invest ors
Gu ide
St one
tr act
M ent
A gain
l ake
ge ometric
piv ot
recip ient
ren owned
iz ers
ed e
confl icting
mo ti
cook ies
ame ter
ste ep
dis respectful
avoid ed
Q ue
decor ative
m ile
patch es
oat meal
we ed
bl ending
ne ys
C ognitive
pl ates
applic able
B ank
exhi bit
lap tops
adap tive
C C
vict ories
skep tical
hur rican
H al
sc ents
set up
Visual ization
</ div>
dam ages
sil ver
assis tive
annu ity
buil ds
C lar
cho res
hol es
u el
E mail
bal m
cool er
viol ate
show cases
ag ger
Agricult ure
Po int
Incre asing
Kn own
Kore a
P our
p in
inter val
be verages
air s
o dies
it a
strugg led
work places
surger y
brush ing
can cel
L ake
g ly
wr inkles
agend a
hel lo
King dom
or row
im balances
c m
new sp
intim ate
mel ted
Custom ers
ve ter
er g
tw ists
v enti
civil izations
S au
dr ought
Gener al
su bre
H o
m im
ling u
interrup tions
b age
load ing
Pr int
talent ed
Is land
Le ave
breath taking
t bsp
vacc ine
batt les
intern ship
P E
4 00
comp ounds
p ip
s que
j ur
comp ound
id er
B ake
te ar
en de
dr ome
cip itation
M ad
pri ka
f fer
ic ity
Health y
host el
I SP
por k
sh red
se ven
medit ating
mo thers
in cident
ro se
aero space
re mark
game 's
ex posing
divers ify
sa una
occur ring
robo tic
lux urious
sun g
v y
M ary
record ed
c itrus
Ne goti
Un ivers
b ite
or anges
bl ings
metab ol
art works
so cks
I RA
any time
repe ating
ear rings
at re
l akes
Leaders hip
him self
ti des
ax y
survi v
stu dio
graph ies
aes thetics
gl uc
fer mented
la be
labe led
n ish
ran ges
Con fl
Bre aking
Doc ument
ter rit
chr on
Fit ness
p H
vari eties
Th r
ther most
m ouse
L ie
evalu ated
S M
b ought
Collabor ative
bow ls
ing o
lif elong
S ound
author 's
v s
ch ew
go d
ive red
immer se
snip pet
H i
ester ol
anticip ate
pass es
dry ness
k illing
mel ody
in ity
phenomen a
scr ut
fl aws
oper ator
exam ine
Ch i
ch urch
D y
Dec ide
re ceptive
im migr
forecast s
plan ner
offic ers
Ch ic
Com peti
should n't
ed ges
pros per
cent rate
indic ates
bud gets
sup press
bl ended
Organ ization
had ow
house holds
B S
mand atory
d ings
tal ks
You 'll
mel on
dis count
2 7
bac on
i OS
car pool
divers ification
But ter
elec tor
Par ks
engine er
brush es
sa ut
ty ping
im per
E vent
enc ing
che ap
qu otes
can cell
sneak er
po inting
employee 's
Ro ad
radi us
argu ed
Ar ab
satur ated
explain ing
insul in
Ad ministr
prom ises
S or
par king
sho ot
pursu it
ill er
sound track
spec trum
humor ous
ats by
rec all
land fill
b atch
prais ed
gra zing
n ap
clim b
del ivered
empower ment
Gl ass
col lap
struct ural
st ur
a uc
out dated
method ology
memo ir
sweet ened
whit ening
Att ending
pre cipitation
ge vity
u tions
concl usions
cy cles
iter ate
G atsby
news letters
borrow ing
stal king
arti s
impair ments
it iner
chair s
anti biotics
For giveness
head s
transfer able
see ks
< body>
cr ash
R a
U I
engr aving
craf ted
the aters
t read
ox ide
N LP
Yellow stone
sandwich es
teen age
gau ge
ord inary
ind oors
Z e
ain t
On ly
f on
Imp act
t led
sad ness
ch iro
auti sm
Part y
pl ication
amor ous
E s
Inter active
Never theless
ic on
con solid
appro val
commun ic
D ance
syll ab
vis a
pres cri
entrepreneur ship
divers ified
AW S
op tional
supervis ed
O per
Min im
box es
pro position
du p
encoun tered
classi fication
M ount
i ans
descri bed
Emphas ize
Sk ills
trans mission
she ets
te e
market place
chol esterol
safe guard
bl ender
ch ord
ec tious
2 6
ad oles
sign ing
hun ting
ob es
rup t
s ar
gl utes
T ai
ara oke
new er
jus tify
Dis ney
Com mission
en zy
contr ad
r inse
Al ice
remark able
R ust
B it
let 's
sh ame
Pr op
up dating
avi ation
Ban ana
</ html>
produc tions
5 5
ion e
touch ing
S ty
G am
act or
un familiar
H or
B I
fing ers
w il
tr ace
homes chooling
dep icted
J ud
tric ks
Br it
ac le
RO I
er ved
Off ice
</ body>
colle ges
Islam ic
Sp ending
tim elines
an gry
rece ives
illum inated
N ext
ground ed
Sp ir
br ick
associ ation
Ur ban
org ans
civil ization
sle ek
b ones
Sh ort
C ul
roc ks
you' d
O pt
Sw ed
Com pose
restr ict
occasion ally
but es
Auth enti
seek ers
pregn ant
cur ve
detr iment
Lever age
desir able
conserv ative
individu ality
Ch am
inter sec
Francis co
tic kets
mechan ical
si blings
M u
mel ting
Pro duct
has sle
advent ures
Cre am
R ice
ball ots
calcul ated
p um
lon gevity
in ates
reach es
ti ans
clin ics
hydr op
exec ution
Chic ago
Invest ment
lawy er
I gn
wind s
c end
cuis ines
cost umes
Ex p
be have
deb ts
ath on
separ ation
w est
Plan ning
air lines
u ary
secre ts
under mine
temp ting
can vas
Tur k
gar ments
sen iors
sc uba
buil dup
pre ced
tur key
hi kes
f ers
G aming
Swim ming
hosp ital
gluc ose
up set
there d
simpl ify
ot a
al um
H oney
vol atility
d ash
phy si
coun ted
C H
w ines
agre ed
adequ ately
ul a
Experi ence
to ile
An im
es tion
neck lace
h acking
duci ve
grass roots
B road
most ly
kn ife
unders erved
Budd hist
Cred it
Celebr ating
comm uting
progress ion
would n't
V alley
Ind ones
inf ectious
reas suring
od d
pal ette
c able
datab ases
E gg
Pol y
con ducive
ove re
C ong
m ber
inten sive
min i
har ness
qu ar
contam ination
substanti al
paralle l
bu g
m end
Tur key
Be havi
E U
inter ior
H iking
pass age
l od
spon sored
sm ile
exec uted
cr am
individual ism
click bait
stur dy
r ail
po res
aroma therapy
aspir ations
similar ities
visual izations
Russi a
is ion
jur is
scal ability
pa prika
Ar ctic
Sam sung
pump kin
fici ency
histor ically
atmosp heric
H a
for ting
support ers
Know ing
Acces sibility
I BM
accompl ished
secur ing
Te ams
a we
h ide
arrange ment
sol ved
ess ence
sle y
C ry
astron auts
mag netic
shred ded
altern ate
ur ge
Willi am
Ear ly
mo tive
dy e
M atch
Val ue
Stretch ing
Dr ive
detect ing
og y
< html>
Inde x
h ack
mirr or
arti facts
ace u
B on
tissu es
< head>
N i
analy zed
think ers
branch es
Grad ually
Turk ish
air ports
pres cription
exhi bits
spac ecraft
Meas ure
subscri bers
la zy
Hist ory
ap peti
ran ean
tele medicine
syn drome
direc tions
Ret ail
are l
bl aming
dele te
cand le
pe a
Web sites
stay cation
un t
absor ption
shel l
Rel ation
resor ts
Al liance
si us
injus tice
Stud y
com forting
Tar get
ap e
leg ally
ult in
t age
L ord
at tire
pe h
surviv ors
op articles
ble m
myth ology
u um
po graphy
ur ous
ho sts
pro biotics
journal ism
r um
om nia
superi or
g ifts
recruit ers
other apy
ver tical
fic tional
Resp ond
lifesty les
istr ation
citizen ship
pp ed
F oods
in direct
P ad
sign ed
dead line
Cult ure
D ream
Ag ile
Rob o
log ging
dis close
se al
equ ival
market places
ul f
if ies
secure d
pl us
forget table
h all
obes ity
bl ur
M et
ch lor
conv ince
bl ame
o ved
detriment al
ex tension
om as
prom oted
op ting
n om
Regard less
Adv anced
min eral
Med iter
Mediter ranean
encryp ted
D ate
cens orship
text books
M en
S cal
Stud ent
car pet
spec ified
tread mill
Cap ital
con centrate
rel ative
threat ening
confront ational
op les
Wild life
real ist
Tal king
afford ability
com pos
to s
optim istic
S ta
facilit ating
inf ect
idif ication
ud ed
S end
G ender
Col lec
An alysis
laun dry
compe ten
car riage
pr inter
al li
favor able
bre wing
P en
ver ification
Follow ing
lo ves
miti gation
jo kes
tox ins
on a
re payment
O kay
moti fs
Sar ah
ad mi
B ox
oun ced
adjust ed
C s
Regul atory
sun rise
N an
proced ure
threat ened
cl ues
Ro bert
diagram s
jog ging
JS ON
cor ti
grad ual
sor ting
show ers
colon ies
y a
I A
harmon ious
P ast
prospec ts
B ir
C row
ski ing
iz ard
soc cer
advent urous
mon etary
personal ization
thr owing
ure d
l ending
government 's
narr atives
ac idification
defin ing
sim ulation
selec ted
</ head>
rom ance
partic le
Fru it
Re act
j s
bus es
Lar ge
bound ary
pro ceed
pol ished
P ush
Sal ad
ultin ational
b ou
oc curren
manus cripts
teen ager
s age
P air
neighbor hoods
th ma
L oss
C A
con ce
For t
scru b
seg ments
mar athon
or ical
C any
Vi ew
special ist
syllab us
comp ression
lan e
dig it
city 's
ju ices
ho sti
T O
ol ine
trans it
ph ant
bel t
leaf y
Cost a
journal ists
Jew ish
schol ars
sp elling
19 7
gr ay
Un fortunately
ree ts
4 .
chef s
Try ing
hydr ating
ag na
un forgettable
cas hew
strong ly
Of ten
cruel ty
portray ed
O ly
ligh ted
straw s
ens ions
table t
oper ates
Adv ance
bit ter
grap her
Compu ter
rou ter
H u
om aterials
cl og
l iness
hospit als
B B
regul ators
lif ts
reli ant
jud ges
king dom
202 3
la id
Op portun
Au to
ex agger
Bal ance
can ned
buy ers
repair s
F our
freedom s
o ating
comple tion
adjust able
publ ishing
ch ip
confidential ity
hop ing
ti ed
harvest ing
m ural
plan es
reflec tive
root ed
w ire
high lighted
multi tasking
Cany on
un wanted
sick ness
go ds
exha us
deleg ate
ex ceed
prof itable
devast ating
descri bes
un ion
Da ily
n p
prob ably
sacrific e
incenti ve
6 5
Qu inoa
ske tch
predat ors
M ap
instruc tional
R oth
D ear
pres sures
cow ork
iev al
Ac cept
professional ism
N utri
sc avenger
con serving
spec tion
fr ost
architect ural
aca mole
V in
Ret urn
rid ic
em powered
st ated
restr ial
Hum mus
sup posed
ex otic
port ation
z ip
bre w
assign ed
pan ic
A ut
con figur
ear ned
sup pression
id a
super natural
dam p
trek king
itiner ary
commis sion
Ess ential
C and
Di rect
coord inate
Account ability
M el
B Y
re si
P res
celebr ation
10 00
T er
du ties
System s
in adequate
es ome
st reets
wal nuts
man tra
ball ot
cris p
fact ories
upl o
n itr
fl es
un cover
P od
ad y
diplom atic
indi e
Smooth ie
es tri
action able
solu te
inform al
inter faces
tempt ation
qu o
m ashed
S ay
x y
i ation
m art
purch ased
A ction
am ine
clar ification
cham omile
info graphics
elector al
F low
tr ap
ill usion
show ed
rol ler
scholar ships
clo ves
S till
Administr ation
hormon al
def end
deli ber
ro te
want ing
th umb
f id
celebr ations
retain ing
Re frame
comprom ised
to ss
Loc ated
C amp
bio technology
com ic
execu tive
am ed
type ="
prescri bed
en forced
distinc tive
Pr ice
rain ed
G irl
het ti
15 0
par sley
J acks
rol led
c out
gi ant
n one
bio graphies
I R
over head
St ation
ti les
To gether
3 00
metabol ism
must ard
dis cre
ot on
pre sid
C lose
Cam paign
Expl oration
Sk ill
mosa ic
n urt
tr im
cost ume
else 's
Res ources
de em
ethnic ity
launch ing
sur ge
fact ory
fil ing
al es
decre asing
head line
gu m
b orders
fi er
o v
top ping
as thma
stim ulating
Fe el
Con duc
record ings
ri g
no des
our cing
t estim
I ce
dis pose
D ou
ste in
onom ic
t iny
fertili zer
j i
k araoke
n ights
dis semin
gu st
iev ing
ol ingo
bu gs
apprentices hips
symbol ic
last s
op es
Chick en
Avoid ing
2 9
defin itive
attri butes
M aterials
< title>
Cur rent
C oca
trol ling
air port
P M
P or
L ittle
pharm aceu
res had
advers ity
o h
Du olingo
are r
liber ties
K e
Sk in
Ac tivities
out let
ing rained
M as
administr ative
ag hetti
smo other
jud ging
Strate g
ad or
  type="
Educ ational
adv ise
migr ain
car rier
man if
g low
und ant
dr astic
C offee
ground breaking
label >
reli ev
brow se
     
f ate
exfoli ating
bro ker
L avender
ch ap
re vis
L iving
denti st
ome try
L y
ma ker
inquir y
we 've
hun ger
brid ges
colon ization
be ars
plan k
D ev
be verage
obtain ed
e ight
ins omnia
objec tively
cl icking
an cer
D et
simpl icity
Exam ple
down time
pill ow
head lines
intri gu
wi reless
lo tion
cushion ing
won ders
B attle
Cor por
thr op
sens ational
collap se
E ye
qu ire
but tons
mo ved
transform ative
Cul tiv
un reliable
smart watches
cuc umbers
o ice
holid ays
origin ated
ul ative
fr aming
T ED
p ins
capt ures
surround ed
Re formation
Col a
Col um
R ica
Rep ublic
Mess enger
man go
utili zation
rest oring
</ title>
le aks
dist ancing
flood ing
re tri
log s
Fr ame
cont acts
exc el
ETF s
cred ited
client 's
Sustain ability
train ers
Cate gorize
Dr ones
Ac upuncture
o le
gener ic
and on
reg istration
sha ke
fail s
pred iction
deter gent
em bed
he im
Pol l
wis dom
Ob serve
retr ieve
w icking
B ali
spe aks
Cour t
C a
si ders
efore station
ro s
g irls
Engl and
le gumes
aph r
al arm
om atic
C iti
Che ese
sol di
perm its
freel ance
narr ator
gu ards
aff ili
ign oring
s ake
id al
p el
un less
pro jections
star ter
i di
P i
lo e
J an
I ll
m our
imparti al
small est
interpre ting
lun g
ough ts
jar gon
S pot
prioriti zed
corti sol
lefto ver
diam ond
ch ess
refresh ed
templ ate
Mich el
Indones ia
photograph s
inf idelity
uc t
al ities
Innov ation
desk top
if lower
ll a
fast ing
develop er
O me
wed dings
AD HD
catch y
Wear able
Relig ious
pe oples
trou bles
our s
car b
t reas
print making
compan ion
mort ar
D om
neur ons
C all
econom ics
pro posal
jun k
nurt uring
They 're
av ors
under water
oc king
bon ding
H oot
cur ls
Man agers
B ot
mim ic
multi player
wh isk
satell ites
a a
ple asing
M int
modif ication
fr ames
graph s
re cre
ne ts
e ternal
lu gg
N az
20 14
wal lets
own ing
Test ing
Cl int
hurt ful
back lash
up bringing
M arch
cowork er
did as
Hoot suite
for giving
Design ers
inv iting
ac ep
che ating
sal vation
guarante ed
el if
D ry
A gency
Conduc ting
descrip tive
they 've
mis carriage
a gr
B ow
cub es
was n't
b ind
corrup t
fore ver
Col lect
G ot
C N
pil ot
obstac le
RA M
ly wood
b iting
b ent
S tra
Don ald
ped estri
vi ous
repl en
week ends
Cl ick
cop ies
inch es
T ofu
family 's
en ers
n oun
Hope fully
suggest ing
w ings
Mus lim
p apers
retail er
enjoy ment
Di vide
l um
f ellow
sugg estion
ed itor
Bi as
amb itious
G I
ili an
special ty
crunch y
oid s
Russi an
R inse
of ore
ofore stry
We ather
bath room
Egyp tian
vac uum
pic king
So il
stiff ness
ab solute
recre ational
amm als
apart ment
In v
cr ack
in hale
R unning
adapt ability
D emon
Ign oring
de ple
p tic
fo x
fore seen
pain ful
bul let
smart watch
Hab it
vill age
anonym ous
Psych ology
Sy n
pr oud
sh ock
y al
el d
pr ise
down s
ma st
A didas
bio graphy
Cer tified
individuals '
pos able
Ze al
crim in
Lay er
micro organisms
Al gorith
assi um
men se
friend ships
gl ac
back yard
I de
gre w
aff ection
N U
inv ite
t ling
mobil ize
compreh ension
y m
download ing
institu tional
A A
las agna
po ets
back stage
d f
off s
overwhel m
et ing
im mense
B ri
ab andon
p acing
th under
eas iest
restr icted
J es
ing er
rest orative
dr agon
equival ent
K E
contr acep
b list
mach inery
recogn izable
S ch
film makers
uf fin
r on
inn oc
fon ts
pen e
me tic
d ancers
f fy
tr as
un k
ev ac
sil ence
controvers y
watch ed
Identify ing
disrup tive
i kes
der ived
dili gence
neg ativity
med ieval
Prioriti zing
ult ural
Y ogurt
reg ation
sp ell
refin ed
j am
Wear ing
F ast
B ill
contact ing
toler ate
Au thor
reli ed
Robo tics
educ ated
T ol
er ation
ri chn
richn ess
Your self
ambi gu
tu ition
Continu ously
hand led
p us
over looked
act ed
str angers
m ultinational
Zeal and
Spe aking
ti p
plu gin
profici ency
emp ire
microph one
to e
Man aging
differ ing
dist ant
jec tives
ac ous
Coun tries
rid ing
V an
compet ence
pa use
conf using
br ave
ge tic
prop he
s care
co oper
t te
v ents
stro kes
Cont in
Arch it
F uture
wood en
order ing
Moist ur
l oo
col lateral
in ction
explo it
Rec ord
dress ed
require ment
onom y
enti ty
Provi des
ther mal
embr aced
free ze
A h
san iti
un dance
alb ums
j acks
Stu dio
electroly tes
repeated ly
Per u
gradu ation
anim ated
en orm
in ators
al lies
lower ing
shif ted
over use
intersection ality
cont ests
comb ating
acc used
reshad owing
shad ows
b ounce
pro actively
Fri end
< input
Joh ns
nan omaterials
worth iness
refer red
bel oved
tem ples
ab usive
re frame
car ried
tr ash
Up date
ph o
H air
sp ont
Pol ic
milest one
gradu ate
mon ito
monito red
fl akes
w rote
preval ence
scrut iny
found ed
ve t
Farm ers
stick y
< br
jum ps
Mo dif
Nor thern
valid ity
criti que
season ings
Tex as
period ically
add le
Polic ies
aqu atic
Ori gami
discipl ined
Co ast
repeti tion
Sou p
attract ed
in um
seamless ly
W ay
dark er
track ers
fundam ent
nitr ogen
A z
gas oline
u tility
</ th>
po ems
manufacturer 's
att acking
Reg ulations
Guid ed
sen ior
om ed
bo at
< th>
wand er
S to
E li
smell s
Mass age
manif est
indul ge
testim on
Streng then
screen ings
K P
inter ference
compos ers
emp irical
Is n't
cor responding
ab undance
step ping
3 3
determin es
breast feeding
Consum er
prejud ice
E N
J ul
st ub
pepper mint
nostalg ia
bl oom
fun ded
Man ufact
landfill s
Play ing
Chan ging
coll age
practi c
bo il
rub ber
reser ves
W el
check ed
question ing
r aces
access ory
b ak
wis ely
Sy m
a '
Sec ure
si bling
sav ed
D O
read er's
vict ory
crim es
ham strings
refriger ator
v endor
he it
s chem
tem peh
work flow
origin s
moistur ize
V egg
U ber
B all
ori an
M and
dist or
S en
Le an
reg ression
st arch
Gal axy
Res ource
surrog ate
writer 's
Min ecraft
intimid ating
y an
S now
ter ror
dis posable
tutor ial
Squ are
Altern ative
New s
Agree ment
avi er
M ont
Mart in
dark ness
Engage ment
<input  type="
I cel
Icel and
lips tick
bi ome
for um
Ser ies
Relax ation
Sha kes
cur ated
A loe
Fe eling
tow ns
pe are
demonstr ations
lingu istic
absor bed
your s
Pred ictive
ga thered
dr i
intoler ance
con soles
ge m
elev ate
poor ly
Sim pl
Com mer
app arel
ah ren
myth s
por trait
</ li>
rhyth ms
has h
inter medi
repl icated
sal aries
re focus
thy me
Mountain s
el bow
han ging
F em
un sweetened
dev otion
li ver
w ast
stim ulation
if fs
he el
revers ed
sub sequ
T ower
the atre
lack s
re turning
r ounds
Con struc
J une
Wal k
un foreseen
B ad
Hawai i
earning s
du pl
Sof t
Shakes peare
enorm ous
measure ment
stress ors
review ed
m ammals
Broad way
re building
C ari
crimin als
un ci
Grou ps
read ily
sh allow
Adap t
F o
v ard
head sets
Gene tic
las er
Den mark
M ari
u ous
divers ifying
h ou
Pe er
investi gation
lay ered
ed ited
R om
Cre ativity
Convers ely
r ival
sho oting
ahren heit
mind fully
B and
refuge es
L un
di lem
p ren
par ody
inser t
vol atile
convey ing
Lou is
segment ation
p aved
ide als
en lightenment
trans gender
k ins
L enti
App lying
share holders
Ne utr
d ar
Can adi
ver ified
oid ery
man ship
ater restrial
gr illing
allerg ens
ic op
flav ored
un safe
D ancing
ho le
mort ality
Con stitution
Bud get
ar gs
Dif fic
construc ted
believ es
shel f
he rence
men us
P u
Out door
grant ed
as ks
dr izzle
ses ame
work shop
park 's
fashion able
mon u
ju ven
d in
transmit ted
prot ects
hand made
cl ash
S ke
t at
A ch
g ical
ain s
Introduc tion
e ager
dec ay
der ness
cl ust
no on
NU LL
tic ket
stadi um
T ac
ro ast
dis agreement
tic ultural
politi cally
Dr op
nan oparticles
suns creens
No va
Confl ict
Brit ain
Great er
gr oom
Un like
str ides
social izing
ud ding
Le vel
stream lined
overs p
oc ket
pot assium
gr ated
We ight
A li
L is
Autom ation
quanti ties
Pro s
du le
op posing
Bo ard
enc il
ail s
d ances
re ap
tap e
C ou
attend ance
hurrican es
Adv ant
impro vis
trick y
w w
Com fort
Can va
< li>
Veget ables
Cel sius
scan ning
v ess
Fun ction
sim mer
govern mental
N um
under ground
scar ves
Le ather
to ken
sw ings
commun icated
asser tiveness
swim suit
cyber stalking
f ought
F ill
testimon ials
cis ely
co ating
He art
diplom acy
dim ensions
Ch or
als amic
moistur izing
b unch
alleg ory
overs ized
integr ates
dis appointment
Particip ating
hun gry
Is ra
specific ations
schem es
alter ing
pre me
Te ch
elig ibility
3 4
S cr
augh ter
comm ute
skir t
us ability
or 's
c ents
bank rupt
infringe ment
label ing
200 8
bon uses
w asting
tom orrow
te es
bu te
conven tion
analy tical
Ad vis
sur fing
Pro blem
es ium
are lla
gr at
ur ities
colonial ism
Res er
Fort n
Fortn ite
sanc tions
F ear
Swed en
Be auty
Y oun
viol ation
pres sive
C ase
Pl astic
length s
res cue
Trans portation
bo ot
tour nam
Fru its
pharmaceu tical
magn esium
he avier
ine v
et tes
Advance ments
war s
Univers al
opol itical
Res ort
ent ed
blue berries
el p
cand y
celebr ates
recy cl
extr aterrestrial
CR ISP
CRISP R
at al
up grade
zz arella
gram mat
regim en
ag en
cris es
prev entive
J u
capture d
Br ush
he mp
ice ps
Spir it
eat en
crow ds
v in
oun der
break age
pre y
crypto graphy
H A
cry pt
fe red
med ic
D eforestation
D ol
nam ic
sun 's
war mer
maxim izing
user name
exten sively
off ense
Pe ace
lo om
Pati ents
ST EM
story line
toler ant
pop corn
cl icks
exten sions
Ar ts
ide ologies
head set
construc t
20 13
moder ators
up beat
coal ition
There 's
psych ologists
Fre edom
Techn ique
spont ane
philosoph ers
acti vation
77 77
se y
R i
per ks
convers ions
ol ds
troubles ho
Ro le
sy non
Mon day
cas m
alcohol ic
r ant
at omic
am ino
hun dre
hundre ds
issu ed
f ut
ener getic
Scot t
u k
insec t
renew ed
Comple te
car ries
shad ow
persu asive
remain ed
attach ed
re b
V en
dis proportion
motiv ates
el ly
plan ners
represent ations
h ook
per haps
u led
me ter
ranch ers
li king
God 's
be ats
comp act
20 10
Spec ific
si veness
De leg
fail ing
n is
sum marize
foot ball
6 4
for got
b icy
summ its
ty pography
St at
upl ifting
Chall eng
rain water
se ats
ot al
cre ature
deduc tions
seem ing
it zer
Ro om
truth ful
na use
Treat ment
f lies
Ir on
cream s
Canadi an
. 5
ball o
ful filled
wh is
reject ed
St or
reg ards
al oe
Br idge
re forestation
spir its
S l
Con nec
fl oods
i ant
in hi
pi g
erg onomic
No tice
to y
s q
tor n
urban ization
P urch
vari ation
ome ters
un clear
m ant
earth y
pur ple
sal ty
alli ances
K r
<br >
< p>
</ p>
sil ent
doub ts
ci der
accum ulate
th and
self ish
social ization
sn acking
En tre
Advoc acy
F lor
Tre es
utili ties
M A
Fri ends
m uffin
imag in
ad os
ug s
agg ression
4 8
S ong
ca ul
Gr ow
inter mit
problem atic
U P
C ot
unci ation
Jes us
water melon
ac cent
Me an
immigr ants
reveal ed
G ulf
consult ations
rit ual
ac cus
br ighter
High er
s ends
Cyber security
F ro
memo irs
dig its
cast le
control lers
G it
anim e
Entre preneur
abr asion
me me
say s
marin ade
Ex change
air tight
K han
scr am
worth while
log in
Mi gr
Au gust
sto len
I ra
chees es
track er
prevent ative
men tions
AT E
acqu ired
auto motive
venti lation
back packing
B oy
ce iling
social ize
Ex cel
J im
Cari b
Carib bean
monit ors
T i
Que en
r ope
Techn iques
ve led
craf ting
Care er
surpr ising
ism ic
Hol lywood
Gold en
Char acter
sw ing
Bab y
r asp
Bre athe
ex port
M ade
v otes
Inc enti
lat ency
di ver
mir ac
path ways
Minim ize
gu acamole
nut ty
prev ents
fol ding
f au
Pot ential
d welling
att entive
t weet
on na
cre ator
ne red
weak en
separ ated
Ome ga
A ges
stake holder
gen omics
O range
hydrop ower
dum b
e ti
on i
hypo thesis
CR M
F ive
punc tu
Consum ing
coord inated
p anc
sto ps
buc ks
Val id
P HP
grass lands
trol ls
P arm
rein forces
B ro
sco op
soldi ers
assem bly
ab uses
wild fire
wr ist
bor ne
st ap
stap le
sam pling
M os
h ub
freel ancers
R ent
Gr am
mac ro
sun ny
dr oughts
kn it
Don ate
mo dule
pu te
recon c
develop mental
qu ote
sen sor
Mo vi
break outs
retri ev
d les
Ira q
in duc
Reg ulation
Tr acking
af ts
Le ague
Le e
T an
R ap
air plane
ment ees
refer ral
in habit
ou tr
ar ity
controvers ies
tut oring
p to
p ads
Fore x
d al
bag gy
mes h
Mor oc
autom ating
un common
virt ues
C ris
tow els
dep ict
not ation
Pe ter
Vegg ie
ridic ulous
Em power
Pod cast
bu ds
di vis
Consist ent
Au di
head ing
w ary
cap s
tr ics
uni form
is ons
19 5
pul ling
sw ap
resp ects
thermost at
Sor ry
tortill a
visual izing
facilit ated
cl utter
dis able
rent als
erup tion
borrow ers
neur ological
J e
Continu ous
3 6
strain s
Women 's
R aising
uc aly
tooth paste
O w
jud ged
Sing le
notice able
bur ned
ner ve
im pose
real m
Cong ress
thr illing
att ended
str op
aw k
Cer tification
inj ured
author itarian
Sty le
analy sts
chor ds
ucaly pt
ucalypt us
Nor way
Tr ip
origin ality
Spe ed
heart y
wor ries
Hol ding
st am
ant ine
counsel ors
table >
acid ity
oc ks
ent r
mer ge
un iqu
< h1>
impul se
ag ile
Har vard
AR T
diagno ses
dig est
scr olling
C ast
th ood
fac ility
artis ans
legis l
Comple x
Ele ment
Re in
wor st
str iving
y 's
scr aps
rig id
ide ology
Con dition
thick er
lit ter
cur r
vi be
cry stal
class mates
Ad verti
respon ds
sc andal
brainstor m
injus tices
post ers
con veys
el astic
no str
Ap ples
Jour naling
buc ket
episo de
Wal mart
recon ci
N OT
Lo ving
fe ta
lam b
ass ert
attach ments
bright ness
plug s
fru ity
car amel
ach ment
nause a
captiv ating
lo vers
M ill
host ed
it ational
t we
lic enses
mus ician
assign ment
r us
En able
par ameter
cohes ion
poly amorous
ga e
accident ally
Sou thern
ad mit
decor ations
F oot
cashew s
H ash
er obic
tem ber
Col l
di ties
mar ried
red ness
recycl able
Reser ve
happ ier
blan kets
ac to
dece ased
merch ant
Individu al
tran qu
ch ats
sp aghetti
S ud
Do e
qu it
Al mon
T P
int ent
calm ly
embr oidery
ad di
sweet eners
so re
wr aps
skin 's
aller gen
diff ers
L abor
descri bing
extr action
g are
Personal ization
neigh b
Fin ance
g over
f ancy
Naz i
ti sm
Bar cel
stub born
vir tu
dis counted
be tray
N ord
Star bucks
ign ored
Ap ps
scienti st
Y ear
road side
shor ts
Mil k
run way
w er
dis closure
ann ounce
p se
po ts
Jacks on
al tered
Sep tember
R andom
calm ness
abs ence
sto ve
fresh water
In frastructure
s crip
r ude
surpr ised
err ies
Success ful
deem ed
revolution ary
ex ception
Gree ks
C ash
ris es
gather ings
prejud ices
groc eries
Th omas
ann ounced
blan ket
Adv ances
lo s
Flor ida
N ap
cr ossing
all ic
on ds
an ec
cell ular
pack aged
ind icating
replen ish
loc ate
de feat
th igh
capital ism
reve aling
col der
tion ing
L ighting
K ids
Mem ory
contr actors
Hist orical
Barcel ona
Re ef
Austr alian
con siders
ze ma
R NA
oppon ent
profess ors
b ins
factor ial
pay day
hosti le
strength ens
in complete
ro sem
rosem ary
G iving
theore tical
be ta
supervis ors
sh iel
manip ulating
graph ers
Chor us
contrast ing
n avy
clim bers
y ar
In dependent
out puts
L as
P resent
newsp apers
lever aged
Recogn izing
perpetu ating
need ing
sar casm
J azz
ref use
Johns on
G oing
over load
qu ette
end ment
soul mate
M oney
caul iflower
wonder ing
me ta
w oods
A pr
i ber
grap es
Car ry
excl usion
post ures
pron unciation
al ine
Meet up
conver ted
c lif
Pep per
</ h1>
See ing
anticip ation
geo graphy
fl aw
To ast
mast ering
consider able
fix ing
cap tions
Sup ply
F ahrenheit
s log
Ver ify
seem ed
com po
tri bes
l aces
illustr ations
regener ative
explicit ly
they 'll
M R
t ures
O k
When ever
Opportun ities
Through out
after noon
caf es
ess ays
a e
r acing
qu iz
hand bag
Sur realism
cor relation
ab sent
Influenc ers
pill ows
hier archy
de priv
Ar range
withdraw al
b od
ili ation
configur ation
o ste
D ie
der m
me re
ch ing
sp inal
cry st
settle ment
back ed
Divers ify
th ro
dr um
S ir
am ous
j a
press ed
Techn ological
mo t
Ar gent
Coun t
oo led
Play ers
ge opolitical
licens ing
Y elp
V oting
pi ano
mun d
B ang
short cuts
te or
B ible
perform s
deb ated
gan o
cis s
enem ies
attri buted
Migr ation
Vir gin
migr atory
J um
w estern
sur gical
sp oil
tax ation
pos sibly
an throp
motiv ational
re juven
wash ed
A ns
wil derness
cre atives
magaz ine
glo be
de vi
A ud
con ting
lugg age
KP Is
beat en
mo zzarella
b um
bo died
Integr ation
C ard
ev a
ue led
b ass
characters '
sing er
W aste
Th inking
acid ic
ab road
low est
S ant
ot er
h ill
outs ourcing
sell ers
scan s
di pping
evol ves
CP U
don ation
ass ault
com positions
fe t
thick ness
geo graphical
Hom es
f is
monog amous
explain ed
strateg ically
ann oy
insp ect
oppon ents
oc ados
str ips
ur l
ore gano
shel ls
ob ed
C F
derm abrasion
repeti tions
exam ining
an om
Brain storm
assist ed
pa stry
prophe ts
Man ager
b ial
carpool ing
wand ers
exhaus tion
near ly
story 's
prosper ity
dis pute
p ione
ch amp
C atch
dis played
Su preme
don uts
arr ass
grand children
mo ck
sp ar
foot age
need les
hel icop
An g
In fl
ly n
poll inators
ab undant
H ence
op l
C uba
appe als
mis conduct
leg end
angle ment
str aps
profess ions
rati os
F ix
fo reshadowing
method ologies
Fail ing
R ev
Chat GPT
concep tual
Wel come
hum id
season ed
tal e
cham bers
Con fid
intr over
ist an
cater ing
among st
crip tions
up grades
oun ces
seeming ly
than e
dry er
P os
Appro ach
kn itting
clo set
spec ify
develop s
confid ently
endorse ments
inherent ly
pil ots
to ber
viol ating
advertise ments
scal able
ranking s
ro yal
Regard ing
Th ough
poll en
interven e
scr ap
clar ifying
lo af
feas ibility
J us
e tern
V ict
detect ed
man ually
sav es
aren t
ak i
cab in
myster ies
emb arrass
ax is
pun k
calcul ations
Protect ing
Electr onic
a ways
Crow d
cu be
sell er
sh all
M aster
af ting
C oral
hor se
seg regation
fir s
firs thand
lin en
g ig
sand als
de posit
migrain es
for th
Veget able
fortun ate
criticis ms
ed ition
ud ing
S ave
trans fers
Con st
un even
Ne ther
gre asy
p addle
P ow
s welling
grap e
Ad option
behavi our
ext inction
thank ful
Car dio
b ure
run off
trust ing
f ies
activ ate
appl ies
Initi al
H an
O at
fer mentation
de ck
F old
job a
comput ational
M ong
bankrupt cy
spark ed
test ament
convey ed
Environ ment
eng ages
ac ket
M ut
document ed
bur sts
mul ticultural
ts y
Com mit
Prog ressive
g ated
frost ing
bel ly
Gener ation
exfoli ate
selec tive
comed ians
dumb bell
roof s
S tri
Stor age
Com pl
ind r
fi ref
B ul
sound tracks
8 00
chore ography
L ess
sil hou
track ed
law makers
punctu ation
mosa ics
commun al
ir relevant
filter ing
In surance
Cy cling
feed s
Pre vention
band width
A de
Impro ves
Advant ages
Cr iti
car bs
members hip
f ueled
workers '
J ean
cour ts
re pur
Q ues
antioxid ant
al ur
termin al
over do
mod ules
sub string
Gr aph
qual ify
b id
admi re
smo ky
to k
Aut onom
Autonom ous
p ound
world view
thought fully
form >
matt ress
up grading
saf ari
text book
B ase
Ver se
Al z
Alz heim
swe ating
in cur
re ne
tr ays
home owners
I ma
awk ward
Color ado
tar iffs
acous tic
K ill
repair ing
Cham omile
flu ffy
Dec re
equ ations
exfoli ants
K ah
notic ing
guid ing
tr ades
anonym ity
instant ly
M ur
mem br
fl atter
stir ring
Cry pto
E tsy
ran ged
le gg
Mar vel
mel odies
cooper ative
Le on
V ers
grav itational
ad jectives
G inger
grass land
I ran
portfoli os
return ed
separ ately
N est
tun a
ec zema
CS R
ap ore
F a
C af
alu able
tacti le
territ ories
Jus tice
second ary
t um
r in
Cultiv ate
fl ax
Pop ular
recogn izes
episo des
j et
erup tions
tain s
T ail
fac ulty
or bit
Hot el
any more
transl ations
sched uled
ome ter
A ca
subsequ ent
hom eless
Ath letes
stuff ed
scal es
Fail ure
bur g
convers ational
Relation ships
hor iz
super vision
applic ants
reconci le
Trans late
B aked
Visit ors
i ar
int end
alur onic
a 's
direct or
monu ments
pers ists
IN T
Diffic ulty
C ore
care s
p udding
pain ted
B ell
B ol
tack ling
her ing
mic row
prevent ed
fil tered
pene tr
aw ak
Gar lic
stabil ize
thro at
stig mat
R ose
tri via
k its
produc er
draw s
ach el
mis sive
R ot
Spr ing
valu ing
oblig ation
Chat bots
bl ess
Wa it
ti dal
Sing apore
s word
exp ressive
eth ic
spo on
si p
add ictive
40 1
c ine
Hal f
fl ags
l ag
democr at
biom ed
te ous
dis cer
sp ouse
ath a
im posed
We ek
regist er
H en
M eth
W ood
tam per
Y um
fle x
app arent
medi an
bar king
C os
bi kes
war rant
Parm es
Parmes an
ab er
compan ied
Slow ly
v able
am ple
Personal ize
Con cer
Skill share
weak ened
car rot
contam inated
sudden ly
Ade qu
Boo st
judge ment
pl ag
suppl ier
Assist ance
Alzheim er's
destruc tive
per cus
reser ve
ran k
Intro duce
advant aged
re birth
inf used
20 12
U C
quar ter
T oy
competen cy
smo ked
si zing
fresh ly
blist ers
ac companied
community 's
where ver
B ird
</ label>
il le
eti quette
for tified
irr itate
un willing
motiv ator
w ers
Modif y
ste al
Jo e
re acting
intrigu ing
tic ally
Pol iti
deleg ating
w izard
disrup ting
mel t
Adequ ate
por traits
l ord
iling ual
respon ders
Col lege
ur istic
lear ns
V oice
pe ar
recur ring
univers ally
th ir
etern ity
St ories
Ex pand
bo iling
B aking
lawy ers
Sur realist
compo ser
w oven
Im age
control ler
A dri
pre sident
Wh atever
fit ted
S ens
t ank
lay ering
H ire
pure ly
wh om
exc use
dy es
Proper ty
r ay
p ies
M es
array s
mer gers
acquis itions
acto se
chiro practic
child care
tast ing
acqu iring
Expl oring
ton ight
Com put
Pr in
Con sulting
Fi eld
Fit bit
neuro transmit
divi d
posi tives
20 00
D utch
physi ological
can s
Tim es
active wear
ess entials
visit or
pol ish
l ush
top ian
Main tenance
Incl usion
o res
vegg ie
py ram
fo ol
Dis cover
br ows
name ="
ann ually
Di rec
ome let
crafts manship
W et
document ary
bub bles
effici encies
v ice
preser ved
sophistic ation
resid ential
l acking
exces sively
se ated
r ust
Pati ent
Prot est
co ins
Ob ject
Christ mas
appropri ation
aven ues
br ighten
Cl in
ob vious
ou l
approach able
F actors
deploy ed
attain able
Apr il
concer ted
fil tration
av ocados
juris diction
O P
Car ol
w aking
no tions
Are a
Break fast
oversp ending
ten ant
mer ger
F lo
pren atal
perpe tr
tra veled
20 11
hope fully
approach ed
Con serv
imagin ative
t ative
name '
if f
h ers
z inc
bed s
sour dough
C ow
collect ors
tre mend
Sun screen
for k
veter ans
Bit coin
p ounds
p unch
id ay
hope ful
detr act
conv inc
convinc ed
ende avors
o graphic
Know ledge
3 50
enzy mes
view point
A B
Commun ities
k m
t f
par ad
explain s
f athers
Bal ancing
um ble
bath s
Is su
P ath
Sw iss
aw n
ay a
R ace
up hold
ec tively
tag ging
Hip pie
Char les
manip ulated
insight ful
P in
be th
submit ting
Trans fer
Flexi ble
work flows
print ers
associ ate
S ide
ant ly
cha os
heart ening
night 's
f ounder
rein forcing
T it
enjoy s
Pre cision
Democr atic
ent ers
vers atility
os ci
K ind
audi ob
f oo
Fac ial
R ever
op posed
uplo ad
transi tions
publ ication
un ge
B D
Res cue
dep ress
tic ism
Oc tober
t in
Se ren
dep icts
su ede
bit r
ge bra
refer ring
cryst als
practition er
flash cards
par ing
hypo thetic
re tro
h u
S tock
ral lies
or dered
thr ift
hand les
legg ings
p ens
Squ ats
Quick Books
in sure
kid ney
glac iers
collabor ated
Youn g
f av
Con s
S creen
b is
Gard en
bre ed
tur tles
administr ators
le ans
athlete 's
loo sen
aesthetic ally
An n
dis advantage
Cou ples
br on
F all
BB Q
sec ular
eva por
dd its
Dep end
escal ating
des c
sto od
Recy cling
reb ates
S ense
insp ires
Rec or
un lock
A id
fr izz
si le
ad mission
GP A
degrad ed
tem po
ri or
tortill as
umb ia
vess els
fl oors
Willi ams
cont ents
ad min
v or
eleg ance
An xi
Al cohol
conver ting
ac claim
p ills
er k
roc ket
M aps
g own
Clint on
tren ding
candidate 's
con qu
se wing
D ue
W il
Rain forest
ar ises
ch ic
A V
show 's
destroy ed
Sp in
ogen ic
mar kers
h il
ari ous
indic ator
un equal
i as
Stand ard
preced ented
Meth od
infin ite
My SQL
distri but
poc kets
her oes
f ade
F ried
ina i
wear ables
sle ev
ater ial
post er
certific ates
Produc ts
push ed
D iv
D ia
Deleg ate
ik i
gl ue
classi fied
Com passion
Blue tooth
der iv
real izing
b alsamic
ces sive
agr oforestry
Au dio
S can
interrup ted
monog amy
su ic
photo grapher
birth day
cor ners
spons or
off ending
sp ic
Bel ow
ref ill
adoles cents
Habit at
read s
spir acy
warning s
GD P
ac claimed
In come
L ip
qu ad
Sub mit
addi tives
Un i
Policy makers
st on
atom s
scientific ally
annu ities
war fare
cr o
st airs
Po ke
consolid ation
list ings
E vents
xim ity
planet 's
pre cisely
C reat
resor ting
b ited
organ ism
Ad venture
bu tion
j or
pool s
clean ers
farmers '
Adri ene
clim ates
s cor
om in
bur st
op pressive
om ing
CE O
reg ret
society 's
iny l
Stream ing
asc ending
distr ict
inn ate
Cop y
L in
ver ifying
ab ol
pro visions
ge ometry
neighb ors
D S
ble eding
un precedented
gover ning
kay aking
ar is
bur ns
as ci
fry ing
free zer
Sh ut
ent anglement
Stra w
square s
treat ies
important ly
Apple 's
inv aluable
research ed
ut ation
he res
M ail
co exist
met allic
I d
aw esome
th al
z an
S oy
dis connected
bur ri
Enh ancing
ad er
a ze
av al
pur ity
end uring
R is
modify ing
L ion
fill ings
Fun ding
anec d
Cr itical
gest ure
ch er
remind ing
cate gor
Bre aks
per mit
Anxi ety
Autom ated
pro sec
crop ping
re ception
ug al
e ur
Tal ks
ax ies
ap pointing
ambi ance
uc ks
i atr
Per f
log os
competi tor
hypothetic al
se ismic
sh y
ed ia
liqu idity
liber al
skep ticism
wish es
G ra
occasion al
so ak
ch il
4 2
pre pping
ir regular
nostr il
virtu ous
i i
do sage
We re
recru iting
Partner ing
practical ity
Rich ard
IS O
subre ddits
pro pos
De b
dis card
Home made
fe ver
L iqu
complain t
C in
ar ranged
Class ic
sel s
b omb
thr iving
at on
V intage
h itting
en o
gall ery
diagno stic
platform 's
dis playing
Col umbia
respon ded
char ities
att enti
bl ues
re direct
interrup t
Or der
hier arch
travel er
super hero
Loc ation
out lining
sen sing
vent ures
who 's
pro pri
re tal
ex changes
Isra el
fix tures
Incenti ves
be ads
light ning
activ ated
gal axies
fol der
l ava
summar izing
II I
in fer
load ed
R os
propos als
t art
audit ory
critici zing
Ste phen
mi an
12 3
r and
pr ize
U D
N avi
X box
Class ical
Analy zing
col oring
comp ute
di min
legiti m
sub stitutes
trans cend
form ations
hi kers
dilem mas
s ers
switch es
initi ate
b ark
del ight
he ighten
mur der
r ul
explo ited
dis information
utili zes
Ra dio
sol ic
Pe anut
suf fered
distur bing
de eds
Dis cord
clos est
pal m
quick er
Pl ants
Plant ing
De aling
Rep resent
free zing
ton gue
li vely
drastic ally
ter r
Sw itzer
Switzer land
out standing
alter ations
M ah
pre determined
br ist
labor atory
3 7
Purch ase
Har lem
fa ult
rad ar
drain ed
gr ids
syn thes
off ices
drain ing
s way
fore stry
Smo king
Br on
lefto vers
obed ience
L AN
steam ed
D ise
Redu ces
Lenti l
sn ap
diff users
calend ars
Ru by
l actose
psych ologist
A ds
str ikes
depend ency
ed X
ic ep
run ners
adequ acy
ti ze
May a
preci ous
over fishing
M ask
US B
tic le
squ at
tab oo
P ine
Tr ump
B ound
privi lege
lun gs
e zing
Teach ing
Cur ry
ata strop
G B
Ever lane
vol umes
H op
swe ater
Be yond
upunc tur
an uts
Dise ase
De ath
Hy dro
spark ling
contribut or
str ual
match a
F ig
industry 's
privi leg
Li ber
As set
stew s
z o
scar city
Prog ress
consist ing
in expensive
5 .
ex cept
Egyp tians
drain age
ele phant
For d
Ap pl
decre ases
fr action
absent ee
fr act
Gr ound
strict ly
Mc Donald
St an
Behavi oral
Ban ks
human itarian
ob sole
obsole te
inai gre
exp on
Sky pe
Sm aller
fore front
Hum ans
de clar
p inch
P ul
gare t
cle ver
A wards
re cess
hist ories
load s
I ter
Qu iz
rot ate
bre eze
ad hering
led ger
qu itting
sal ted
Sh oes
E PA
me tics
ur b
ag us
frequ encies
H as
tend ency
excl uded
b end
Word Press
reconc iliation
acc ents
S pl
dream ing
scent ed
inaigre tte
micro dermabrasion
N Y
algorith mic
competi tiveness
poc ket
treas ure
preser v
trade mark
upl ift
lean ing
oc ity
N a
re vi
cre ations
disproportion ately
Man go
activi st
be red
cle arer
re sur
privileg ed
bed ding
hel met
B es
gen omic
hel l
wh ales
Current ly
tr aged
Ad opting
altern ating
ti de
hers elf
Cour se
Ab stract
Fem in
tremend ous
helicop ter
S us
Bu il
i at
sc and
sp here
street wear
3 9
bro kers
mund ane
in haling
P and
any way
Crowd funding
Job s
Ans wer
asp iring
3 1
ar bitr
pron oun
N ep
harm ing
divi ding
tight ly
wi fe
enc ed
im posing
frag ile
S ounds
ti gh
he mian
k o
Dec lar
rain bow
counter fe
si ties
op ens
exhaust ing
he x
numer ical
cor tex
chap ter
P izza
T otal
gradu ates
ci als
lan tic
Che m
Paren ting
print f
D ur
Oat meal
AI L
can y
exfoli ation
VPN s
F ant
direct ors
peti tions
ambi ent
compreh end
n ine
Commer ce
stop ping
commo dities
acceler ated
walk ed
O M
neg lecting
st akes
H ill
open ings
sun flower
bell ion
B atter
ban ned
Ty p
Dr agon
transport ed
accommo dating
vere ign
Mat rix
cin em
herb ic
J uly
commun ism
har ms
nour ishing
pros thetics
imper ative
cr ush
v ague
3 60
D ial
mo tives
No ve
Nove mber
me teor
under gone
M ocking
F u
appeti te
sub conscious
a us
Ch ile
gl am
en compass
diam onds
string ent
rest ful
Rever se
embed ded
cleans er
Tit le
Rest aur
Poll ution
Rock y
fut uristic
song writing
fin ishing
Grow th
un fortunate
Com pati
Develop ers
D ar
real ities
mush room
L ength
< EM
<EM AIL
<EMAIL >
blaz ers
rel uct
a ired
sp aring
` `
rum ors
R P
Poke mon
ang ular
specific s
Cl othing
Sol ution
s avor
Recogn ition
appoint ed
od ors
Jum ping
bit es
0. 0
enti ous
al gebra
wi pe
Negoti ate
Dr ug
pray ers
ex haling
Mar ine
f ading
con spiracy
arr ived
to bac
tobac co
build ers
bl ades
sh ed
Rec over
Hub Spot
Vi ol
conting ency
is lands
Ro ast
microw ave
p ile
ad der
0. 5
baby 's
ish es
ru gged
Demon strate
treat y
pus hy
compar isons
char m
Nether lands
il ton
re posit
exec uting
sn ake
conv in
K im
cent ric
cop per
god dess
Ken ya
d aughter
pedestri an
calcul ating
ith ium
Vin ci
n as
re un
Photo graphy
deliber ate
suc cul
Partners hips
list ing
transl ated
ar rest
A BC
project 's
men strual
ush i
fir ing
in securities
P et
micro biome
ur ine
turn out
scal ing
tr aded
ar ad
pre m
in adequacy
F ab
m oun
indr ome
d ull
pl um
pe anuts
bl ouse
sparing ly
impl ies
transfer ring
electr ons
Co ach
sat irical
investig ations
enem y
V ary
Am ster
Amster dam
J er
emis sion
story lines
sell s
Av ail
c atastrop
clean up
industrial ization
dom inated
tu b
Phil ip
reliev ing
N S
al gae
contracep tion
individu ally
mirac les
C ell
ligh the
A L
wand ering
presid ential
mar king
Influenc er
capital ists
u ate
A sh
bu ffer
rad ical
pe e
phys ician
Moist ure
origin ally
migr ate
he m
lear ner
d dit
h us
mas cul
V AR
den y
tail oring
O t
an atom
market ers
surger ies
rel ates
el ic
re treat
dec imal
pestici de
ect or
ac upunctur
Incre ases
ances tors
ge e
Cent ers
D iet
sweet ener
par se
ey el
K ne
invo icing
pur if
evac uation
Ge othermal
thr iller
Tac os
pro ximity
ev o
acti c
else where
Sales force
D am
Ta o
nur ture
Reduc tion
plant ed
Port ugal
system atic
inc ense
R ising
tac o
cate gorize
counter parts
Vietnam ese
Open AI
gymn astics
distur bed
voc als
film 's
m atic
L ady
GP U
need le
loop s
idi om
Dec ision
subre ddit
ici ary
ri b
A long
sl ave
ind ication
so vereign
conf used
pres ti
commit tees
s ender
tun ing
H ur
Coun try
night life
corpor ation
fr iction
Ef forts
G s
D ER
Op tions
Be es
Smooth ies
brand ed
k im
B ag
certific ate
ad ren
be aring
202 2
format ting
arad erie
contin ent
r ack
cap ing
Pr ize
liber ty
ab i
in hal
Coun sel
neck laces
fragr ant
as a
New ton
Ef ficiency
Ex cessive
Jan uary
ge ms
M ood
dis appointing
7 8
Bow l
enthusi astic
emit ted
intermit tent
pro se
M eat
absor bing
ti er
quanti tative
whi st
minded ness
excl usi
S park
en crypt
convin cing
sn ork
to dd
multi plication
I KE
li de
immun ity
F alls
yar n
Com posting
less ly
c ough
copyright ed
K ick
counter act
predic ted
g enders
dys topian
restr ictive
Re quest
Mocking bird
reser vation
n ob
"  name="
P es
hand bags
H atha
sof ter
A qu
z ens
b ilingual
key boards
box ers
Colum n
P age
respond ents
ge red
Tur meric
Row ling
Manufact uring
cou p
cam araderie
pul sion
part nered
W in
concentr ated
resi due
alpha be
Elec tion
cer am
gl imp
glimp se
Process ing
ten ants
C up
Drop box
Ne ural
scholar ship
grab bing
boy cot
or ize
or ches
tr al
Fil m
set tling
predict ability
fed er
deple tion
appe aring
b om
E in
Cr op
constitu tional
water falls
discus ses
d op
friend liness
f ame
anti biotic
mour ning
F DA
guarante es
gar nish
fol ds
compet ent
Jud a
Juda ism
conform ity
di ps
Assess ment
ic ates
L iter
if eration
traffic king
Bel gi
inhi bit
ne mon
i able
loc king
Stand ards
roof top
course work
Ad opt
revis e
inev itable
dis satisfaction
Typ ically
J r
Mor ning
Re wards
c ers
event ual
chore o
compost able
dis color
over power
o z
T oss
anal og
am ar
mar i
renew al
For ce
d b
in effective
Third ly
b our
kil ometers
found ations
ref uses
as sure
Initi ative
pursu its
buy er
Be e
F requ
innoc ent
po ison
commit tee
commo d
Le af
le ak
impul sive
stadi ums
Shut tle
hid ing
Divers ification
R aise
6 00
re ply
Infl ation
ad herence
qu ie
progress es
Ni ger
Strengthen ing
till age
Argent ina
w inner
U X
Wor ds
Con tr
se es
plag iar
elev ator
b ash
occurren ce
publish ers
ph i
po aching
cu te
B la
re ign
fi bonacci
R T
Challeng es
artic ulate
su nam
nuc le
char itable
attenti vely
19 0
sp are
car to
ju ana
Ne ed
bees wax
in ator
check out
profess or
rot ating
fix es
Competi tion
bath ing
di zz
hum ility
Tre k
ac ular
McDonald 's
C art
V ote
me try
L ink
osci ence
he ights
She a
alloc ated
i op
estim ates
lan es
electroly te
P ix
fis cal
v ow
bar gaining
p ir
Her bal
4 9
In hale
Ob ama
ny lon
As king
Dan iel
r he
prohi bit
char ming
loc ks
crow ding
to ll
gg le
k not
pit falls
Dis advantages
ju icy
un limited
F ra
old est
spl ash
Sp ider
land mark
rip ple
wr inkle
Sur vey
Coun ter
go s
short age
blow ing
butter fly
Sym bol
un rest
en na
decl ared
it ably
S tran
B ath
preserv atives
art ed
n ull
fl ush
T idal
R ight
super ficial
L if
tri g
trig gered
ab normal
disturb ances
Stand ing
In ser
mar ter
reg ime
Cris is
Jo se
p end
pi gment
depriv ation
thread s
v inaigrette
c ables
ec y
al ies
Strateg ies
mi str
altit udes
impress ed
3 8
is y
ble ach
Braz ilian
i us
He aven
sun sets
u sivity
shel ves
lenti l
P ull
ca ve
Recover y
fe tch
particip ant
panc akes
Oly m
calcul ator
che er
me thane
W ed
mer ged
K ar
di ans
ker as
ad ays
block ers
in sensitive
H iring
le v
air line
pr iced
pro pulsion
v ations
egg plant
P aper
herbic ides
gar bage
se mi
ip ping
bing e
ben e
v inyl
elim inates
Relig ion
be ers
comp ile
resp ectively
GM Os
medit ative
Li br
ord an
sl aves
back story
s lang
7 .
constitu ents
di visible
hear ts
un g
boy s
Ab out
plugin s
pe es
B ost
evid ent
R ad
< div>
at ar
nervous ness
interrup tion
exagger ated
entertain ed
ac on
construc tively
inv en
inven tions
Compati bility
Practi ces
burn t
tiz ation
Res ol
Exp ect
bright ly
pat ri
minor ities
slow ing
arr ival
f ell
Bar rier
legisl ative
mari juana
Lun ges
polar ized
ic ons
op lan
sp ati
S ize
ab sur
Gam ification
Im port
sou thern
anch or
prepared ness
encoun ters
con forming
profici ent
broad cast
F ull
vel ocity
pig ments
Tem per
che at
Dou ble
reser ved
anom alies
hum idif
Shop ify
penetr ate
Bost on
cocktail s
Er ror
Al pha
nation ally
some where
vi gn
co ated
Re views
R ings
hard ship
prol iferation
W ave
bene ath
Equ ity
or ious
Ref err
S care
don ut
proto type
P P
Cal end
Cor n
consist encies
un motivated
alum ni
inter ns
Ste ve
E asy
cr acking
onna ise
dis infect
S even
d ot
R am
Eth iop
hy aluronic
cr aving
ro asting
scram bled
safe guards
sign age
it ations
summ it
assign ing
i ge
scor ing
are st
St ack
Recy cle
Compl iance
int est
alum inum
Cyber bullying
D R
oca ust
sea weed
mo s
br as
remember ing
fin ite
ous se
guar dians
ear plugs
Water gate
Bas ic
vers a
crim ination
valu ation
SM ART
E C
she er
Com promise
Sal mon
ar c
j an
pa thetic
hand ful
penal ty
ther m
M ir
commun ist
in fertility
cab bage
tw ater
sav vy
uniqu eness
collec tively
C uc
sur real
laugh ter
CH AR
Mo z
Adverti sing
medi ate
continu ity
ag ic
attr acts
Rem ain
ight ers
John '
condition ers
d '
pre mature
contam in
spec tions
hur ting
down turns
friend 's
spati al
fore x
In f
Ch ec
un intentionally
Issu es
spec ulate
no ises
mer it
tiv ism
man 's
parent 's
song writer
touch es
after math
Hol ocaust
M BS
P V
Child 's
argu ing
misconcep tion
valid ated
car a
stimul i
Hy per
or osis
liber ation
tr aps
R aw
m ol
compare s
post ed
em bell
transfer red
Tour ism
overe x
shel ters
retal iation
ph ants
K at
sist er
co ats
n als
sequ encing
p adding
de w
R omantic
go at
bab ies
Hot els
hi red
Contin ue
communic ates
Compu te
sli des
auto immune
br isk
guess ing
sti fle
S team
Advis or
bou ti
bl oating
un de
w ick
in convenience
iter ation
J ump
,  
Report ing
r ick
experi ential
ske wers
tempor arily
Rep utation
The ory
s ic
Custom ize
con figure
b ip
Ris ks
Gr ap
Lo op
Cu ban
correc tion
Sy d
sh ark
N ut
am ory
polic ing
exam ination
contamin ants
system 's
spontane ous
rasp berries
ot ta
4 4
Fr iday
Dis crimination
vign on
be half
pat ents
Scienti fic
is ions
ph ob
desc ending
Ho sp
read ings
p encil
no d
dis advantaged
P ubl
stream ers
In dependence
legitim acy
E pic
qual itative
e ucalyptus
itch ing
F ile
OR DER
cross ed
min es
hydro electric
ad hes
Caf feine
Mo tiv
invent ed
Tim ing
incentivi zing
S car
j ack
ch u
magn itude
tab s
in herit
EV s
Retail ers
adverti sers
invo ices
br uary
por trays
In sights
Rescue Time
agend as
reser vations
pr ises
in quire
fl oating
acknowled ged
ser um
Syd ney
adren aline
F at
S ushi
multi ply
Play Station
free ing
Exercis es
att ers
dis heartening
cl usion
ar do
bind ing
second hand
aw a
nor thern
exist ed
Mut ual
Program ming
ge x
cine ma
Declar ation
H ang
8 5
do ts
minim ized
mistr ust
ans om
re production
enter prise
S ex
Fe bruary
foc al
VAR CHAR
overe ating
re bellion
dissemin ation
anatom y
pro pose
po et
scare d
D B
mo ods
san itation
premi ums
aff airs
K o
J ac
w itch
av is
Po e
al er
p ap
Sec ret
whi pped
integr ations
appe ared
texture d
surpr ises
rel oc
J erry
stress es
land lord
span king
spec ially
wh ale
R ay
M ul
G O
consider ate
C arr
Ar m
At lantic
En cryption
compl iant
ad ul
pho sp
it z
18 0
acceler ation
cul us
tem ple
M aterial
con stitutes
ched dar
op orosis
en co
pi x
Audi ence
j al
nur sing
refin ing
W on
A w
9 5
h ed
special ists
subs criptions
point ed
25 5
ult ure
ac ry
compl iment
distr icts
outer wear
absentee ism
le ges
dr aft
un acceptable
fasc inated
patients '
ou red
intro spection
Fit z
territ ory
position ing
Respon sibility
Net works
sovereign ty
D C
it ating
Lim iting
re set
new found
since re
Ther ap
exclusi vely
enti tled
soften ed
Cr u
molec ular
tooth brush
academ ically
Sh ampoo
discour aging
6 .
sign atures
pastoral ist
Tom atoes
Spin ach
re bel
dict ate
sound ing
Sur veys
200 9
minim izes
re produce
search es
Educ ators
L ift
T aste
Bes ides
H at
Ac cur
y l
B ure
J eff
impro per
M s
Sol utions
weak er
program 's
turb ine
pr an
H V
cancell ing
r atic
critici ze
ch in
subject ed
inv asion
s marter
catastrop hic
Ne ur
par ch
parch ment
G ran
death s
it ers
don or
Pr ay
pass enger
b at
p has
w an
Eth ics
j ars
tournam ents
rub bing
punc tual
F lu
Ar izon
fast est
Should n't
Bound aries
J ordan
ot ine
fau ce
re sem
rein forced
av ers
belong ings
lon ely
T ut
sque eze
Di verse
stam ina
I tem
inhabit ants
ted ious
fresh ness
subs cribe
Con serve
Enh ances
avoid ance
ro d
C hair
M I
reput ational
anticip ated
Fant asy
weap on
exp ir
G ently
B ak
team mates
viol ates
CN N
Z ap
Hum or
p d
ori ans
Oly mp
b ending
D eli
ste red
g ents
Hab its
re dem
formul as
MBS R
ent ered
Is lands
explo sive
Pay Pal
occurren ces
blog ging
ra z
ballo on
anti bacterial
kn ight
P ie
spread sheet
Nan otechnology
non violent
mor ally
In vent
s light
coup ons
optim ism
enc ils
un related
Conserv ancy
decor ate
ock er
ec ology
R ick
transparent ly
Rob ots
Movi e
ed gy
annoy ing
dial og
Anim als
om ag
ple d
Spirit ual
char ger
music als
me g
Rep air
Buy ing
Chem ical
whist le
redem ption
rup tion
Techn ologies
L ater
hin i
lik ed
S pray
assum ing
Nap ole
im s
Out line
UC LA
Paren t
ab c
Budd ha
peti tion
De ce
Dece mber
view er's
hair style
O culus
Egg s
scand als
Arizon a
law suits
esty le
gl aze
decl ining
down turn
rel and
C ro
advoc ated
Mean while
ri ble
comed ic
ant er
ta h
g les
abandon ed
Ma jor
inter disciplinary
C ities
4 7
Host els
Watch ing
Res ili
Batter y
confirm ation
short ages
gr iev
hil arious
ex ter
come back
cleans ing
US D
she a
Web site
ta hini
period ic
M yth
dil ute
N ob
execu tives
life 's
log gers
Pain ting
sp ur
pro vision
Alex a
S i
E ve
ne on
un pleasant
Des ert
awak ening
swe ep
stem s
g og
t sunam
butter flies
imper ial
Fitz ger
Fitzger ald
restr oom
under going
may onnaise
W itch
U T
rest ing
u a
b are
spr outs
attri bute
threat en
K et
in spections
ar my
context ual
Since rely
heav en
Kah oot
dop amine
explore rs
character istic
l ore
20 30
n ar
bure auc
bi an
orn ate
am mal
hack ed
j er
Fish er
Mus k
chlor op
M od
Re usable
Ori gin
fur ry
Go gh
B au
H on
oton in
volcan o
gre y
whe els
ker nel
cr an
G ate
Cand id
re creation
tr agic
Ob tain
Tr ace
post ings
discolor ation
to red
ag a
ik u
clean ed
Dis play
Code cademy
Con feder
Entrepreneur s
T ren
fundament als
S ent
Lis a
tel es
doc tr
I reland
c ited
Sl ice
position ed
tend encies
Con ven
li ed
brows ers
reposit ory
s cripts
R ub
voc ational
def ects
jour neys
nect ar
S ix
dir ty
Hun ger
rival ry
chiro pr
Co sts
Pr inting
W ine
ver bs
sor ts
se rene
norm ally
clo sures
ves ts
Rec ru
F eat
eyes hadow
am ends
Multi ple
Ske tch
suspect ed
conf ection
an ium
talk ed
Eli za
mant le
viol ated
ge ological
S av
ad missions
do se
un sustainable
cur tains
marginal ization
Rec om
h ints
La unch
ac r
contrad ict
regul ates
mass ages
pain ts
stream >
ul ates
ip es
B h
sa usage
Shop ping
sti p
accum ulation
l end
syn chron
un ing
si a
new ly
sed iment
As sem
re pay
R anch
consult ants
im prison
champ ion
In ten
am use
k illed
public 's
B amboo
ul u
Olym pic
ent ries
vel ength
h its
cur ves
believ ing
At tention
jo joba
cr aw
ac company
cur y
S oc
ay ama
qu bits
V ill
head ache
t lers
a que
general izations
defin es
uncertain ties
un ified
deter gents
gr ieving
Ch ia
Vis ion
horiz ons
men 's
song writers
exhaust ed
L ights
Wor kers
B erries
ga mot
sensi tivities
Alex ander
symbol ize
Wr ap
media 's
st um
ote ch
fici encies
Con vention
re fr
D em
particip ated
attemp ted
cur b
sim ulated
benef ited
mis used
D river
cham ber
ext ends
omed ay
affirm ation
collabor ators
R ye
ed y
disable d
firm ware
spon ge
mut able
appreci ating
newsp aper
Plan k
ensi veness
match ed
in consistencies
stop ped
on c
dress ings
per missions
car go
be ige
length y
u pr
P D
cor i
thr ill
Br ook
up cycling
speak er's
Pro of
amuse ment
b '
Bure au
consult ant
B oot
J oy
deploy ing
fire wall
slog an
swim suits
car 's
no isy
fron tal
com pose
g olf
Mix ing
tok ens
patter ned
25 0
distor ted
inter nationally
be gun
Meas uring
infr ing
Leon ardo
Photo shop
Mag ic
nur ses
es tration
Authenti city
E P
ciss ors
coll agen
sil ly
Comb ining
saniti zer
down side
aton in
script >
bl ade
rhy me
tain ment
moistur ized
adjust ment
av as
de ficiencies
on ia
R adi
cori ander
inc t
thigh s
reduc tions
ma id
pr izes
ext ending
Collec tive
ten nis
Gr ass
Z ero
Ein stein
exam ines
hand y
Pass word
Gl ad
ven ge
differenti ated
humidif ier
tr iceps
dis sent
S ource
ens or
sleev es
du al
w ired
Chris tians
borrow er
cur l
harvest ed
intermedi aries
dep ictions
gre eting
stic kers
boo lean
im bur
express es
play er's
explo iting
P as
spec tive
gener ator
s omeday
ne at
credit ors
master piece
s crew
break up
av ir
avir us
Em br
pot ent
ut an
vec tors
jour nals
our ism
Some thing
fool proof
Hy brid
mut ation
Mem bers
as par
twe ets
S SD
el led
tow er
de pos
op y
region 's
W inter
remo ves
product 's
meet ups
church es
under way
frag mentation
elbow s
K u
cat ers
indul gent
f oil
re using
Su gar
domin ance
paragraph s
B lan
Spr inkle
C aes
Decre ased
recover ing
wed ges
benef iting
ep i
del ivers
dis posing
applic ant
foot work
rel ativity
wr apped
speech es
un ted
contain ed
freel ancer
Respon se
Iter ate
Tr ading
Con temporary
ad mir
ap ology
pro portions
coun cil
electr on
h int
playful ness
give aways
imp aired
nood le
im plants
i y
ab bit
ht t
Per haps
mem bered
in '
0 1
Bu ffer
warrant y
scam mers
fre q
do ses
Pepper mint
cram ps
astr onomy
introver ted
GD PR
age '
I sa
E Q
Nutri tion
to os
arr ing
i pe
cook ie
wa velength
W W
M r
Valid ate
irrit ating
B at
te ens
oste oporosis
rece ip
off shore
hol y
ag le
ak a
d red
Qu estions
nostalg ic
ur s
Stu ff
suic ide
dash board
E E
sh ining
ris king
brace lets
J on
cat aly
block ed
elim inated
c art
D at
Fo am
forgot ten
jus tified
exc ell
ten s
recess ion
ac kets
school 's
ex oplan
Should er
chun ky
Rest orative
st a
ero de
flatter ing
u an
gener ative
traged y
aim ing
ranch ing
sh iny
< io
<io stream>
miti gated
snork eling
ac credited
Anti virus
Dol lar
Un ique
discipl ines
ad as
asser tively
Dy namic
ha us
1 20
Sau vignon
N ar
metab olic
Engine ering
Cha in
Pur su
J O
remed y
random ly
Gl ac
comed ogenic
chan ger
z oo
os ity
thes es
Pro to
Trans form
K it
Oc cup
tor so
cy cl
Arr ive
pol lo
accur acies
nest ing
gy ms
es ports
aspar agus
Gu ard
hol iness
Le vi
grammat ical
de fe
tacti c
dizz iness
muffin s
Person ality
head ings
we red
finish es
ic one
Sh ift
Develop ed
Archit ects
lo tions
synon ym
interconnected ness
gr o
Ju ice
S ite
Air lines
Die go
Carol ina
G C
z i
F ry
wh ites
pro biotic
compens ate
g ad
k ok
ul >
car pets
Nep al
O vers
E ld
Lab el
W on't
re imbur
Incl uding
ap oc
apoc aly
hi res
sequ estration
Ques tion
swim wear
cip al
re gex
sp ills
Ul tra
</ form>
ar in
Utili zing
que ue
Jour ney
Partners hip
port al
de fic
lower case
Fre el
C li
g d
cur ly
lu br
R ate
Cardio vascular
base ball
pl ots
mat urity
o 's
Catch er
Inter val
no tion
li d
human e
bod ily
er ad
Caes ar
off end
Equ ip
pressure d
excell ence
Cir cuit
hel pl
medic inal
betray al
absur d
un professional
HV AC
lu cid
vari ability
M ust
Michel angel
Americ as
r at
manip ulative
quie ter
mone tize
listen ed
investi gating
recommend s
br illi
rin sing
st ag
Br us
ess entially
dep icting
lod ges
y o
iny asa
proto types
re membered
re vital
m able
I G
omag netic
l oun
Distr actions
he ap
T ask
reflec tions
cid ence
transl ators
ex emp
render ing
portray als
Psych ological
groom ing
air planes
h ues
camps ites
sou ls
enrich ing
plagiar ism
L ew
in sider
Am endment
exp end
sal twater
par odies
f al
Char acters
Brook lyn
un due
Concer ns
con di
in ject
li abilities
over look
3 75
re fund
ambigu ity
ic ip
Simpl ify
A ust
parti san
B id
al og
s perm
no tify
U tah
Virgin ia
Counsel ing
spr ays
skir ts
on al
ach ed
process ors
Fin al
harm less
ma stery
toile ts
A pollo
Ph o
party 's
Table au
Con sole
ob j
boo th
1. 5
for getting
Sp icy
ful ness
ground ing
Pic ture
not ed
in ability
f res
quir ky
Lu ther
re r
Show ing
bu gging
comprom ises
Az ure
button >
ex ports
Har per
attor neys
m ph
clear ing
delay ed
om y
encounter ing
con sequence
attack ers
cor ro
C BD
pow ders
deriv ative
cal e
femin ine
arr ow
ru in
pitch ing
in coming
y n
pol itely
Pre vent
ru ins
impress ions
w ow
rep ellent
re w
depth s
pression ism
note book
bust ling
mo squ
mosqu ito
pum ps
psy ched
mis understanding
Eliza beth
un like
abr asive
T ensor
gre et
anti que
in accuracies
intersec tional
m ats
clou dy
ins ic
gd ala
gymn asts
un fortunately
mut ed
ha unting
arr he
arrhe a
Ge ographic
w olf
pain ter
Archit ect
fire walls
J un
capital ist
T ouch
S chol
HT TP
O reg
f lip
Se ated
pay s
P ear
legend ary
F C
bra very
refill able
cancell ation
weigh ing
S cand
sc atter
unt ary
atr ical
dom inal
gh ost
Al ask
Past a
avoid s
en roll
read ability
in spection
ide ological
tr il
dre w
Space X
m ud
qu art
Hel ps
Story telling
dy ing
inter play
h ence
in consistent
ru led
bicy cle
capital ize
pe aches
pl t
DJ s
information al
divis ive
con templ
gr asp
clin ic
Pr aise
Max im
time frame
exter ior
card board
MR I
stitu tions
Me chan
qu ot
withdraw als
cl ut
L aws
clean ups
pictures que
p ave
W ool
D ip
di visions
brain 's
Dr izzle
objec tivity
str ap
familiar ity
Citi zens
cer amic
r t
Q A
fi br
Mon key
bitter ness
de mean
r uling
Confid ence
shor ten
Mil itary
sacrific es
deser ves
us s
incorpor ation
ter rible
A erobic
ah am
we eds
indul ging
regim es
inser ted
b ay
sur f
8 9
A SC
won dered
ser otonin
Pine apple
Pal ace
T H
Host el
State ment
Pr im
Cot ton
Y PE
heighten ed
believ able
align ing
ded icate
Treat y
Mic r
Cast le
All oc
l ion
hair styles
an cies
al o
Z ara
member 's
Con text
Sat ell
correc tive
u til
credit worthiness
thr own
sou th
S neak
com bus
chees ec
Tele medicine
dumbbell s
pand as
comm uter
ol ves
mean time
nic otine
Her it
Fin land
valid ating
u tive
identi fies
s ch
Muslim s
ge ared
dis missing
re write
Can cer
Ste ward
Steward ship
JO IN
High ly
An onym
g ates
Al right
in her
was her
farm er
j elly
Be y
Meet ing
ansom ware
D M
back links
num py
amy gdala
you ts
mo ds
H og
C e
staff ing
Chec king
virt ue
Intel lectual
Inser t
Tail or
ak en
vac ations
four th
fer ing
Dif ferences
T ab
divi des
pro jection
Jose ph
direc ting
ish ments
Chris to
enzy me
en velop
f if
intersec t
mus cular
sustain ing
individual istic
Pres sure
discrim inate
off ender
S hi
Enter tainment
prim er
Produc tion
manus cript
em ics
Global ization
T en
Herit age
philosop her
rid ers
juris d
Google 's
Fi ref
Ge org
news letter
per oxide
depart ure
J ay
tr ucks
expir ation
discre tion
ne arest
L S
Sol o
dis missive
b iz
we aving
Gr ill
jud iciary
brace let
O dys
anal ogy
occup ation
deter ior
out ing
clients '
V ulner
Pal est
ob ics
Go al
Initial ize
inter acts
B read
assist ing
person as
Ex foli
cr own
s lim
t int
sm ud
gg ling
L unch
facilit ator
ne ither
B right
Fam iliar
ofu els
L T
gem stones
en grav
es tial
c '
us al
Che f
Tom ato
dom inate
4 3
Share d
t apping
te ars
spread s
Feat ures
act ress
can cers
We ak
V ine
parents '
straw berry
stream lining
H imal
Fam ilies
w asted
dis covers
def ensiveness
uc ture
Inv ite
Ad am
ap i
lighthe arted
mon o
fluctu ate
Bang kok
mal es
Inte ger
Ad op
hus band
W ide
the atrical
De hydration
gr ind
out lined
symbol izes
T ale
SE C
Connect ing
content ment
Con tri
pal indrome
cl utch
on avirus
Comput ing
G ent
vast ly
mess y
squ ash
clif f
struc k
ex ceptions
Rom ans
P O
li b
comp il
ew ater
M ot
blog ger
law suit
Bas il
head er
Incl usive
griev ances
Sil k
dr ip
read able
B loom
Sn ake
adul thood
re assess
pack s
mirr ors
av ag
J ama
G T
j ava
pre frontal
bill ions
vacc ination
souven ir
Direc tions
S BA
In t
person a
Be an
Gard ening
comment ing
Stud ying
se ment
dest iny
poe tic
in still
F ar
Identi ty
Pay ment
sex ually
scratch es
R oy
Pain t
tat toos
stain less
l amp
Emo tions
metr ical
Podcast s
pe el
ar ising
deduc tible
R ail
aer ial
198 9
ren 't
pe red
V ent
an ism
qu is
solid arity
enn ials
B ub
ol ar
No ise
maintain s
prosper ous
opl astics
Georg ia
d aring
Person ally
om iting
s nu
expect ing
re active
Sep ar
co sm
ide ation
re used
T uring
N ix
sharp ening
cos metics
cho se
back ups
intr usive
commis sions
suspense ful
Ref lec
Citi zen
assem ble
c king
Travel ing
prin cipal
fe athers
v re
rel la
state 's
10 1
compress ed
slic ing
unde res
He avy
thunder storms
respir ation
Gent le
asy m
For ward
icy lic
tough en
award ed
electr omagnetic
lobby ists
si er
Real istic
truth s
Sat ur
Har ris
it t
calcul us
blan k
shiel d
Sub ject
troublesho oting
str and
Bio diversity
le asing
. h
US DA
Sur vi
Bid en
P a
od ic
pul led
revolution izing
confection ery
c ogn
re venues
thermost ats
anal ys
Af ford
W s
dr ill
Sant a
spell s
Bi om
Bau haus
om bu
comput ation
Con clusion
Bl ind
deci des
diff use
tend ed
ust le
ill es
Work shops
hist orians
Ex c
Quiz let
micr of
sp oke
C ra
Fin ish
Dog s
S har
franch ises
re venge
in directly
Draw backs
alloc ating
biom ass
Gl uten
or ide
nutrition ist
un plug
oper ability
ang led
dis miss
Trip Advisor
Begin ners
avas cript
Be ats
anecd otes
acupunctur ist
impl icit
Tw itch
Min imal
Cam ping
ous es
white boards
con fron
E stim
techn ically
ambigu ous
ch ill
sau cep
saucep an
plan ks
fund 's
y ards
are s
announce ments
rich er
dis appear
rus tic
mascul inity
Toy ota
Liqu id
Un ile
Unile ver
rain forests
B un
Fro zen
Deb t
Resili ence
ide ally

     
Str ucture
protest ers
provo ke
R ange
May an
Candid ates
asy n
persu ade
Develop er
station ary
neur oscience
Temper ature
particip atory
fin ity
st an
gi ver
win ners
prioriti zation
V acc
Se attle
X X
tr u
sli de
un stable
tal es
parti al
M ush
K ay
app 's
wast ewater
counterfe it
bon us
p ent
den ied
re y
tor renting
Car rots
discer n
fract ures
op i
ca fe
J am
tranqu ility
volcan oes
mo tions
mor se
par ab
J ones
A str
al id
public ity
cyber criminals
ac custo
accusto med
Ever note
dev oted
ap prais
person s
Perf ect
pan cies
sport ing
B old
collec ts
allergen ic
thous and
6 7
con vol
crum bs
Be ef
fi red
hy p
out breaks
Construc tion
e Bay
cr os
spir ation
pee led
tax able
bal let
im balance
tr apped
.h >
termin ation
off ended
T enn
authentic ally
admin ist
Phil osop
ren o
con sul
Author ity
Tr uth
Stran ger
n els
va por
WH O
pyram ids
uf fle
re percus
auto biographies
inter fering
alert ness
over crowding
microph ones
ir a
occup ational
prohi bited
Himal ay
N ile
vacc inated
ari ans
F F
b ases
pes to
al t
fundament ally
ag ging
psy cho
am ation
Wor ks
astr onom
li des
Spr out
M irr
Corpor ate
on ing
dead lifts
P ak
S equ
inv alid
calcul ates
ele phants
nemon ic
Pot ato
imp urities
Bl ood
SS L
v omiting
T own
in ous
Rec ent
war ts
des ks
camps ite
shr ink
M ining
intoler ances
perpetr ators
E sports
off enders
i Pad
Introduc ing
fol ded
2 >
mar inated
Dial ogue
tu be
reas surance
con fir
W as
ren ched
Cr im
nu ance
Clean ing
co res
y ms
on ents
dram atically
corn starch
request ing
Pro biotics
con es
ne ath
pol es
inter tw
AN D
Olymp ics
CS A
hel ls
Ret ur
ombu cha
neutr ality
kill ers
head ed
< !
fi able
set back
ass y
ch uck
jurisd ictions
simpl ified
enter prises
i gan
employ ing
T AB
bo hemian
ce eds
re acts
sl opes
irr ational
Neutr ogen
Sleep ing
auc tion
cre ep
perform er
f andom
b illing
pand emics
ling ual
R on
T un
toile t
gl ing
spec ulation
ra ut
biomed icine
h oo
dis k
fore head
Rap id
dupl icate
di arrhea
spr ings
Avail ability
be c
non sense
r ons
traum as
or ial
Respon ding
Ser ver
bad ges
audiob ooks
intimid ation
fortun e
improvis ation
solic ited
coast line
Ele ments
P ure
h ills
Sun day
bless ings
intimid ated
sw immers
discre pancies
decor ation
S cam
O x
Muse ums
sculp ting
c ence
Cha p
sty l
umb a
O live
inser tion
Mus cle
B a
privi leges
repercus sions
iv a
Work out
over lay
fav our
Qu est
exacerb ating
dam s
rece iver
B urn
E lon
M arti
irrit ated
Mi ami
Particip ants
Hydr ation
Neutrogen a
qu il
P ap
6 8
stip ation
exfoli ant
Lew is
Ex ec
BC E
I Q
gl itter
econom ically
influenc er's
ge ta
Algorith m
mon archy
inv ited
Competi tive
Bel ief
n ity
Vari ous
K itchen
Col ors
un resolved
flaw ed
coll isions
Depend ence
Plan et
aer obics
Co ke
Const ant
' d
v it
de fer
glow ing
Almon ds
K y
conce ived
Hydr ogen
over see
Consist ently
toxic ity
hy pe
S pa
Equip ment
attack ed
reno vation
w ound
ar ranging
vow els
U BI
erk raut
Sum mer
re financing
conceptual ization
Calend ar
20 50
rhyth mic
em body
sol ves
demean or
plu gging
membr ane
D ais
Col omb
Colomb ia
Bub ble
every where
el ite
Eff ects
companion ship
ans wered
cred itation
boo sts
less ness
clut tered
Strateg ic
s cissors
artis anal
G el
res hold
D s
C ats
b uck
ww w
domain s
ele vation
S CO
r ices
stor ming
silhou ette
tici an
wheel chair
G lo
kil o
char coal
col our
V inyasa
proto typing
ta xi
pe aks
check list
ast y
po inter
univers es
in efficiencies
Ro set
Roset ta
program mable
ti res
draw ings
Switch ing
sq rt
E if
cour teous
margin s
Sy mp
members '
nas al
per sec
om es
mon arch
diagno sed
firm ly
inter cultural
c ous
clean liness
ic als
mi um
hun dred
a >
over training
T itan
dis placed
paper work
Ber ry
man eu
past el
hierarch ical
stitch es
fig uring
cur ved
pse ud
Seren ity
b oun
ad oes
Doc s
E state
vi ability
DO CT
DOCT YPE
Libr ary
ian o
PC s
I ne
drop ped
Med iation
re par
an th
um n
iter ative
Collec tion
Ch erry
un used
in secure
cos metic
Re tirement
re framing
B oil
se ve
K ong
B end
reson ated
Bh utan
ch et
preci ation
country side
oper ated
pick led
Stand ardi
D ave
cyber attacks
cont entious
venti l
in sufficient
Relation ship
Ste ps
Mon th
Lu x
horizon tal
Eif fel
200 1
bre asts
Re lev
wit ty
Ar th
St ella
Sil ver
Behavi or
brown ed
R olling
ail ing
ph an
en ix
des pair
sw ift
my stic
h ref
sky diving
Spe ech
br other
calcul ation
ti dy
out li
ce real
App rentices
Ex ternal
spect acular
l adder
style >
Collabor ations
F ans
coll ages
sub cultures
Restaur ant
F L
Proper ly
Run ner
correc ting
defin itions
sign aling
out ine
ab dominal
Event ually
ain ing
Kick starter
iz oph
izoph ren
econom ists
R oyal
j ury
repur posing
distribut ing
Lou vre
An dy
</ table>
teas poons
troublesho ot
in der
request ed
Glac ier
Pr ince
od ds
Swift 's
flat ten
progress ions
competen cies
struct uring
reward ed
Dress ing
a pr
on boarding
T ony
L uc
fl ame
intr insic
combus tion
program mers
bi otech
Com post
h 2>
back drop
  html>
brain s
l ithium
Recom mend
re hear
fore see
T enc
pal ms
fr og
re training
tri um
Isa ac
re morse
on board
Be auti
ent ary
firef ighters
D P
Moroc can
dis posed
S core
cha otic
trace ability
ali tions
Moroc co
e ast
nor th
Connec tion
by e
k g
multi pl
G all
Hog warts
stum bled
prospec tive
my list
P ocket
bu ff
renew ables
marke ted
Z umba
chr om
after wards
T ap
ig s
may o
des erts
negoti able
Ber n
de tox
Adapt ability
Aw esome
izophren ia
Body weight
bal con
u be
sponsor ships
Em ily
hop eless
TAB LE
mis communication
cid ental
Pray er
special ties
hurrican e
H edge
dis appointed
p ist
digit ally
Condition er
rough ly
mass es
Ach ieving
now adays
accus atory
re treats
Mag nes
Magnes ium
cel estial
Sup pose
<! DOCTYPE
Arth ur
Fl ash
flu ent
de cent
th inner
Hold en
AT P
car ve
ten sing
<input type=" text
Distr i
bi tion
V ector
R ely
di ves
g ans
group 's
femin ism
S aut
Chick pea
cs v
aphr ase
bal ms
gad gets
P ink
B O
bar be
l ob
last ed
au x
pur ification
scar ce
Optim ization
J en
Sau ce
cancel ing
dye ing
N I
aud iting
ri ers
S ah
expect ation
Beauti ful
Des k
al k
similar ity
Ham ilton
at tered
AS OS
perf ections
M au
M om
familiar ize
ense m
T T
ank les
Hol y
assum es
pow dered
pres cribe
mal functions
ground water
og ens
cop es
s ink
re sum
P un
ST Is
dis son
<!DOCTYPE  html>
CO UN
COUN T
full er
B ear
elev ated
fl ossing
intr usion
Ban anas
In vesti
oy d
Expect ations
z A
therm ometer
r ation
some what
Clar ify
guid eline
bun gee
quanti fy
ili ans
coating s
Tem ple
remo ver
lim bs
Cap acity
Stu di
Studi os
re visit
r ug
M etal
ger ms
Gram my
ster one
micro bial
ha ul
M ale
Di am
6 3
Har vest
C aul
200 6
appear ances
infer ior
ch illed
P aid
skip ping
construc tor
intro spective
Dis able
deduc tion
Viol ence
G RO
GRO UP
th reshold
en ne
bron ze
v andal
upper case
wrong ed
Ca fe
v ings
S aint
preh ensive
spin ning
ab str
itch y
DE SC
S ensi
cu its
bl ush
W ishing
< no
S atire
en os
Ment ors
incre mental
disturb ance
T am
me ts
t ect
crum bled
h r
Mor ris
Add iction
conver ts
Fab ric
Jew s
N ur
aw ake
conf use
Inst ant
Ch ann
un solicited
Moistur izing
er ian
Fol k
agree ing
ab lo
know led
psyched elic
trigg ering
woman 's
hur dles
d war
Am ong
200 7
retriev al
device 's
os aur
gl are
H As
counter culture
sports wear
Rob in
bench marks
vill ain
Won der
pursu ed
in accessible
tro ops
ent renched
apocaly ptic
hinder ing
tim ber
question na
driver 's
pit a
law n
Pay ing
Sk ipping
L es
seve rely
ho ts
4 1
im perfections
mat te
< div
Honest y
bul ky
H all
ed ged
batch es
Ket tlebell
unfair ly
beginner 's
mon ot
ing est
ci a
share able
input >
Ap plication
Tal ent
academ ics
u tional
un treated
ap ar
Instruc tors
P PE
En der
pl ings
Bur ger
ol ls
C RE
fauce ts
Vulner ability
Tre vor
Cur ren
K an
Pak istan
< table>
fi b
si e
web page
</ a>
gon na
Clin ical
Enh ance
stain ed
Oreg on
ul tra
US P
mat rices
chew y
G host
concep tion
under valued
Cir cle
A ero
fl ess
differenti ation
S V
Med ic
As sum
Show case
pot luck
pharm ac
ren sic
settle ments
imag ining
Corpor ation
dr ums
prefer ably
doctr ine
construc ting
objec tions
Agricult ural
Mal col
Malcol m
bip olar
co operate
N O
imprison ment
ier ra
U k
cli ps
Ar oma
com ings
2. 0
/ >
ri ages
Me Too
up heav
flu oride
counter productive
D inner
ret in
n ip
Neutr al
Uni verse
comed ian
ob sc
ice break
Start ups
Z o
fun gal
h ustle
B os
para dig
kn ock
stand alone
acqu aint
realistic ally
in jection
Ath le
F uel
import ed
man ages
A cid
IR S
policy making
moistur izers
re apply
Employ ment
m ia
  for
sti tut
ventil ated
Ste el
ar ith
ul tras
I F
Cuc umber
de ficiency
resur gence
adhes ive
gin x
do s
interview ing
pal ettes
en a
B ooking
ma sters
ol i
grammat ically
Re habilitation
acceler ating
conscious ly
res ha
T ara
Femin ist
alpha bet
ol ives
f fin
C AD
Hawai ian
fl ats
to man
sun shine
<div  
Ex pressing
earli est
cur ries
cy c
exp ed
gre ener
Mal ay
go ers
account ant
Homes chooling
fair y
E vol
Sn ack
c ache
deal ers
scrip ting
me rely
tril ogy
Sud den
incl ined
offic er
ric otta
Bl ender
am phi
Wh it
fi led
vol untary
co herent
day time
so aking
portray ing
J as
gr it
tr uck
pat rons
spir al
A bility
199 4
im ports
Stan ford
susp ension
gg y
syn c
Ste reoty
Mich igan
G ym
satur ation
Cr aft
J ewel
Vin cent
Up per
Tenc el
under take
Pol ice
Dr ain
crush ed
mel atonin
h art
pro verb
entr ance
Es cape
fa it
under neath
haz el
Work place
al tru
Aca dem
analys es
F ox
Tan zan
decor ated
provider 's
or nam
Sand wich
typ ed
to sterone
evolution ary
R GB
t x
w olves
ama zed
as surance
C od
project ed
immers ing
Protest ant
water ways
Cr ime
progress ing
sym metry
cl ause
molec ule
shampoo s
exhibi tion
s cars
graph ene
Gr av
Ide ally
ta i
fl ora
pet als
le ash
cos players
bur y
Tensor Flow
Gr ay
str anger
infin ity
ali ens
up holding
coord inating
entrepreneur ial
rel s
UN ES
UNES CO
mo b
vi an
Sent ence
outr age
propri etary
SE M
wr ists
E c
pun ished
dupl icates
Union 's
proceed ings
tele commuting
short comings
D ick
Ch iro
wh ims
T ie
Brus sels
democr acies
inherit ance
peace fully
Me al
occup ied
omelet te
pe ach
sul fur
tra ject
ody namic
W oo
introduc t
introduct ory
D ense
fan base
4 6
Tour s
rect angle
dev ote
Mar ia
fly ers
fr ac
D ist
bloom s
induc ed
Estim ate
b og
ger y
it 'll
R ise
energ ize
phob ias
ad ic
Ele phant
outr ight
acry lic
cal f
N uc
u gu
u ff
tur tle
civ ilians
IKE A
sequ ently
Down ward
Carr ot
S port
Pic chu
u ity
superi ors
Tr auma
Sha ke
Sub s
fin ely
c itation
br ittle
commercial ization
bl ot
ris to
Bab bel
C open
Copen ha
Copenha gen
L MS
G ab
oul try
p m
pip es
nut meg
emp ires
gh an
G reg
pro por
propor tional
Rep ubl
wear s
Install ing
synon yms
ble aching
fish eries
character ization
maj estic
7 2
res sively
Ac knowled
Guid elines
Brain storming
con e
op tical
bre wed
I sol
Hel ping
mis sil
missil es
sel fless
Git Hub
Co ord
pran ayama
m ice
pedestri ans
Pur pose
lab s
Class room
zz le
P el
L obby
research er
An tar
Antar ctic
tit ude
re ts
cot tage
Mc Cart
McCart ney
g ious
ong ed
Hosp it
198 4
V ene
Adap tive
com ics
re purpose
H it
mar sh
cis m
c ouch
co alitions
medic ines
CD C
Sc avenger
am ate
ton er
intertw ined
swe ets
re v
Ve hic
non profits
functional ities
bi e
kim chi
iti sm
ley ball
Vill age
rep el
Ac tively
ten cy
imp ede
cus es
bun s
senti ent
C lo
aper ture
pro spect
Gr owing
og atory
ile en
mun icip
en coding
AM D
pos sessions
termin ology
cor als
Prom otes
sk ating
Thr ones
nec es
a ver
til t
reluct ant
con stipation
re connect
Nor mal
Mo ving
emb assy
mas cara
evalu ates
contribut ors
Pan ther
neurotransmit ters
Zap pos
ed ible
geta way
col lar
ines thetic
R V
calcul ators
H ans
arm or
In sul
D ele
ob struc
Strate gy
pip eline
F iction
mouth wash
ist ine
facilit ates
de bugging
Wal ter
F ly
date time
at ro
cab ine
immigr ant
Rain bow
soy beans
ill as
pu ffin
ap se
f asci
Over night
excl ude
equ itably
neigh boring
Dia betes
poll sters
per or
Mach u
S avings
pred omin
remind s
g ay
e en
Bring ing
sc all
Retur ns
cook er
YouTu bers
Te en
N DE
deliber ately
vol tage
reve als
competitors '
Alask a
Ad ventures
Cour ses
ende avor
L ic
sch izophrenia
Draw ing
Ir ish
instrument ation
pur ify
pro voc
E ileen
embell ishments
Spl it
You th
hy ll
Commit tee
al arms
brilli ant
Sw ap
A ward
j on
Differen ti
Dom estic
y eah
car ved
parad ox
Criti cs
rest ed
jo ined
Oper a
i j
Almon d
waist ed
tun nel
vandal ism
In stru
intri gue
am om
Doc tor
situ ational
No ah
Republ ican
Or well
h ug
nob ody
coord inates
pher d
y lang
snow boarding
O '
ah oo
Ef ficient
Con ference
song 's
p izz
Setting s
prof iling
step ped
van ia
gen ome
utri ents
is ation
travel ling
Def ense
flash y
manufacture d
cr acks
gre ase
ut ers
ri ot
de bug
M ention
rain y
care d
Scot land
B umble
IP O
fl oss
absor bs
Engine ers
conqu er
presti gious
h ue
phil anthrop
bag gage
sed entary
Park ins
sp as
d and
H em
R ing
H ong
Accept ance
pop ulated
X Y
tit anium
energ izing
Ly n
am ents
un ease
Ste ven
Design er
op oly
wrong doing
eyel iner
In n
grand mother
bi ofuels
jud icial
mor tal
p oultry
extract ed
un as
Commun icating
recommend ing
so aked
S hel
ra is
skill set
sh utter
sp ans
bohydr ate
Ch ip
R even
ch imp
N VID
NVID IA
Al bert
lod ging
Down load
We 're
Coll ins
Profession als
ors es
Pred ict
as so
encompass es
inher ited
lin er
rejuven ate
cap ac
y ol
arti stry
Y ears
ph ony
mal function
names pace
post modern
200 5
crypto graphic
dep iction
um er
lor ds
Ch amp
chr omatic
poly amory
7 00
Pr ide
st ating
CRE ATE
reimbur sement
Teach er
ari o
rel l
Ma themat
hel mets
le ap
dis connection
Re quire
gener ous
D istance
der ogatory
car n
f ights
decl ines
identi cal
Aroma therapy
ru ff
chor us
im mutable
O scar
E dam
shar ks
G h
insul ated
LL C
trade marks
as is
burri to
exoplan ets
To ol
rel ating
todd ler
O m
Br occoli
Coast al
Glass door
building 's
bo ats
clust er
Vine gar
Non verbal
seal ed
a  
F s
gu ed
ain e
hom ogen
W ol
E X
str om
Scal ability
G un
Respon sible
Rely ing
t z
Pol ar
trust worthiness
Univers ities
download s
el ders
os ke
oske let
T el
dash boards
Produc tivity
E AP
h angers
ou ve
ouve au
ref urb
download ed
inspir ational
Dem and
Fe es
gl itch
neg lec
dis illusion
</ button>
global ized
Fil ter
Austr ia
L IM
Happ iness
Edam ame
Veget arian
over came
v ille
puffin ess
Col lecting
discard ed
am id
bel ts
F acing
Complex ity
Leaf y
em barking
dialog ues
gr adi
gradi ent
ar ia
Syn thetic
repl ication
analy zes
P ly
ur a
Pers ist
Biom ass
stitch ing
Med ications
f og
E quality
Pati ence
enhance ment
Exper ts
J up
sil icone
S aling
is olate
ac cidental
rock y
r afting
den ser
Mand arin
d or
abnormal ities
ort on
shoot er
foresee able
parab ens
elim ination
mil der
sha ving
Ven us
buil der
pre tend
Her bs
homeless ness
br ide
over fitting
stat ue
sm iling
lim itation
ex cuses
agg reg
Real ism
Host ing
Satur day
dram as
Influ ence
distribu tions
L au
alleg ations
in cidence
satis factory
stimul us
LIM IT
id ing
Ot toman
fer ment
F al
E cho
N intend
bul b
un happy
Eve rest
clean se
satisf ies
necess ity
movement 's
D ome
cer ity
recur sive
rece iv
emoj i
sh ading
k ha
pain killers
campaign ing
gre ed
L ooking
Pin ot
ci garet
cigaret tes
op ard
en act
wind ing
Se gment
less en
extr acts
A gr
Ex act
Liter ature
Embr acing
tall est
B L
neces sities
D ub
hand written
sub set
Acknowled ging
AP Is
gener ational
Fa ith
iy aki
class ics
l inking
d p
ha iku
cr ate
2. 5
an tim
Con version
Pow der
S tic
wor ms
fa ulty
Vict orian
heart ed
Over coming
excl usivity
foli age
ha unted
emb ark
R ac
vel vet
S her
mis understood
press es
b acking
up take
g ia
Fac il
apart ments
if er
p ines
vis itation
hop es
ok u
po le
terror ism
over lap
assess ed
Beat les
Invent ory
Afford able
F ine
outli ers
ks ha
tough ness
Post ing
Algorith ms
L on
rel atives
mountain ous
C M
ot to
dr illing
SM Es
divid ends
ne a
consumer ism
found ers
C aber
Caber net
Ex tre
found ational
G one
De ter
en du
S I
standardi zation
custo dial
S em
ke warm
succul ents
Exact ly
ar med
In formed
D V
Y ahoo
Recy cled
196 4
in con
Clim bing
ch emo
Dis ability
pan or
author itative
spec ts
and em
Sol ving
r im
m ash
dr al
Say ing
pil gr
similar ly
psych otherapy
st alls
ran ked
pros thetic
up ward
St able
determin ants
en amel
dys function
Bel ieve
plastic ity
alarm ing
fall en
employ s
N ick
ac cor
Sec urities
Levi 's
se w
Me trics
F lip
cr ave
ose x
G irls
atro cities
grass es
Cin namon
sul f
commod ity
P enn
Le gumes
advis ed
over heating
Nintend o
lash es
Cl ay
ri gor
u ce
Tw ist
Coach ella
FT C
n th
ups killing
F usion
C hase
pat ties
adoles cent
transport ing
fun gi
Vari ety
ar ter
Val ues
go v
Tr affic
innoc ence
investor 's
ot ers
V el
Integr ating
Parkins on's
be ets
V era
ot in
Over use
ant ing
Nob el
C itrus
lamb da
K end
spic uous
N ev
car vings
car di
Pic asso
car cer
criti ques
vid ence
an es
vi gor
value ="
Ori ginal
Sal v
lun ar
model 's
sal icylic
anti bodies
un supervised
Mong ol
poll ination
Adop tive
Grand parents
war rior
sol idif
succeed ing
p om
cli p
rhe tor
Bir th
con dem
mid st
M IT
emp tion
Well ness
culture 's
O uter
ob sess
lu kewarm
href ="
abol ition
Recor ding
whims ical
W y
mo th
ve gans
class ="
cogn ition
m uc
Anim ation
Br ow
Th or
Bi ometric
M ak
dish washer
breakdown s
o let
diff usion
Navi gation
H allow
bi k
H ulu
theore m
h ooks
cere als
ing en
ten sor
hypo allergenic
imp ati
Com ic
Mem es
U bun
Ubun tu
r amen
compar able
agre es
R io
e erie
full est
N umbers
pi pe
kill er
sur pass
restroom s
program mer
co b
m ammal
Re qu
refuge e
N u
thin ly
IR As
divid end
dis regard
ed am
lam ps
glad es
Fore ver
fe ud
Vis iting
st ren
stren uous
cultiv ation
strong est
beauti fully
Car bohydrates
Kind ness
W is
jer ky
Inter face
al oud
back end
Evalu ation
rul er
dis closing
temp ted
ime ter
ari um
ad jective
th irst
Rein forcement
has n't
stand point
p ale
el a
advertise ment
fa una
symp athy
the id
sur ges
tournam ent
perf ume
tes tosterone
mother board
per ish
di ameter
goddess es
irrit ability
AI 's
Autom ate
obsc ure
care giving
Lif estyle
Mis sion
d well
Vent ure
iction ary
con sec
S ony
exist ential
philosoph ies
uc ci
national ism
Pre mium
Smith son
Nuc lear
fles h
acquaint ances
Philip pines
revers ible
glam our
ideal ized
199 1
copy ing
min ed
man tras
T una
200 3
un productive
O ak
tici des
arti fact
inf ants
Altern ate
Tanzan ia
Fact or
ail le
r ansomware
shar pen
frag mented
Authenti cation
elastic ity
ro b
citizens '
pa str
than king
7777 7777
lock ed
Odys sey
ash es
As sis
car bohydrate
un reasonable
ca vi
gos sip
trium ph
Uk rain
investig ative
suit ability
safeguard ing
edam ame
ub iqu
R ank
drop ping
Qu ery
L '
chemo therapy
Sh r
members hips
E there
O uts
to bell
tobell o
spoil age
7 9
cir ca
Park er
Prof ess
bicy cles
N as
Familiar ize
M O
launch es
gall on
receip ts
ch ooled
Or leans
ban ning
v ana
k le
log istical
concentr ations
acknowled ges
edit ors
Com paring
Symp toms
Experiment ing
Pass ion
enti a
Just in
confir med
Michelangel o
Vers a
accus ations
Crim inal
N avy
Industr ies
initi ated
ke to
dial ects
den ying
Pop corn
mes mer
AI DS
tranqu il
inten si
S on
de bit
Sep hor
phas es
verb ally
extr avag
con ditional
isol ating
Ex ped
cyc lists
Ac tivi
aid ed
Fl ask
we arer
S L
bro ke
P ed
mand ate
sketch es
A risto
R asp
transl ates
V ic
Bi otechnology
D umb
torn adoes
Ben jam
infring ing
adap ts
was hes
Dais y
down fall
perpetu ates
escal ation
Design ing
ci de
Red emption
no tification
de ity
punish ments
inter cept
in capable
M ist
it ous
G i
8 .
ch oo
sp ider
Che fs
inf est
incon spicuous
vacc inations
infect ed
deal t
G A
ec ot
ecot ourism
Hun t
issu er
Ethere um
p aving
pr uning
am end
form ative
read iness
Mo tion
to te
Gram mar
li zed
Some one
ID E
illi e
sp y
Chr ome
Cal ligraphy
claim ing
author ization
pum ping
ped iatr
polar izing
Innov ative
walk through
Posi tion
b os
brid al
poly gam
fight ers
Com edy
crunch es
6 6
depos its
Gu ardi
short est
B or
imperial ism
tra verse
tigh ten
p encils
S we
ob server
d ancer
A br
Ad ams
Hen ry
W id
Advoc ating
she ep
fati gued
Hur rican
XY Z
Mau i
confront ation
Manufact ure
ecy cle
Mess age
Pers ian
in comes
199 7
bul ly
un clog
h one
diver gent
Shakespeare 's
h acks
acc using
Hallow een
de ceptive
ar id
cur sor
shut tle
ke fir
Cli ent
Ill u
T asks
Sal ary
Mong o
loaf ers
podcast ers
tow ering
par mes
parmes an
perman ently
ree k
yan i
F an
Gal ile
Curren cy
America 's
L akes
tect onic
Engine er
PC I
ren ts
M ash
be ha
T ips
persec ution
c attle
witness ed
Sum mit
rand int
Boo sts
stimul ates
mis interpretation
L D
folk lore
mystic al
affili ations
N orton
in efficient
sli ding
17 9
under mines
M AT
ther mo
Sim on
ke eper
ceram ics
ent ation
char gers
br aking
attack er
agg ress
S audi
Arab ia
Chap ter
chiropr actor
trail ers
Dumb bell
Rest oration
pl at
pul se
to asted
reson ance
Neg lecting
ar omas
quiet ly
hard ships
rais ins
infr ared
neglec ted
techn icians
depend encies
intest inal
overs hadow
S ierra
provoc ative
Inten sity
Integr ated
Christo pher
Tri angle
pre conceived
g ur
phys icians
un salted
gog gles
back ers
cash mere
does n
af el
clin icians
cal i
ensem ble
br im
ony tail
companies '
punctual ity
din osaur
Recor ds
Process ed
L amar
ga zing
cheesec ake
pastr ies
at us
tri bal
N om
To do
g our
iti vely
ad el
rush ing
pun ishing
Re arrange
V oter
Mass ach
Massach use
Massachuse t
Massachuset ts
fle e
sa unas
prop het
Bro thers
phys ic
den om
j ug
c astic
ens l
Assis tive
eas ing
con cat
Dele te
Lo ad
sk ies
workload s
ash amed
< a 
<input type="text " name="
vi al
H ob
em powers
War rior
liqu ids
tax pay
F lat
cal ves
ana erobic
R F
char At
le ys
gate way
cheap est
ou ched
multi lingual
So ak
democrat ization
comp lying
path ogens
bo k
contract or
R ou
s ne
gu ms
on set
sau erkraut
resum es
N ik
qu et
t ents
200 4
la youts
techn ician
inv itation
ag u
pre dis
illustr ation
aphr ag
Con sequences
For ms
ar omatic
Sn acks
c ooled
pro ved
R wand
3 000
Sh or
Make up
Jewel ry
soil s
Br ad
out break
By z
chem ist
di ary
U ne
environmental ism
Co al
bo asts
Gar min
R osem
Rosem ary
poly nom
ir vana
n asty
E ll
Ban ff
arbitr ary
set tlers
G H
accor dance
Empire 's
O ption
1. 0
opponent 's
Benjam in
t ec
R ush
sup ple
G a
merch ants
Pre paring
con cess
auto biography
vari ants
r ut
att an
j it
jum ped
B ond
M un
acti veness
Intel ligent
C ub
dol l
swe aters
Min i
graph ically
Nord strom
osex ual
carto on
Free ze
sigh ting
comp iled
S el
jec tivity
on o
monot ony
fl ing
Mari o
B illie
t uck
neurotransmit ter
Prin ci
kn ives
alleg ories
al tar
ballo ons
Fra ud
t k
evapor ation
simpl est
Sta ff
per v
vi gorous
be y
we ird
B ike
intro duces
ad jac
rec k
decor ating
repur posed
chlor ine
ob s
<a  href="
choo ses
apolog ies
7 6
el le
m nemonic
spr ink
Main e
im m
uc king
vir gin
stra ighten
Acces sible
run time
stead ily
res tored
Convers ations
hydro xy
susp ic
faith s
gl az
caramel ized
ED M
M apping
water fall
Instagram 's
F light
Saling er
ul us
fif th
olog ically
St ars
des per
Recru it
good ness
sweep ing
Inter action
S alsa
co aster
ampl ifying
hyper tension
dil uted
cl er
symp tom
sar castic
T ues
mention ing
dol phins
Bec oming
Niger ia
A y
M P
protect ant
od ge
cor onavirus
She ets
pool ing
by pass
K night
submit ted
stre t
stret ched
stretch y
rel apse
Comfort able
grand eur
lay ing
advis ory
k ine
panor amic
hor us
Bir ds
ri ors
popular ized
bas kets
gre enery
ex cur
Sc en
fed ora
P AC
er ia
shower heads
bak ery
Wet lands
u it
Data Frame
brew eries
V A
embr y
ph ara
phara oh
Frame work
chat ting
clos eness
tight ness
pour ing
mar ble
Ch ili
p ans
end point
pro cure
commer cials
Alloc ate
Tol ki
Tolki en
GM O
arch ae
S mil
< label>
fol lic
y ester
yester day
H emp
fertili zation
Grap hic
dynam ically
In ca
gal axy
ti reless
ner 's
under stated
bur pees
install er
V ery
squ ir
normal ize
G ear
For mat
Pro jects
ext inct
ex changing
experiment ed
K hal
Diam ond
T us
W olf
Pre par
Car l
V Cs
Europe ans
8 8
In tr
ony ms
reson ating
Af ghan
Architect ure
A verage
Friend ly
F SC
tex ting
del ve
clear ance
Belgi um
phone 's
Happ ier
Z en
S cul
Ar my
Bay es
l vania
Ar ticle
brist led
Cot tage
side tracked
On going
gly cer
square d
circa dian
cl one
Todo ist
ch ants
defin ite
Be ans
insure d
B ed
Re ce
cough ing
im plements
room mates
N arr
road map
Cor ruption
nourish ment
freel ancing
Car n
o ak
no sis
Smil ing
Pers pec
micr oman
ud ge
dum plings
Nev ada
Us ed
Byz antine
strengthen ed
D avis
lif ecycle
G as
amate ur
me ad
issu ing
sul fate
As ser
Pre sid
prim es
or tho
alleg orical
ethnic ities
mile age
traject ory
common alities
Ph ishing
Gall ery
N ear
maneu ver
purif ier
liter al
soon er
veter in
tut ors
Access orize
man ure
k er's
v ince
Opportun ity
Strength s
ses sive
demo s
retr of
ell es
err ands
F unc
anti depress
un intentional
Michel le
ch ir
G ucci
par as
ubiqu itous
diction aries
cur ling
Pol and
oy sters
con firms
employ er's
sat in
spontane ity
detail ing
toler ated
movie 's
A my
er ous
199 0
N BA
mobil izing
"  value="
5 4
he ars
Authenti c
silhou ettes
colon ists
Prin cess
ent angled
sq l
helpl ess
Ver tical
mater nal
Straw berry
Th reat
raz or
admi red
t len
u '
camp fire
In fo
swe e
imag ined
hip po
cor relations
vol ta
Col os
mo ons
vol leyball
ph ia
fer tile
parad ise
zon ing
dem entia
Jul iet
engine ered
199 8
D ash
our ced
normal ization
Qu anti
Tran si
pione ers
Ch oice
D uck
he 's
admir ation
Bot an
An ton
shell fish
ign or
promp ted
attr activeness
S take
ind ices
Z inc
Z ion
Rot ate
K id
selec tively
tan ks
pick ed
Isol ation
sim ulating
< label
<label  for
<label for ="
barbe cue
li ament
minimal istic
incl ine
concl usive
un settling
on ent
dis respect
ant agonist
un plugging
cor ds
m n
extra ordinary
ti sh
br acket
aid ing
hero ic
Mag az
nod ding
Min ister
dis obedience
fun k
H IV
farm er's
cou pon
J et
al liance
distr ust
d ice
M D
grape fruit
umb rella
plum bing
Prop ose
sup pressing
comput ations
defic it
Frank lin
Bey onc
L ed
A tom
9 .
Con fu
Confu ci
lands caping
gr ime
embarrass ed
G ri
stay ed
wast age
modern ization
Bre ast
perish able
cr ab
Un real
road blocks
soul mates
D ell
CD s
Par se
Ment oring
re vel
sa il
c d
int act
Att achment
E yes
pum ped
tro om
des ensi
O C
r opes
conduc ts
remain der
fier ce
Sha w
enti es
ay ed
Symbol ism
duc k
Ex tra
rail way
out going
sc attered
favour ite
Em ma
intermedi ate
or ia
sulf ates
Ethiop ia
Dub ai
bu oy
Swed ish
in ver
abstr action
E vidence
Motiv ation
decl ined
Fl oyd
over working
Prom otion
inter operability
Port ugu
Portugu ese
She et
De e
opl astic
finger print
empath izing
re structuring
Reg ion
ard ines
lec tic
tat too
film making
myth ical
pass ages
tur bul
play time
fo rensic
water color
N er
perf umes
sl ope
ap ol
exhaus tive
sil ently
Top ic
Extre me
inter faith
co smo
card amom
W ats
My Fitness
in vests
restr icting
vibr ations
crash es
ER T
Agr oforestry
thr ows
196 5
g ma
resol utions
stain ing
Par ad
X ML
Ti bet
un secured
M rs
br aces
Bal m
sty lized
pronoun s
inter activity
bot tled
auto mobile
Ne o
organiz er
sensational ism
he et
le um
Bri an
P atter
L ost
Sh ir
K il
Cal cium
Civ ic
Sta dium
meteor ologists
own s
un fold
har monies
plant ation
out ings
N ic
mi to
ste aling
p ier
L igh
Resol ution
er tion
at z
bub bly
compens ated
Design ate
chap ters
fire arms
Al ps
sci ences
Schol ar
sp acing
Di jon
Access ories
S ources
Pur ple
noun s
199 9
g us
predomin antly
defe ated
earth 's
Occup ational
mis sile
N oun
Copy right
Leg end
clash es
L enders
man ned
cur ate
Per i
chil adas
affir ming
`` `
Im mun
diagno sing
Illu str
Pl ato
skin ny
Bud ap
Budap est
en to
sur render
Sk i
j as
og ly
pastoral ists
NDE s
pick les
be having
extre mist
sex ism
evo kes
MyFitness Pal
condi ments
Ad ditional
an i
arch es
adjac ent
imparti ality
E qual
captiv ate
In ternal
deser ving
W izard
ag ave
Se afood
Pep si
dis likes
care giver
Gh ana
Ch op
out ages
in carcer
coll ision
For um
ge on
Activi sts
<input type=" submit
draw er
Tues day
il ial
Par aphrase
Ap olog
vill ages
F et
u x
Plan ner
cont our
p onytail
A er
air flow
ug ula
Mis sile
vi olet
ha ptic
U GC
dele ted
comp art
S af
v ase
head band
chees y
Sudden ly
Cate g
ec lectic
li able
Dif fusion
Av engers
Poly nes
migr ations
re tire
10 .
rest s
kettlebell s
micr oplastics
pure e
e go
disson ance
F ati
Fati gue
dream like
Bla de
Ed iting
shop pers
immers ed
Am pl
gu y
ex ert
Mar kets
H IP
l ery
im moral
adjust s
Anonym ous
su pers
tit led
He aling
spic iness
prom ised
en acted
concentr ating
R ural
interpre ters
boycot ts
ul ator
ad vert
Mal ware
S ame
up held
grat ulations
od a
pan try
cir cuits
arr og
dog 's
consul ate
br i
sun burn
un predictability
Specific ally
Rel ief
advantage ous
C entre
artists '
apar theid
de er
ar re
pediatr ician
ous ing
macro economic
Wr iters
mone tization
ref lex
reci pro
lex ia
mis o
Any thing
min ers
m ute
laugh ing
in 's
neg atives
mas on
20 25
Comp ile
repar ations
Q R
bar bell
sp at
wel comed
configur ations
car p
h inde
jun gle
follow er
Mar riage
rare ly
accum ulated
Mari e
cataly st
mod alities
at in
in duce
crip tive
Sign al
be ating
Ro che
Fat ty
mo il
Nike 's
Ath ens
Dis abilities
S ac
tri be
Children 's
C leans
dis solve
C run
arr iving
un structured
ram ps
hypo theses
replace ments
Cu be
ac ute
senti mental
am endment
devi ation
hon ing
Pho enix
D ali
tx t
NA B
engrav ed
W AN
Sex ual
Tren ds
sim ile
T reas
Vari able
fl air
expl osion
Th urs
Se ed
dis pers
prison ers
sli pping
back ward
an x
H ind
Co operation
atz iki
broad casting
pivot al
Frequ ent
grad ed
st dio
str oll
strand ed
Napole on
Py ram
ga ze
pair ings
l ady
B ry
h orses
C GI
Dev ices
mac ar
clif fs
lunch es
sque e
harness ing
L ate
k icks
cheer ful
htt p
bom bs
Construc tive
therapist 's
in soles
gam ified
Las er
grat ification
Hash tags
Assum ing
jan go
E HR
parti ally
Medic are
arch ety
sub mission
v logs
ell ar
grand parent
En forcement
Do or
pl au
Allow ing
world ly
P har
commission ed
China 's
Pre p
5 2
quot as
E cu
se aw
Photo synthesis
bun d
se als
cap su
strip es
Ed ge
Vol can
upheav al
kee pers
tur moil
electr o
intrigu ed
in advert
U ps
r abbit
cali br
flash light
comp ul
investig ated
sub tract
L AI
In door
Ph an
fin ed
fl o
effort less
North west
Movi es
ic ro
icro bial
Appro pri
ore m
Japan 's
Dis connect
revi val
blow n
ry mand
R az
Republic ans
sw aps
add icted
A part
affili ate
overpower ing
ogly ph
micro biology
Phil adel
Eld er
de ities
rec tion
de grade
Sens ory
d read
Target ed
believ ers
Arm strong
startup 's
Rome o
deter rent
arti san
Every thing
stew ard
Over fishing
Sha pe
connected ness
ach a
ay enne
Soci etal
Organ izing
Pos ay
Conven ience
paddle boarding
Dat ab
Penn sy
Pennsy lvania
protagonist 's
ch urn
Med ication
ath an
cream iness
Salv ador
quar antine
contact less
Wh isk
if ted
Tor ch
cab ins
High way
L ily
N ouveau
CO S
Char ge
burri tos
Inte grate
perv asive
mix es
Relev ant
citrus y
Stri ke
Wats on
initi ating
gr oss
reser vo
Di plom
mod ular
V ac
W at
cut lery
< stdio
<stdio .h>
moun ted
pos session
T err
fantastic al
h n
pul p
ke tch
ketch up
Star ry
Amazon 's
KE Y
hon oring
over time
cor k
stereoty pe
Sub stance
p lying
45 6
fam ilial
qu ads
summar ies
S had
Rec ipe
T on
5 1
interpre ter
foot prints
ch ur
polynom ial
bath tub
In form
For tun
Str uct
Thr iller
Fro st
Back up
Af firm
ann ah
c en
Ch est
Y NAB
the tician
politici an
m g
sanc tu
simpl ifying
sha king
trans c
B orn
L ands
M iti
ot le
De al
feud al
Hydr ate
tim ers
We alth
n ich
Aca dia
Other wise
Lo tion
Like wise
Land ing
not orious
Sus an
Fig ure
explo itative
vi ation
Proto col
Academ ic
fol ders
pet 's
sol ace
L il
Exercis ing
reun ification
deduc t
bol t
ag ues
Compare d
h over
tele health
aggress ions
oc ol
M att
valu ables
thr ust
biomed ical
ge ot
Philadel phia
Gab ri
pre fers
Re use
Oper ating
Water melon
8 7
RE M
mis interpretations
hear ings
match making
P ip
S cru
s print
Mirr or
ver tically
Buddhist s
procure ment
sing ular
em ulate
un available
Paren tal
ske let
bis cus
Ch anting
contin ents
Q ur
w ipes
document ing
luck y
D er
Light weight
accep ts
asy lum
itor ial
sighting s
igh teous
scrut in
E uc
ph in
oxid ative
Med ica
Medica id
se ren
ch ief
mon opol
memor ization
E ps
s its
s ab
bus h
Su ite
sin cerity
B ren
Rev is
Dur ability
K arma
Scam mers
cl amation
fe ared
H ou
st en
medit ators
saf est
de hydrated
dis charge
op pressed
L O
cap tion
glitch es
mobil ization
balcon y
couple d
requ is
In spiration
B oom
Gr id
pr ising
P ill
gran ulated
M AC
W ake
ir respective
fr age
Ch ill
stigmat ized
ac in
hand ic
r afts
In sec
G UI
Manufacture rs
Com prehensive
transl ating
rice ps
l actic
5 9
re create
In side
ply ometric
val ley
Un plug
biz arre
Dec ent
Inter pret
B ash
c ill
lin der
veterin arian
bouti ques
ASC II
th ouse
migrain e
R outine
log ically
z om
tr aced
den ial
pron ounced
gent ler
ins ince
hum ble
l ity
9 6
pl aque
E ck
chron ous
dis arm
cap tioning
HIP AA
succeed ed
Continu ed
Reven ue
cavi ties
Prevent ing
figur ative
Port foli
leg ends
am ide
tow ers
sque ezing
Sam ple
night time
se mes
semes ter
Ex tract
su spects
decis ive
Commer cial
look out
nic ely
ha il
antim icrobial
cast les
f ountain
cloth s
el lip
B il
mis interpreted
men op
com posite
ti bility
ambi tion
rymand ering
rel ay
h anger
dil ution
X ero
mit es
fes tive
con cus
Den im
inv is
shr ub
brut al
Prepar ation
ap nea
extract ing
Thurs day
mill ennials
199 3
with holding
Emer ging
under privileged
spat ula
Jo int
Fost ering
sw apping
day light
sh immer
Dy lan
Com par
couple 's
un ed
off setting
Cam bo
ud ges
maxim izes
Tenn es
mosquito es
P ablo
myth ological
r ins
rins ed
H our
ell er
mis communications
grant ing
ab used
sh in
can n
orient ations
sure ly
Ti ger
Aero space
3. 5
no ble
fill s
oper a
ow e
Nutri tional
hab itable
E F
Democr ats
IS S
iat ric
F OM
mo tors
fle w
pick up
Rasp berry
pre mis
fact oring
Ne il
wavelength s
Chan el
n ginx
spac ious
neutral ize
upr ight
Dom in
insince re
impair ment
hosti lity
ik ip
m ad
collec tivism
steward ship
Mail chimp
red und
Fore ign
Visual izing
P ause
Therap ists
U M
Cl oth
Analy st
pizz as
Br id
cream ier
or izing
P itch
I C
By Id
tireless ly
Fortun ately
Jup iter
Let ter
convol utional
dr afts
NASA 's
prin cess
ser if
harness ed
pur a
GP Us
volta ic
Co aches
k inesthetic
whis key
loop holes
neuro diverse
prohi bits
insul a
mod ulation
Model ing
journal ist
p oo
Morning star
subject 's
Mon etary
re feren
M M
sh aming
Ukrain e
s inks
col lo
Accur acy
F red
equ als
showc ased
after ward
rout ers
Tennes see
Demon str
Im mers
Sephor a
F aster
Tol le
sp ends
spark le
poison ing
M E
mir acle
Phys ics
white board
Form ulate
tamper ing
tax is
Wh ist
N N
D airy
M ast
ato graphy
le agues
s prints
over weight
micro bes
Rep ur
Belief s
chick pea
L ang
ES G
purif iers
La un
ref used
Bio degradable
epi genetic
enco ded
lo vely
sales people
Liber ty
gar de
No ir
human ism
SEM rush
tw ood
Leg ends
of e
o cide
Represent ation
Med ium
es pres
espres so
deliver ables
Tao ism
sign ify
D un
perpetu ated
row ing
communic ator
A CT
fuel ing
L ul
Y lang
personal izing
kine tic
bow el
inadvert ently
W oman
Lay ering
n aps
Presid ential
G il
Phan tom
Sum m
AC A
mil dew
spec ulative
Malay sia
Publ ish
Tel es
S age
Calcul ator
i ents
Decent ral
mechan ic
C V
Nix on
si ded
premis es
Dead lifts
S our
Vic tim
tax ed
g it
gour met
optim ally
r ia
T one
F athers
al ination
Indi e
nam ics
Adjust ing
D ed
Divers ifying
anx ie
anxie ties
en rolling
ran gers
des cent
Hen ri
Play er
cinem atic
stand out
Ecu ador
sty list
dand ruff
prepare s
tr acing
ace a
dis honesty
le gged
nap kins
tr ous
tag line
Ther mal
r arity
Joh ann
lod ge
not ations
teach er's
run ner
corro sion
supervis e
All ah
contrast s
homes chool
Ne eds
whe y
Du ke
Bu zz
so aps
ki wi
5 6
techn o
bre eds
Pr icing
Eps om
bath rooms
Discover y
cosm ic
s ins
set tled
Line ar
weight ed
H ousing
mer cury
S enti
receiv able
thunder storm
ti a
fil lets
W ing
element ary
sta ples
P PC
Comp onent
con dens
Ali en
heart warming
dis honest
ikip edia
Mar garet
hed ging
Campaign s
ofe ed
ofeed back
ti ers
In adequate
scal ed
wr apping
col ours
de motivated
astron aut
Dam age
flax seeds
ent ails
veget arians
em pl
You 've
Cop per
correc ted
<input type="submit " value="
Min eral
r ighteous
s om
achel or's
Apolog ize
blood stream
L ind
IV F
N ation
N irvana
plot lib
Lin col
Lincol n
sequ ential
n ay
br u
K er
Aristo tle
oc top
gen ic
Arti st
Confeder ate
decl utter
approxim ate
dr ople
gown s
B ars
ci pher
favor itism
Mem rise
de preciation
per mutations
S hip
plau sible
t ann
borrow ed
Mon a
superior ity
Di ag
Pr ol
ent e
Scot tish
ic acies
health ily
Hit ler
pend ant
dead ly
break out
ration ality
conservation ists
exam ined
scr oll
twist ing
vill agers
argu es
w ok
marin ades
part um
det achment
And rew
G ET
Res ults
K a
steep ing
Clint on's
Br ooks
over l
Cos play
fl ak
RF ID
Separ ate
se man
mac ron
end l
Respect ful
br ake
cor rid
per imeter
aa aa
J avascript
br akes
cy linder
c ows
rep tiles
id ="
presid ency
sounds capes
ste er
RE I
per severe
Pro duce
un aware
custom ary
Afghan istan
thir ds
Cor rect
Dr ag
dimin ish
Det ection
abor tion
dec ad
S lic
hots pots
bench mark
In ves
all a
ne o
spons ors
E ric
phosp horus
alphabe tical
gener osity
A '
apr ic
demon s
min ors
CF P
suspic ion
procrast inate
social ism
spons orship
rasp berry
ill ion
val leys
gl amorous
ap ph
tele phone
Co le
p ackets
W es
iter ations
wor m
os cill
x ml
Ac tivity
option >
Mongo DB
b iceps
tint ed
av ant
inser ting
list ens
199 5
nov ice
b icep
ga stro
un ited
spec ials
An ders
John 's
ke en
foot steps
cure d
up hol
mon sters
Magaz ine
Autom atic
sh out
Vide os
ule mon
general ize
Pop ulation
innov ating
terr itorial
blind ly
lo ses
worsen ing
R ules
h og
S itting
LAI ON
hor n
declar ation
memor ize
Evol ution
eye wear
g ages
bot tlen
Volunte ers
An ne
Dis aster
down ward
cash back
refriger ate
food borne
smud ging
H ands
discer ning
arith metic
an them
gun dy
is co
un just
Man h
Manh attan
working s
mel anch
Pocket Guard
Ru bik
Py Torch
Fix ed
uf fles
brid ging
Again st
Reflec tion
Bri ef
finan cials
H az
grace fully
in ian
relation al
trans cripts
Bloom berg
est one
sp aced
Bre x
Brex it
ac creditation
al an
blow ers
Challeng ing
Co vid
Ter min
plank ton
Encour ages
screw s
wood working
Ver b
S que
T et
Con scious
op pose
thir sty
Se ems
War by
finger tips
D ust
s ardines
deliver ies
recip ients
defend ant
in bound
FOM O
P up
op to
S ik
spec tr
Cr own
Distr ict
Negoti ating
fil ament
Spec ies
curricul a
pat ty
got ten
Survey Monkey
lif el
lifel ike
cosmo s
fau x
consec utive
ham mer
Ap ache
F ossil
special izing
hot lines
S aving
On ion
chlorop hyll
Re as
Qur an
Lis bon
r ir
ref using
ov ulation
flax seed
I stan
Istan bul
pret ending
Care fully
trous ers
crack ed
tri pod
cl ove
Jama ica
oton ous
sym pathetic
recru iter
fac ials
Lim e
counter cultural
Model s
Cut ting
ing way
Her m
Rein force
re born
gi an
mix er
C ze
chew ing
tail s
plate au
Min or
Tem por
sur plus
Fem ale
co herence
Himalay as
Emo j
refurb ished
v loggers
size of
tap es
system atically
invis ible
Az tec
di aphrag
In term
ar cs
h amm
H ay
C reek
jal ape
tsunam is
tun ed
push back
Rob otic
ren ov
H id
pop ped
weigh ed
ensure d
G ues
curricul ums
Tur ning
c ayenne
M B
compan ions
PV C
Comp ression
o str
doll op
spec ifies
st arring
C L
ob session
Nord VPN
Trans lation
outs ource
Sup pl
own er's
Kend rick
po ign
Implement ation
els on
man ga
Empower ing
n ick
tim est
minimal ism
tri ple
hand held
suscep tibility
The me
commer cially
idiom s
brist les
vehicle 's
un checked
camp grounds
Hou ston
gymn ast
intel lect
ti cles
gr ates
tic us
top ically
faith ful
pr aising
Research ing
Bas ec
Basec amp
C um
ser ial
Politi ci
po ke
Com mand
Hind us
Je ans
ust er
susp ended
incentivi zed
Cap ture
de odor
B BC
audiob ook
vic ted
L odge
influ x
sign ment
Mind set
Con serving
distor tion
brief ly
pist ach
W ax
P ik
</ script>
Eck hart
blind ness
ine qu
Old er
A ve
civ ilian
Super vis
D ATE
Sto res
Dif f
ment ality
pro ving
prem ise
sk im
Des cription
Fed eration
Ment orship
cu ff
Mus icians
ac et
bel it
f avors
Persist ence
D ried
ane ous
re vered
God father
data frame
SC P
sat ir
back country
fil aments
Air port
Hol i
Sur rog
circul ate
Fer tili
broker age
jal ap
Interm it
Boy s
respon siveness
Assem bly
Deli very
sp ikes
It 'll
K i
affirm ative
Re bec
Rebec ca
t aller
R og
Thr ift
p am
hard est
Bre w
inform ing
Con firm
am an
Lul ulemon
Ar mour
gr udges
O li
Expand ing
flu ency
contrad icts
ex empl
<div  class="
ren ters
sol ids
Referr al
L ef
fli pping
Exper t
anim ators
be am
mo dest
super position
Pr ices
P each
Transparen t
E ther
Th read
9 00
Inv asive
Hem ingway
teles copes
gh o
gho sts
swee ter
ll o
classi fier
Mar riot
Marriot t
separ ating
pro ph
cl ocks
impul ses
pop ul
g arian
que en
amend ments
Por tal
hier oglyph
ject ure
pat ron
k is
Continu ing
M other
cep ting
pre heated
Vene z
task ed
E p
All birds
With in
slog ans
v ases
rect angular
D est
ip ing
hot line
ip her
Pan el
imag inary
Assess ments
c ooks
gran ite
no ts
Blan c
Boost ing
ific ent
dro ve
RP G
Coal ition
pilgr image
form ality
govern ed
m ug
Ill ino
Illino is
at ur
scru bs
E ucalyptus
Pas sive
l anter
nur se
microf iber
Fe ature
cat alog
thy roid
Van illa
cher ish
G and
Cze ch
K ale
land lords
od ed
year ly
F ishing
negoti ated
Emoj is
Sc out
pick y
af fles
dis engaged
Sen ate
Cal vin
Tr im
Mo de
uc ent
ag grav
gastro intestinal
is en
low ered
heart break
con victed
flash backs
confron ting
Poe try
Cambo dia
z u
fle eting
sp ill
Econ omics
wit nesses
op ing
point ers
wax ing
establish es
Referr als
per y
dis like
ous al
dece ive
show ering
<input type="submit" value=" Submit
Wed nes
home 's
rad icals
aphr asing
mon otonous
dis connecting
Dis cipl
Cre ation
D w
Pand as
offici ally
it ures
transform ations
Array List
o '
chant ed
CS V
situ ated
th inks
T PS
exp ands
y y
ch ocol
Fes tivals
St age
invo ice
Belgi an
Marti al
O OP
rac ist
My stery
Tim ber
Pol ish
Fore sts
cle ared
concess ions
ud d
Custom ization
S crum
clust ering
c ogen
half way
bi ologists
Mc Car
Venez uel
ass ass
Char lot
Slic ed
N ER
att uned
Pes to
J enn
Ky oto
Bee tho
Beetho ven
Gu itar
cook books
hob ia
bomb ard
Bas ket
L ap
T ag
Ab use
sk learn
Sat urn
m ousse
contempl ation
r ally
Multi tasking
NA MI
cal li
dies el
P yth
mort gages
per me
rot ations
mar ches
su ms
lif ted
grap pling
S ection
Gand hi
G ain
ag an
gre ased
check ers
b ble
hippo campus
ari al
s tics
Ma ori
li vable
fundr ais
Victim s
ic ants
I CE
Gre y
under graduate
im ic
demonstr ation
psych iatr
dis mant
Pair ing
sh ocking
priv ately
sp iced
Sil ence
Cap tain
denom inations
Cer tifications
Back ground
belong s
in significant
l ions
supers ti
f ighter
p here
follic les
R oss
Hurrican e
Ber gamot
explain able
had n't
tivi st
Be h
correc tions
re mediation
WW F
pregn ancies
muc us
Match a
0 3
get Element
getElement ById
Em peror
evac uate
Lim its
Text ure
Con gratulations
Z ep
anti se
ant a
Mon te
Seven th
of t
red undant
Ali gn
Start up
im a
de central
Ply ometric
re iterate
D jango
Fact ory
G E
ad ata
es p
Tr aders
Gar nish
fun eral
sal inity
micro aggressions
panc ake
succul ent
f '
Cult ures
Pat rick
de x
dilem ma
BT S
con n
d ocker
ev asion
Experi ences
Pursu ing
so ggy
McCar thy
Ro aring
cur v
O pr
coast ers
Her b
gl as
ting u
w ore
Inves top
Investop edia
fore ground
hun ter
ag os
amid st
Sh ang
dissemin ate
se ams
saf aris
< form>
ca the
Scru b
seren ity
ash i
Loc ke
serv ings
Sm ile
cyber crime
c asc
Dream s
s lot
Cam era
an em
e ater
Lenti ls
Invol ving
Lux ury
C ab
C ed
photo voltaic
E LL
sal ts
Write Line
ard on
in ference
W ick
zz y
Mos a
Rubik 's
sur realism
e ering
Z ucchini
URL s
Pre jud
off enses
Foc used
campaign 's
hamm ad
R yan
G ay
din ners
nucle us
re claimed
morning s
m ans
defer red
Charlot te
Bud geting
promin ently
R achel
clust ers
Dec or
s lots
6 1
Tr op
long ing
psy che
tri vial
O K
S ich
Frank incense
memor izing
Ele v
Hist or
Meas ures
procrast inating
strain ed
Bal asana
found ing
el icit
circum ference
Moistur ize
le ague
taxpay ers
en vision
198 5
B icy
Ken ned
pur ifying
N elson
Jo an
Vis uals
T og
Revis it
ys cr
b ison
gar age
format ted
5 8
ag ne
k an
cre ases
S IM
ger rymandering
real ization
Bon ds
nam ing
lay offs
st ark
def ending
iv als
brush strokes
blur red
det ective
bid den
cal mer
ex poses
In stitutions
concat en
concep tions
bot an
ad ditions
plant ers
G or
Ban glades
Scal e
O z
es tr
impul sively
ir reversible
196 9
extravag ant
AR Y
Nan oparticles
gan g
cor respond
s ely
Cultiv ating
LinkedIn 's
physi ology
do d
ti bles
K ate
B urt
U t
Mach ines
ar ugula
de hy
u to
Ch uck
wr acking
scratch ing
Reg ression
mar riages
met adata
academ ia
Initi ally
port als
Wi reless
tail ors
con stitution
En dur
D ys
Z oo
amphi bi
drople ts
Ether net
paste ur
N FT
Com plement
Y in
exp an
n ished
consolid ating
Human ity
click ed
scar ring
Ang ular
reas sure
ak ota
revis ed
Hand maid
Car neg
Carneg ie
b ans
Politici ans
S hadow
L oyal
Or acle
gen ocide
ground work
Gu acamole
Consum ption
crash ing
Tw enties
ater nity
Opr ah
F I
Dou glas
GI Fs
Al ter
rir acha
Jenn ifer
mel odic
Sich uan
Burn out
Moistur izer
In spect
People 's
analog ies
novel ty
us ages
Ta j
Ch ess
co er
exp ired
exp edited
n it
roc kets
o on
Mush room
Ar gu
dig iti
g els
Colum ns
dis missed
Class es
subscri bing
pigment ation
lat te
Bas ics
lim b
F O
ma stered
percus sion
tr ader
G iant
Rec on
N eck
Pre gn
wal i
ul ls
tsunam i
Scr atch
mono chromatic
cub ic
Zo ho
Scand al
TikTok 's
dys lexia
Ranch ers
inf at
sh uffle
guide book
T il
hall uc
predis position
rush ed
mon t
re aring
Ben ch
cow boy
navi g
W ikipedia
Sched uling
ensl aved
r ogue
mor ph
hinde red
A lab
Alab ama
Confl icts
obsess ed
Last Pass
quart ers
ber gamot
Langu ages
quarter ly
li ti
perfection ism
shad ed
But ton
Instruc tion
su al
frag ments
en sively
can e
restaurant 's
envelop e
Sud oku
yol ks
head ers
br ass
Rob ot
AV G
sub atomic
ec ks
M ike
D ays
expend itures
< ul>
ri ves
un interrupted
Sant or
Santor ini
happ ily
poly mer
C AR
flo oring
bou quet
J ain
Graph ics
torn ado
sha w
ys tic
check ups
Ul timate
other worldly
sup pose
bureauc r
th a
Con ferences
Del ta
ware house
un covering
don ated
BC Is
di stressed
phr asing
agon ists
P reservation
pre requis
Portfoli o
G los
Ad oles
alleg ed
He ight
deep est
E ase
ignor ance
Particip ation
was abi
Arab ic
iter ating
spr ains
geo graphically
Mas on
he ter
un ite
slip pery
pap aya
Would n't
back wards
S oph
L ot
6 2
Mah al
sn akes
Wednes day
Ch art
C athe
Kr ist
str ands
du ality
under tones
dehy de
He 's
pal ate
c aching
CNN s
fa ire
heart felt
analy st
inhibit ors
s '
Z one
mar ital
mag ma
Or ders
fall acies
R X
m u
199 6
G aga
bureauc ratic
Box ing
appro ve
Pep pers
spl itting
solidif y
writ es
Mu hammad
W oods
Sp aghetti
der ive
hur ts
spread sheets
pene tration
Mont ana
mar ry
l over
Improve ment
P act
special ization
Four th
itch ens
Gard ens
Aud it
Mem orial
prev ailing
gi o
Grav ity
Hun gary
stitu tional
nan os
bio graphical
S cram
counter tops
ir i
temper ament
es cap
Mar shall
Ret in
de composition
compil er
. 99
Mar x
benef ici
re ar
continu ation
F S
mag nets
Gym n
D ating
cancell ations
terror ist
styl us
200 2
Proc r
Procr ast
ris otto
Hy drop
RE IT
anti hist
Z immer
bill boards
h alls
Ex it
cont ag
ir onic
pe ars
Require ments
te ms
lit ers
countries '
mand ates
in ance
Hid den
She 's
anonym ously
be et
bas ically
rout ing
uniqu ely
start ers
wh oles
flavor ings
all oy
Los ing
Ch un
gent r
PR IM
architect ures
C ars
re hears
hopeless ness
butter y
reve rence
Con sume
A X
nest ed
review ers
z oom
compl ac
P ump
re ds
un documented
V M
High lighting
Teles cope
NY C
dele ting
de but
the ological
in sist
Politi cs
tan go
ju ggling
C ause
ke rel
pix el
world views
P ew
Hu gh
9 7
Val ent
Satell ite
Snapchat 's
Mes h
if a
Be ij
Beij ing
un ic
imic ry
An kle
down town
hand ed
loud ly
ic ket
p ne
Sat is
maj ors
endu re
cre ase
reser ving
Angel ou
et ta
R it
o si
ep ide
narr ators
extr over
equ ator
Ex pressionism
authentic ate
For giving
con done
h ilar
Qu ad
bouti que
Cre w
Al chemist
k nots
bu prof
buprof en
cushion ed
nich es
plant 's
beach y
co ar
Apprentices hips
trust s
il ish
Y Y
inv itations
I O
Atom ic
L um
under taking
Banglades h
marsh m
Mar in
f fet
corrid ors
royal ties
N othing
far ther
Fi ber
multipl ied
dr ift
tast ings
M emo
or ch
pe els
Pix ar
in ers
Regul ators
es thetician
pastoral ism
Can vas
e agle
Sir i
sub ord
L am
accomplish ing
combat ting
op ath
ob i
Rec re
dis place
antidepress ants
se iz
gly ce
4 50
achiev es
com ma
over used
Hand le
der ail
terr ifying
cy cled
prin ce
fl ames
Cy cle
H ue
interact ed
suf frage
tic ks
collec tivist
PRIM ARY
ha i
unexpected ly
Clar ity
Bur ning
incl ination
hair s
minim ally
mon ster
under ing
expon entially
flow y
Burt 's
path way
Cr afts
insul ating
Mathemat ics
Stri pe
metr opol
Pyth ag
ham string
gr ieve
par fait
mathemat ician
Jo joba
full ness
com posure
ic er
Co bra
stigmat ization
HT TPS
access orize
Endur ance
stabil ization
Ter m
st ellar
Sneak ers
cycl ical
ma ze
p acket
Muse 's
Mor ty
At ticus
Of fic
fin s
encryp ting
declar ative
spar king
Rom ance
de ception
ge ology
sim il
Hy po
Ow n
reson ant
pro vince
oph one
Tex tile
Prol onged
op ardi
S om
ex tingu
u ka
leg acies
aven ue
legal ization
distribut ors
Wy oming
handic rafts
Im pression
sand y
b b
To x
flour ish
Get ty
reliev ers
sub jectivity
Pix el
Cathe dral
M akes
n ude
Vict oria
treas ures
R ais
S ocket
accum ulating
E ilish
Se eds
H ackers
Lu a
bottlen ecks
Ex tr
glycer in
hour ly
summar ization
ti ger
leisure ly
Cur ricul
tum or
predat or
Bur pees
re sign
fl are
N ice
V I
l act
sk yscr
tern ut
Radio head
Tempor ary
itarian ism
mod al
Sp on
RT X
step children
inf ant
refriger ators
is Prime
hydrop onic
mul ch
d ill
Limit ations
we ren't
arch ing
ome gran
P L
MA X
Tor onto
not ch
stuff ing
C ake
fresh en
ain ts
Cl ou
Col on
asyn chronous
Mix ed
Mus ical
I tems
gly cogen
The atre
pop ping
w ounds
Nutri ent
G iz
synthes ize
hack er
k itchens
it ated
car riers
p awn
and el
In correct
Smo ky
Jo sh
8 2
doctor 's
pistach ios
1. 2
Smart phones
tooth brushes
I UD
uter us
197 2
hair care
B oots
magn ificent
Mon ument
e astern
gr oo
pic ks
spac ef
Exam ine
compl iments
index ed
fav ored
</ ul>
c ad
nar ciss
Gu ides
Firef ox
Ge Force
Flo rence
Tai wan
Con tract
Fr ont
ingen uity
AT M
A lan
Exper tise
decl are
Di wali
R od
C isco
Jain ism
l ings
E agle
K ombucha
Y o
d un
G ates
At mosp
Prejud ice
o it
av g
E y
B acon
mist aken
Handmaid 's
paradig m
l eng
transl ucent
discrim inated
je opardi
colon izers
Mis information
Log ic
contradict ory
bu tions
ol in
clock wise
s lugg
slugg ish
vill ains
pyram id
skin s
ar gan
Aust en
"  />
G mail
S ie
L ev
ann y
Ach ieve
useful ness
fr is
re evaluate
text ual
sub titles
Datab ase
< script>
u ed
M oral
Ave eno
Per ception
surge ons
A viation
tri angles
br unch
Ethiop ian
Ide a
stitut ing
ed i
radio active
poign ant
un den
Pot atoes
bread crumbs
con g
H BO
Ox ford
ro ses
tran sp
8 1
bour ne
mac kerel
dis pel
kick boxing
ys ics
tz atziki
lun ge
bir yani
soc ket
Ex ception
v log
asci i
Stat istics
bar ley
local ized
high ways
m olds
teles cope
ind icated
sol itary
Tac o
aut umn
cor pus
S iber
Rwand a
He aring
cros ses
drag ons
Z im
band 's
st air
assum ption
por ter
smooth ing
Sup portive
design er's
B orrow
boss 's
access orizing
Mar cus
Ar te
cook book
E ra
Ac commod
squee zed
har med
b ounds
affili ation
D im
Ob jective
mer ging
grip ping
Carn ival
R oc
retin ol
bog ged
advers ely
en vy
tun es
Whe el
benefici aries
m ount
perce ives
V anc
Vanc ou
Vancou ver
hierarch ies
excur sions
H S
cinem atography
ups cale
contam inate
am pol
survi ving
sab ot
Light ning
ge ars
hold ings
Ch ardon
fore most
B ands
plant ar
UV B
embry os
Caul iflower
frustr ations
Cover age
Char ging
ab re
aur a
flu x
Dis order
un attainable
Revolution ary
Ex hale
ul sion
cel sius
ste aming
Pursu e
choreo graphers
detect ors
Cook ies
scrap ing
contrad ictions
des cend
Ven ice
mesmer izing
Sto cks
cro chet
first Name
T E
Beh ance

         
cany on
P ale
sp ong
Vis a
amp ire
ch on
Re form
Iraq i
aff air
Inter view
ingest ed
Le ading
K elly
Con tain
P oth
Poth os
separ ates
hy pot
Profess or
ut able
modern ist
laptop 's
borrow er's
Categ ory
B inary
un noticed
indic ative
ac ious
pi an
sales person
det ach
Dr iving
tro leum
hon ors
over seeing
G ift
un seen
All en
direc tional
vegan ism
H und
Im pressionism
Ed gar
S ally
P COS
punch es
migr ants
ek won
ekwon do
sp ook
refr ain
l av
shrub s
coast lines
Consider ing
Evalu ating
short ness
dismant ling
Antarctic a
colon ized
P ictionary
w iel
Isra eli
ch erries
ace ous
G W
follow ings
Res id
firef ighting
om yal
omyal gia
roll ers
ser ums
cop ied
li ding
port ability
or ph
Inter rup
ir ates
ceram ides
gl or
todd lers
se wage
com memor
gentr ification
ostr ac
th aw
jack fruit
dom s
v ical
other ap
ed o
flour s
clim at
presti ge
k sh
Cap e
flat bread
Mis conception
gem stone
Kenned y
Ex cl
R ocket
dom inating
ri ched
storm water
encryp ts
configure d
B log
conduc tivity
my List
len ient
R I
ti med
imp ending
Practi cal
Curricul um
A ging
Vacc ines
c iting
P atch
wild flowers
sw allow
Ro of
Ma as
Senti ment
app ren
appren tice
Procrast ination
bul lied
re vision
ad options
S ig
infat uation
in flows
remin is
Guardi an
senti ments
K as
backpack s
Qu itting
Let ting
ow ed
lands lides
Bud dy
ater al
8 3
ann ivers
limit less
R ound
A U
Ber ke
Berke ley
Ac cepting
inter rog
reli ever
sh ank
resist ing
beha ves
implement ations
Ve ja
com posing
rib bon
Gra ham
Roy ale
Sur face
Gues ts
Smithson ian
Co vey
endorse ment
cum ulative
tack led
ine 's
Perspec tive
Chiro practic
Gather ing
P over
Pover ty
liti gation
Gal ap
Galap agos
Sil ent
Ap preci
ce ment
A ri
over rated
um atic
Deli ver
Ve gas
Prom pt
ha p
For mal
Ro ot
Ac ts
thick en
Econ omy
Region al
en use
Mer cury
Trans cend
Inter views
ten ess
pled ged
star gazing
Y A
ar g
Plan ks
co efficient
A HAs
0. 2
recipient 's
pix els
An na
proof read
F ul
Ref lecting
neur on
T ah
tu ple
vit ro
revital ization
she 's
ge oc
sil icon
Ex pression
k oto
pir acy
adverti sed
mal a
proced ural
gener ators
O xy
outrage ous
Gu y
T at
F BI
inc ub
contag ious
Ir ony
par amount
intermit tency
M itch
to cr
j ail
Girl friend
Innov ations
bl oss
aps ed
e 's
tri bute
sketch ing
m ong
Mad rid
D ocker
cor ns
us a
C era
Cera Ve
ex hilar
he e
th reading
Provi ders
end anger
disproportion ate
inhal ation
post partum
E motion
Mat te
Jac ques
Sun glasses
Bel t
Hor mon
un successful
apph ire
Woo Commerce
Tol er
Brand ing
ore an
name ">
sp ire
Jerry 's
St orm
writ ings
bureaucr acy
acr onym
ty ing
viol in
casc ading
in sky
ish ment
ad verb
A bo
chlorop lasts
ana grams
Mechan ical
S ites
stag n
ome trics
hum ming
readers '
homes chooled
John ny
social ist
Appl ications
improper ly
gh er
se itan
Grammar ly
nan o
hero ism
Tab ata
mill inery
Ex ist
garden ers
P iano
Red i
R ide
jus tification
N ine
meat balls
mathemat icians
Exp ansion
Ide as
as simil
re consider
youth ful
Ligh troom
Fun ds
ouch ing
Doc tors
RE ST
pun itive
questionna ires
exemp tions
ile y
o arthritis
seaw ater
T ro
indul gence
lot us
FA Q
candidates '
Distri bution
IP S
appeti zer
off spring
Lives tock
ac les
fris bee
broad ly
Nest le
narr ation
de vis
19 45
Poll sters
un helpful
am ps
B ach
harmon ic
underes tim
inf use
Con sent
anecd otal
dis en
sym metrical
sha kes
even ings
F CC
ist ers
Con sequently
r amp
bas eline
Frequ ency
m ism
mac OS
Aust in
Sup plements
ers on
Moz art
t iness
res cu
g cd
par an
publish er
cul oskelet
culoskelet al
fish er
ag as
rhy mes
12 8
transition ed
Confeder acy
Bol t
R M
man goes
heart breaking
se um
fall acy
M N
B ou
excl usions
G ary
A way
waterproof ing
UV A
Shr imp
regist ering
mar inate
regener ate
char red
tor rent
vibr ation
over loading
breath ability
draw back
F ake
ir ling
Sp ice
ton ed
Econ om
Arti stic
sculp tor
K ev
leng then
st ats
horiz ont
horizont ally
o zone
Ac counting
Zim bab
Zimbab we
O hi
whistle blowers
chir ping
ru br
Glos sier
rec tify
Over reliance
dili gent
acin amide
She er
Ham string
r ors
lead er's
S MS
co ded
toile tries
def ender
micr on
Mat the
Matthe w
id ers
tooth pick
quad riceps
conce aler
dens ely
exfoli ator
random ized
f izz
pl er
super powers
oplastic ity
00 00
DA Ws
ran ks
sche ma
e ps
t ouched
to res
El ite
rom anti
romanti ci
r ative
timest amp
Map le
S election
squ id
Am bi
Repur pose
Champ ion
Maas ai
f ad
underes timate
tic als
ST I
cu ticles
fil ming
ampl ified
Re moving
G ore
illi an
fashion ed
poo rer
E A
stereoty ping
3 65
Seas ons
dep t
Ne igh
take out
iti c
Abr aham
rest art
del ves
better ment
Br ach
Sen ior
curv ature
Mu kha
exceed ing
dis solved
Sim mer
copy rights
oc key
Satell ites
courage ous
ins on
Sc uba
blist er
Sym phony
Strong er
Clar ks
mism atch
small holder
om o
dis co
rel u'
AP A
fres co
ben z
ad illas
illustr ates
O LED
Gu est
Up grade
par ades
repl icating
Abo ve
re distribute
ch im
car tr
ampol ine
termin ate
hand crafted
trail er
fore arms
el li
Pil ots
Dev ice
Square space
post pon
E dition
</ option>
de ar
ER P
Ced ar
apple '
S UV
IM P
God ot
F M
19 80
Let tuce
Gabri el
Dis closure
Bar ack
in correctly
rul ers
reason ably
fat al
Par ties
enforce able
check lists
Y out
South west
r ical
Adap ting
dimin ished
Dec l
diges tible
[...]
