{
  "<pad>": 0,
  "<unk>": 1,
  "<bos>": 2,
  "<eos>": 3,
  "<system>": 4,
  "<user>": 5,
  "<assistant>": 6,
  "<|endoftext|>": 7,
  "<|newline|>": 8,
  "<|tab|>": 9,
  "<|code|>": 10,
  "<|/code|>": 11,
  "<|math|>": 12,
  "<|/math|>": 13,
  "\u0001": 14,
  "\u0003": 15,
  "\u0004": 16,
  "\u0006": 17,
  "\u0007": 18,
  "\n": 19,
  "\u0018": 20,
  " ": 21,
  "!": 22,
  "\"": 23,
  "#": 24,
  "$": 25,
  "%": 26,
  "&": 27,
  "'": 28,
  "(": 29,
  ")": 30,
  "*": 31,
  "+": 32,
  ",": 33,
  "-": 34,
  ".": 35,
  "/": 36,
  "0": 37,
  "1": 38,
  "2": 39,
  "3": 40,
  "4": 41,
  "5": 42,
  "6": 43,
  "7": 44,
  "8": 45,
  "9": 46,
  ":": 47,
  ";": 48,
  "<": 49,
  "=": 50,
  ">": 51,
  "?": 52,
  "@": 53,
  "A": 54,
  "B": 55,
  "C": 56,
  "D": 57,
  "E": 58,
  "F": 59,
  "G": 60,
  "H": 61,
  "I": 62,
  "J": 63,
  "K": 64,
  "L": 65,
  "M": 66,
  "N": 67,
  "O": 68,
  "P": 69,
  "Q": 70,
  "R": 71,
  "S": 72,
  "T": 73,
  "U": 74,
  "V": 75,
  "W": 76,
  "X": 77,
  "Y": 78,
  "Z": 79,
  "[": 80,
  "\\": 81,
  "]": 82,
  "^": 83,
  "_": 84,
  "`": 85,
  "a": 86,
  "b": 87,
  "c": 88,
  "d": 89,
  "e": 90,
  "f": 91,
  "g": 92,
  "h": 93,
  "i": 94,
  "j": 95,
  "k": 96,
  "l": 97,
  "m": 98,
  "n": 99,
  "o": 100,
  "p": 101,
  "q": 102,
  "r": 103,
  "s": 104,
  "t": 105,
  "u": 106,
  "v": 107,
  "w": 108,
  "x": 109,
  "y": 110,
  "z": 111,
  "{": 112,
  "|": 113,
  "}": 114,
  "~": 115,
  "": 116,
  "¡": 117,
  "¢": 118,
  "£": 119,
  "¥": 120,
  "¦": 121,
  "§": 122,
  "©": 123,
  "«": 124,
  "¬": 125,
  "­": 126,
  "®": 127,
  "°": 128,
  "±": 129,
  "·": 130,
  "»": 131,
  "¿": 132,
  "×": 133,
  "÷": 134,
  "̀": 135,
  "́": 136,
  "̂": 137,
  "̃": 138,
  "̄": 139,
  "̅": 140,
  "̆": 141,
  "̇": 142,
  "̈": 143,
  "̉": 144,
  "̊": 145,
  "̋": 146,
  "̌": 147,
  "̍": 148,
  "̎": 149,
  "̏": 150,
  "̐": 151,
  "̑": 152,
  "̒": 153,
  "̓": 154,
  "̔": 155,
  "̕": 156,
  "̖": 157,
  "̗": 158,
  "̘": 159,
  "̙": 160,
  "̚": 161,
  "̛": 162,
  "̜": 163,
  "̝": 164,
  "̞": 165,
  "̟": 166,
  "̠": 167,
  "̡": 168,
  "̢": 169,
  "̣": 170,
  "̤": 171,
  "̥": 172,
  "̦": 173,
  "̧": 174,
  "̨": 175,
  "̩": 176,
  "̪": 177,
  "̫": 178,
  "̬": 179,
  "̭": 180,
  "̮": 181,
  "̯": 182,
  "̰": 183,
  "̱": 184,
  "̲": 185,
  "̳": 186,
  "̴": 187,
  "̵": 188,
  "̶": 189,
  "̷": 190,
  "̸": 191,
  "̹": 192,
  "̺": 193,
  "̻": 194,
  "̼": 195,
  "̽": 196,
  "̾": 197,
  "̿": 198,
  "͂": 199,
  "ͅ": 200,
  "͆": 201,
  "͇": 202,
  "͈": 203,
  "͉": 204,
  "͊": 205,
  "͋": 206,
  "͌": 207,
  "͍": 208,
  "͎": 209,
  "͏": 210,
  "͐": 211,
  "͑": 212,
  "͒": 213,
  "͓": 214,
  "͔": 215,
  "͕": 216,
  "͖": 217,
  "͗": 218,
  "͘": 219,
  "͙": 220,
  "͚": 221,
  "͛": 222,
  "͜": 223,
  "͝": 224,
  "͞": 225,
  "͟": 226,
  "͠": 227,
  "͡": 228,
  "͢": 229,
  "ͣ": 230,
  "ͤ": 231,
  "ͥ": 232,
  "ͦ": 233,
  "ͧ": 234,
  "ͨ": 235,
  "ͩ": 236,
  "ͪ": 237,
  "ͫ": 238,
  "ͬ": 239,
  "ͭ": 240,
  "ͮ": 241,
  "ͯ": 242,
  "ε": 243,
  "θ": 244,
  "҉": 245,
  "֖": 246,
  "֙": 247,
  "֥": 248,
  "ְ": 249,
  "ִ": 250,
  "ֵ": 251,
  "ֶ": 252,
  "ַ": 253,
  "ָ": 254,
  "ֹ": 255,
  "ּ": 256,
  "ׁ": 257,
  "ி": 258,
  "ு": 259,
  "ை": 260,
  "்": 261,
  "ា": 262,
  "ុ": 263,
  "្": 264,
  "​": 265,
  "‍": 266,
  "‎": 267,
  "‐": 268,
  "‒": 269,
  "–": 270,
  "—": 271,
  "―": 272,
  "‖": 273,
  "‘": 274,
  "’": 275,
  "“": 276,
  "”": 277,
  "„": 278,
  "•": 279,
  "′": 280,
  "‵": 281,
  "⁄": 282,
  "€": 283,
  "←": 284,
  "→": 285,
  "⇒": 286,
  "⇓": 287,
  "∀": 288,
  "∂": 289,
  "∃": 290,
  "∈": 291,
  "∉": 292,
  "∑": 293,
  "−": 294,
  "√": 295,
  "∞": 296,
  "∠": 297,
  "∧": 298,
  "∨": 299,
  "∩": 300,
  "∪": 301,
  "∫": 302,
  "≈": 303,
  "≠": 304,
  "≤": 305,
  "≥": 306,
  "⊂": 307,
  "⊕": 308,
  "⊗": 309,
  "⊥": 310,
  "⋅": 311,
  "⌈": 312,
  "⌉": 313,
  "⌊": 314,
  "⌋": 315,
  "─": 316,
  "│": 317,
  "┌": 318,
  "┐": 319,
  "└": 320,
  "┘": 321,
  "├": 322,
  "┤": 323,
  "┬": 324,
  "┴": 325,
  "┻": 326,
  "┼": 327,
  "═": 328,
  "║": 329,
  "╓": 330,
  "╔": 331,
  "╖": 332,
  "╗": 333,
  "╚": 334,
  "╝": 335,
  "╠": 336,
  "╢": 337,
  "╣": 338,
  "╦": 339,
  "╩": 340,
  "╫": 341,
  "╬": 342,
  "╯": 343,
  "▀": 344,
  "▄": 345,
  "█": 346,
  "▌": 347,
  "▐": 348,
  "░": 349,
  "▒": 350,
  "▓": 351,
  "►": 352,
  "●": 353,
  "☀": 354,
  "★": 355,
  "☺": 356,
  "♀": 357,
  "♂": 358,
  "♥": 359,
  "♪": 360,
  "♭": 361,
  "♯": 362,
  "♻": 363,
  "⚫": 364,
  "⛪": 365,
  "✓": 366,
  "✔": 367,
  "✦": 368,
  "✨": 369,
  "❤": 370,
  "❯": 371,
  "➶": 372,
  "⟨": 373,
  "⟩": 374,
  "、": 375,
  "。": 376,
  "《": 377,
  "》": 378,
  "️": 379,
  "﻿": 380,
  "🌃": 381,
  "🌅": 382,
  "🌈": 383,
  "🌊": 384,
  "🌋": 385,
  "🌍": 386,
  "🌎": 387,
  "🌏": 388,
  "🌞": 389,
  "🌟": 390,
  "🌠": 391,
  "🌳": 392,
  "🌴": 393,
  "🌸": 394,
  "🌹": 395,
  "🌺": 396,
  "🌿": 397,
  "🍎": 398,
  "🍩": 399,
  "🍲": 400,
  "🍽": 401,
  "🎁": 402,
  "🎉": 403,
  "🎮": 404,
  "🎾": 405,
  "🏃": 406,
  "🏄": 407,
  "🏆": 408,
  "🏊": 409,
  "🏖": 410,
  "🏝": 411,
  "🏞": 412,
  "🏰": 413,
  "🏻": 414,
  "🏼": 415,
  "🐥": 416,
  "👀": 417,
  "👃": 418,
  "👉": 419,
  "👋": 420,
  "👍": 421,
  "👏": 422,
  "👑": 423,
  "👥": 424,
  "👨": 425,
  "💀": 426,
  "💃": 427,
  "💋": 428,
  "💌": 429,
  "💍": 430,
  "💎": 431,
  "💔": 432,
  "💕": 433,
  "💖": 434,
  "💝": 435,
  "💥": 436,
  "💩": 437,
  "💪": 438,
  "💫": 439,
  "💯": 440,
  "💰": 441,
  "💻": 442,
  "💼": 443,
  "🔥": 444,
  "🗡": 445,
  "😀": 446,
  "😁": 447,
  "😂": 448,
  "😃": 449,
  "😄": 450,
  "😅": 451,
  "😆": 452,
  "😈": 453,
  "😉": 454,
  "😊": 455,
  "😍": 456,
  "😎": 457,
  "😒": 458,
  "😔": 459,
  "😕": 460,
  "😜": 461,
  "😩": 462,
  "😫": 463,
  "😭": 464,
  "😱": 465,
  "😷": 466,
  "🙂": 467,
  "🙃": 468,
  "🙄": 469,
  "🙅": 470,
  "🙌": 471,
  "🙏": 472,
  "🚀": 473,
  "🚢": 474,
  "🛍": 475,
  "🡡": 476,
  "🡣": 477,
  "🤏": 478,
  "🤓": 479,
  "🤔": 480,
  "🤗": 481,
  "🤘": 482,
  "🤚": 483,
  "🤝": 484,
  "🤢": 485,
  "🤣": 486,
  "🤧": 487,
  "🤨": 488,
  "🤩": 489,
  "🤮": 490,
  "🤯": 491,
  "🤴": 492,
  "🤷": 493,
  "🦠": 494,
  "🧐": 495,
  "􀀀": 496,
  "in": 497,
  "an": 498,
  "th": 499,
  "re": 500,
  "on": 501,
  "er": 502,
  "at": 503,
  "es": 504,
  "or": 505,
  "en": 506,
  "al": 507,
  "and": 508,
  "ou": 509,
  "ing": 510,
  "the": 511,
  "ti": 512,
  "to": 513,
  "st": 514,
  "le": 515,
  "ar": 516,
  "it": 517,
  "is": 518,
  "ed": 519,
  "el": 520,
  "of": 521,
  "as": 522,
  "om": 523,
  "ch": 524,
  "you": 525,
  "ic": 526,
  "ion": 527,
  "pr": 528,
  "ac": 529,
  "ve": 530,
  "ent": 531,
  "for": 532,
  "are": 533,
  "ation": 534,
  "su": 535,
  "de": 536,
  "ol": 537,
  "se": 538,
  "ow": 539,
  "can": 540,
  "that": 541,
  "be": 542,
  "il": 543,
  "tion": 544,
  "ul": 545,
  "pro": 546,
  "ers": 547,
  "ce": 548,
  "ab": 549,
  "si": 550,
  "ec": 551,
  "ge": 552,
  "mo": 553,
  "com": 554,
  "di": 555,
  "he": 556,
  "ay": 557,
  "us": 558,
  "ly": 559,
  "your": 560,
  "ir": 561,
  "im": 562,
  "ith": 563,
  "con": 564,
  "tr": 565,
  "am": 566,
  "ex": 567,
  "ad": 568,
  "ess": 569,
  "ment": 570,
  "op": 571,
  "with": 572,
  "un": 573,
  "ke": 574,
  "res": 575,
  "ate": 576,
  "pl": 577,
  "fe": 578,
  "ver": 579,
  "vi": 580,
  "ur": 581,
  "te": 582,
  "wh": 583,
  "ant": 584,
  "hel": 585,
  "ha": 586,
  "me": 587,
  "help": 588,
  "li": 589,
  "ts": 590,
  "gh": 591,
  "ity": 592,
  "ain": 593,
  "du": 594,
  "so": 595,
  "ne": 596,
  "ot": 597,
  "ful": 598,
  "ter": 599,
  "por": 600,
  "'s": 601,
  "str": 602,
  "ci": 603,
  "ut": 604,
  "qu": 605,
  "all": 606,
  "out": 607,
  "have": 608,
  "wor": 609,
  "age": 610,
  "ap": 611,
  "tions": 612,
  "ome": 613,
  "ma": 614,
  "their": 615,
  "sh": 616,
  "oo": 617,
  "ther": 618,
  "fr": 619,
  "any": 620,
  "gr": 621,
  "port": 622,
  "cl": 623,
  "per": 624,
  "able": 625,
  "Th": 626,
  "cre": 627,
  "our": 628,
  "The": 629,
  "ies": 630,
  "sp": 631,
  "ces": 632,
  "if": 633,
  "end": 634,
  "ren": 635,
  "ef": 636,
  "AI": 637,
  "id": 638,
  "oun": 639,
  "em": 640,
  "we": 641,
  "king": 642,
  "ld": 643,
  "some": 644,
  "ations": 645,
  "est": 646,
  "iti": 647,
  "more": 648,
  "po": 649,
  "der": 650,
  "oc": 651,
  "og": 652,
  "ure": 653,
  "comm": 654,
  "ag": 655,
  "ind": 656,
  "form": 657,
  "pe": 658,
  "work": 659,
  "ill": 660,
  "iz": 661,
  "vel": 662,
  "ine": 663,
  "igh": 664,
  "ese": 665,
  "acti": 666,
  "enti": 667,
  "ps": 668,
  "et": 669,
  "ally": 670,
  "It": 671,
  "gu": 672,
  "ach": 673,
  "ect": 674,
  "ance": 675,
  "als": 676,
  "ould": 677,
  "whi": 678,
  "act": 679,
  "ple": 680,
  "In": 681,
  "one": 682,
  "You": 683,
  "sist": 684,
  "not": 685,
  "by": 686,
  "ds": 687,
  "provi": 688,
  "art": 689,
  "ta": 690,
  "low": 691,
  "uc": 692,
  "ence": 693,
  "over": 694,
  "way": 695,
  "ack": 696,
  "pre": 697,
  "use": 698,
  "ati": 699,
  "from": 700,
  "um": 701,
  "This": 702,
  "may": 703,
  "gn": 704,
  "pers": 705,
  "such": 706,
  "ud": 707,
  "other": 708,
  "tive": 709,
  "med": 710,
  "helpful": 711,
  "ress": 712,
  "dif": 713,
  "feren": 714,
  "duc": 715,
  "av": 716,
  "do": 717,
  "cr": 718,
  "up": 719,
  "ting": 720,
  "assist": 721,
  "cial": 722,
  "cess": 723,
  "br": 724,
  "them": 725,
  "care": 726,
  "chn": 727,
  "also": 728,
  "ever": 729,
  "des": 730,
  "they": 731,
  "its": 732,
  "alth": 733,
  "time": 734,
  "ev": 735,
  "but": 736,
  "assistant": 737,
  "co": 738,
  "has": 739,
  "person": 740,
  "techn": 741,
  "import": 742,
  "tic": 743,
  "ating": 744,
  "ep": 745,
  "lan": 746,
  "del": 747,
  "how": 748,
  "dis": 749,
  "ell": 750,
  "ough": 751,
  "health": 752,
  "ous": 753,
  "ore": 754,
  "ult": 755,
  "ust": 756,
  "exper": 757,
  "comp": 758,
  "ated": 759,
  "new": 760,
  "about": 761,
  "ro": 762,
  "ific": 763,
  "ments": 764,
  "incl": 765,
  "ong": 766,
  "ace": 767,
  "sure": 768,
  "these": 769,
  "ast": 770,
  "langu": 771,
  "olog": 772,
  "ical": 773,
  "As": 774,
  "eng": 775,
  "own": 776,
  "which": 777,
  "ood": 778,
  "important": 779,
  "ild": 780,
  "make": 781,
  "ely": 782,
  "ors": 783,
  "ks": 784,
  "fol": 785,
  "oth": 786,
  "like": 787,
  "there": 788,
  "ber": 789,
  "sel": 790,
  "language": 791,
  "lear": 792,
  "'t": 793,
  "differen": 794,
  "ener": 795,
  "eff": 796,
  "ten": 797,
  "How": 798,
  "ty": 799,
  "will": 800,
  "reat": 801,
  "ans": 802,
  "cur": 803,
  "ves": 804,
  "ents": 805,
  "commun": 806,
  "ist": 807,
  "off": 808,
  "ound": 809,
  "ble": 810,
  "tain": 811,
  "model": 812,
  "go": 813,
  "ility": 814,
  "ass": 815,
  "get": 816,
  "need": 817,
  "follow": 818,
  "sup": 819,
  "oy": 820,
  "Wh": 821,
  "fl": 822,
  "struc": 823,
  "au": 824,
  "ular": 825,
  "stand": 826,
  "personal": 827,
  "ight": 828,
  "experi": 829,
  "ities": 830,
  "ness": 831,
  "chan": 832,
  "inv": 833,
  "af": 834,
  "provide": 835,
  "ser": 836,
  "ob": 837,
  "ip": 838,
  "cis": 839,
  "velop": 840,
  "spec": 841,
  "used": 842,
  "bl": 843,
  "practi": 844,
  "bu": 845,
  "mem": 846,
  "man": 847,
  "ign": 848,
  "ice": 849,
  "ential": 850,
  "col": 851,
  "under": 852,
  "here": 853,
  "ia": 854,
  "self": 855,
  "ater": 856,
  "rel": 857,
  "sy": 858,
  "iv": 859,
  "ople": 860,
  "ard": 861,
  "ions": 862,
  "technolog": 863,
  "imp": 864,
  "dition": 865,
  "vir": 866,
  "exam": 867,
  "ning": 868,
  "ative": 869,
  "It's": 870,
  "dr": 871,
  "different": 872,
  "my": 873,
  "cal": 874,
  "it's": 875,
  "rec": 876,
  "cont": 877,
  "who": 878,
  "no": 879,
  "produc": 880,
  "impro": 881,
  "reg": 882,
  "develop": 883,
  "ase": 884,
  "ide": 885,
  "ary": 886,
  "tom": 887,
  "enc": 888,
  "ings": 889,
  "people": 890,
  "feel": 891,
  "social": 892,
  "I'": 893,
  "tim": 894,
  "inter": 895,
  "Re": 896,
  "ink": 897,
  "bet": 898,
  "par": 899,
  "ll": 900,
  "He": 901,
  "tra": 902,
  "coun": 903,
  "pol": 904,
  "ways": 905,
  "ural": 906,
  "rest": 907,
  "effec": 908,
  "Do": 909,
  "gg": 910,
  "divi": 911,
  "cult": 912,
  "resp": 913,
  "ph": 914,
  "when": 915,
  "ased": 916,
  "sol": 917,
  "int": 918,
  "ures": 919,
  "dividu": 920,
  "lec": 921,
  "using": 922,
  "sk": 923,
  "val": 924,
  "However": 925,
  "fully": 926,
  "cus": 927,
  "on't": 928,
  "this": 929,
  "ite": 930,
  "fin": 931,
  "ue": 932,
  "fore": 933,
  "find": 934,
  "individu": 935,
  "adv": 936,
  "inform": 937,
  "back": 938,
  "od": 939,
  "many": 940,
  "try": 941,
  "bre": 942,
  "kn": 943,
  "mar": 944,
  "support": 945,
  "what": 946,
  "cer": 947,
  "inte": 948,
  "should": 949,
  "understand": 950,
  "gan": 951,
  "create": 952,
  "red": 953,
  "dat": 954,
  "ame": 955,
  "aw": 956,
  "lead": 957,
  "led": 958,
  "into": 959,
  "see": 960,
  "gy": 961,
  "arch": 962,
  "ive": 963,
  "come": 964,
  "lo": 965,
  "thr": 966,
  "ual": 967,
  "ree": 968,
  "prom": 969,
  "iqu": 970,
  "great": 971,
  "iness": 972,
  "mind": 973,
  "duce": 974,
  "ory": 975,
  "line": 976,
  "tips": 977,
  "ew": 978,
  "just": 979,
  "cor": 980,
  "add": 981,
  "ources": 982,
  "while": 983,
  "exp": 984,
  "fic": 985,
  "ties": 986,
  "stem": 987,
  "tiv": 988,
  "impact": 989,
  "take": 990,
  "could": 991,
  "ak": 992,
  "media": 993,
  "technology": 994,
  "high": 995,
  "requ": 996,
  "ability": 997,
  "sign": 998,
  "ish": 999,
  "viron": 1000,
  "ving": 1001,
  "instruc": 1002,
  "well": 1003,
  "specific": 1004,
  "bus": 1005,
  "gram": 1006,
  "foc": 1007,
  "incre": 1008,
  "improve": 1009,
  "ality": 1010,
  "system": 1011,
  "plan": 1012,
  "think": 1013,
  "through": 1014,
  "ook": 1015,
  "environ": 1016,
  "uring": 1017,
  "ath": 1018,
  "fun": 1019,
  "Here": 1020,
  "ris": 1021,
  "ari": 1022,
  "member": 1023,
  "posi": 1024,
  "includ": 1025,
  "ake": 1026,
  "ily": 1027,
  "pot": 1028,
  "ices": 1029,
  "set": 1030,
  "being": 1031,
  "data": 1032,
  "pos": 1033,
  "les": 1034,
  "vers": 1035,
  "mus": 1036,
  "carefully": 1037,
  "ding": 1038,
  "ste": 1039,
  "don't": 1040,
  "interest": 1041,
  "process": 1042,
  "Yes": 1043,
  "ial": 1044,
  "reduce": 1045,
  "ize": 1046,
  "business": 1047,
  "information": 1048,
  "prof": 1049,
  "instructions": 1050,
  "sm": 1051,
  "ates": 1052,
  "min": 1053,
  "environment": 1054,
  "organ": 1055,
  "put": 1056,
  "These": 1057,
  "bi": 1058,
  "pres": 1059,
  "ences": 1060,
  "stain": 1061,
  "serv": 1062,
  "ear": 1063,
  "contr": 1064,
  "sti": 1065,
  "follows": 1066,
  "ensure": 1067,
  "ety": 1068,
  "ys": 1069,
  "ploy": 1070,
  "was": 1071,
  "making": 1072,
  "chall": 1073,
  "ms": 1074,
  "custom": 1075,
  "ication": 1076,
  "car": 1077,
  "sustain": 1078,
  "few": 1079,
  "main": 1080,
  "day": 1081,
  "Ch": 1082,
  "St": 1083,
  "loc": 1084,
  "play": 1085,
  "sider": 1086,
  "stud": 1087,
  "war": 1088,
  "design": 1089,
  "fi": 1090,
  "os": 1091,
  "ca": 1092,
  "dep": 1093,
  "ude": 1094,
  "life": 1095,
  "search": 1096,
  "mon": 1097,
  "bel": 1098,
  "ples": 1099,
  "sa": 1100,
  "vis": 1101,
  "program": 1102,
  "energy": 1103,
  "dustr": 1104,
  "appro": 1105,
  "based": 1106,
  "experience": 1107,
  "been": 1108,
  "commend": 1109,
  "tho": 1110,
  "recommend": 1111,
  "sible": 1112,
  "view": 1113,
  "ze": 1114,
  "If": 1115,
  "build": 1116,
  "sen": 1117,
  "know": 1118,
  "ext": 1119,
  "ben": 1120,
  "Ad": 1121,
  "oid": 1122,
  "requi": 1123,
  "respon": 1124,
  "pec": 1125,
  "pri": 1126,
  "each": 1127,
  "read": 1128,
  "vari": 1129,
  "Con": 1130,
  "offer": 1131,
  "industr": 1132,
  "during": 1133,
  "online": 1134,
  "employ": 1135,
  "benef": 1136,
  "part": 1137,
  "ie": 1138,
  "fact": 1139,
  "where": 1140,
  "emo": 1141,
  "comple": 1142,
  "good": 1143,
  "most": 1144,
  "long": 1145,
  "air": 1146,
  "than": 1147,
  "sive": 1148,
  "ner": 1149,
  "stay": 1150,
  "sul": 1151,
  "ercis": 1152,
  "sur": 1153,
  "eas": 1154,
  "keep": 1155,
  "best": 1156,
  "individuals": 1157,
  "including": 1158,
  "Use": 1159,
  "allow": 1160,
  "signific": 1161,
  "list": 1162,
  "manage": 1163,
  "potential": 1164,
  "issu": 1165,
  "ns": 1166,
  "learning": 1167,
  "tool": 1168,
  "example": 1169,
  "fort": 1170,
  "resources": 1171,
  "start": 1172,
  "For": 1173,
  "Can": 1174,
  "nec": 1175,
  "ized": 1176,
  "ligh": 1177,
  "sum": 1178,
  "pop": 1179,
  "hum": 1180,
  "aging": 1181,
  "ail": 1182,
  "ession": 1183,
  "before": 1184,
  "fri": 1185,
  "invest": 1186,
  "gener": 1187,
  "often": 1188,
  "challeng": 1189,
  "nat": 1190,
  "tw": 1191,
  "I'm": 1192,
  "suc": 1193,
  "soci": 1194,
  "marke": 1195,
  "train": 1196,
  "En": 1197,
  "strate": 1198,
  "child": 1199,
  "water": 1200,
  "pow": 1201,
  "exercis": 1202,
  "By": 1203,
  "skill": 1204,
  "sugg": 1205,
  "ditional": 1206,
  "small": 1207,
  "solu": 1208,
  "significant": 1209,
  "others": 1210,
  "relation": 1211,
  "positive": 1212,
  "yourself": 1213,
  "sts": 1214,
  "ici": 1215,
  "place": 1216,
  "every": 1217,
  "ted": 1218,
  "goals": 1219,
  "estions": 1220,
  "world": 1221,
  "ues": 1222,
  "friend": 1223,
  "Pr": 1224,
  "relationsh": 1225,
  "Remember": 1226,
  "prot": 1227,
  "What": 1228,
  "even": 1229,
  "invol": 1230,
  "aren": 1231,
  "educ": 1232,
  "fy": 1233,
  "organiz": 1234,
  "ges": 1235,
  "anies": 1236,
  "ran": 1237,
  "success": 1238,
  "pu": 1239,
  "ique": 1240,
  "provides": 1241,
  "ween": 1242,
  "cour": 1243,
  "vely": 1244,
  "between": 1245,
  "ick": 1246,
  "ry": 1247,
  "focus": 1248,
  "change": 1249,
  "practices": 1250,
  "atform": 1251,
  "expl": 1252,
  "essential": 1253,
  "bal": 1254,
  "research": 1255,
  "fam": 1256,
  "ational": 1257,
  "lab": 1258,
  "sit": 1259,
  "ics": 1260,
  "better": 1261,
  "They": 1262,
  "accur": 1263,
  "you'": 1264,
  "ven": 1265,
  "profession": 1266,
  "include": 1267,
  "quality": 1268,
  "needs": 1269,
  "arti": 1270,
  "platform": 1271,
  "char": 1272,
  "thing": 1273,
  "would": 1274,
  "tur": 1275,
  "level": 1276,
  "grow": 1277,
  "ages": 1278,
  "cho": 1279,
  "effective": 1280,
  "consider": 1281,
  "old": 1282,
  "sustainable": 1283,
  "ile": 1284,
  "identi": 1285,
  "ved": 1286,
  "ote": 1287,
  "examples": 1288,
  "ody": 1289,
  "skills": 1290,
  "Some": 1291,
  "top": 1292,
  "ands": 1293,
  "team": 1294,
  "An": 1295,
  "ra": 1296,
  "depend": 1297,
  "stress": 1298,
  "infl": 1299,
  "less": 1300,
  "ens": 1301,
  "gl": 1302,
  "experiences": 1303,
  "trans": 1304,
  "ri": 1305,
  "still": 1306,
  "mental": 1307,
  "There": 1308,
  "num": 1309,
  "ines": 1310,
  "ips": 1311,
  "beli": 1312,
  "itical": 1313,
  "Be": 1314,
  "communication": 1315,
  "wr": 1316,
  "employe": 1317,
  "music": 1318,
  "perform": 1319,
  "access": 1320,
  "activi": 1321,
  "learn": 1322,
  "anc": 1323,
  "companies": 1324,
  "industry": 1325,
  "decis": 1326,
  "safe": 1327,
  "ash": 1328,
  "Over": 1329,
  "tional": 1330,
  "xi": 1331,
  "itation": 1332,
  "sing": 1333,
  "grou": 1334,
  "practice": 1335,
  "wards": 1336,
  "sim": 1337,
  "want": 1338,
  "plement": 1339,
  "made": 1340,
  "uture": 1341,
  "vent": 1342,
  "publ": 1343,
  "contin": 1344,
  "actions": 1345,
  "ately": 1346,
  "onom": 1347,
  "show": 1348,
  "cultural": 1349,
  "those": 1350,
  "fer": 1351,
  "portun": 1352,
  "jec": 1353,
  "bility": 1354,
  "ited": 1355,
  "solutions": 1356,
  "bo": 1357,
  "term": 1358,
  "cep": 1359,
  "future": 1360,
  "avoid": 1361,
  "sty": 1362,
  "activities": 1363,
  "cle": 1364,
  "iting": 1365,
  "pes": 1366,
  "code": 1367,
  "overn": 1368,
  "body": 1369,
  "opportun": 1370,
  "healthy": 1371,
  "hy": 1372,
  "lim": 1373,
  "popular": 1374,
  "polic": 1375,
  "power": 1376,
  "class": 1377,
  "kes": 1378,
  "action": 1379,
  "arm": 1380,
  "app": 1381,
  "real": 1382,
  "always": 1383,
  "sever": 1384,
  "acy": 1385,
  "aff": 1386,
  "joy": 1387,
  "issues": 1388,
  "reli": 1389,
  "both": 1390,
  "approach": 1391,
  "development": 1392,
  "labor": 1393,
  "benefits": 1394,
  "content": 1395,
  "food": 1396,
  "down": 1397,
  "training": 1398,
  "unique": 1399,
  "address": 1400,
  "cause": 1401,
  "cap": 1402,
  "without": 1403,
  "phys": 1404,
  "belief": 1405,
  "Com": 1406,
  "prior": 1407,
  "feed": 1408,
  "resul": 1409,
  "move": 1410,
  "atter": 1411,
  "natural": 1412,
  "products": 1413,
  "side": 1414,
  "reduc": 1415,
  "vity": 1416,
  "present": 1417,
  "promote": 1418,
  "motiv": 1419,
  "pur": 1420,
  "opin": 1421,
  "sub": 1422,
  "prevent": 1423,
  "gin": 1424,
  "ture": 1425,
  "mater": 1426,
  "audi": 1427,
  "ogn": 1428,
  "accoun": 1429,
  "share": 1430,
  "ants": 1431,
  "public": 1432,
  "ials": 1433,
  "anal": 1434,
  "options": 1435,
  "several": 1436,
  "ieve": 1437,
  "Overall": 1438,
  "ise": 1439,
  "possible": 1440,
  "cy": 1441,
  "community": 1442,
  "gen": 1443,
  "neg": 1444,
  "tas": 1445,
  "ism": 1446,
  "corpor": 1447,
  "right": 1448,
  "havi": 1449,
  "bers": 1450,
  "hand": 1451,
  "accurate": 1452,
  "increase": 1453,
  "taking": 1454,
  "risk": 1455,
  "students": 1456,
  "towards": 1457,
  "open": 1458,
  "let": 1459,
  "ency": 1460,
  "tools": 1461,
  "systems": 1462,
  "range": 1463,
  "eck": 1464,
  "works": 1465,
  "atch": 1466,
  "working": 1467,
  "feat": 1468,
  "implement": 1469,
  "mer": 1470,
  "mindful": 1471,
  "strateg": 1472,
  "traditional": 1473,
  "influ": 1474,
  "net": 1475,
  "avail": 1476,
  "behavi": 1477,
  "local": 1478,
  "econom": 1479,
  "web": 1480,
  "regular": 1481,
  "businesses": 1482,
  "finan": 1483,
  "leg": 1484,
  "light": 1485,
  "aware": 1486,
  "you're": 1487,
  "become": 1488,
  "maintain": 1489,
  "concer": 1490,
  "ases": 1491,
  "oose": 1492,
  "tri": 1493,
  "certain": 1494,
  "human": 1495,
  "stre": 1496,
  "ditionally": 1497,
  "therap": 1498,
  "ject": 1499,
  "lar": 1500,
  "feedback": 1501,
  "guid": 1502,
  "beliefs": 1503,
  "vide": 1504,
  "mis": 1505,
  "give": 1506,
  "free": 1507,
  "company": 1508,
  "job": 1509,
  "professional": 1510,
  "iques": 1511,
  "comfort": 1512,
  "uch": 1513,
  "require": 1514,
  "spe": 1515,
  "tal": 1516,
  "tern": 1517,
  "key": 1518,
  "10": 1519,
  "regul": 1520,
  "giv": 1521,
  "Additionally": 1522,
  "around": 1523,
  "emp": 1524,
  "techniques": 1525,
  "defin": 1526,
  "ax": 1527,
  "had": 1528,
  "tem": 1529,
  "ict": 1530,
  "protect": 1531,
  "individual": 1532,
  "ging": 1533,
  "physical": 1534,
  "ope": 1535,
  "too": 1536,
  "eth": 1537,
  "cam": 1538,
  "strategies": 1539,
  "encour": 1540,
  "were": 1541,
  "equ": 1542,
  "Ex": 1543,
  "ones": 1544,
  "ost": 1545,
  "I'll": 1546,
  "sto": 1547,
  "creating": 1548,
  "only": 1549,
  "Cre": 1550,
  "ss": 1551,
  "govern": 1552,
  "understanding": 1553,
  "following": 1554,
  "enjoy": 1555,
  "her": 1556,
  "much": 1557,
  "changes": 1558,
  "times": 1559,
  "ital": 1560,
  "financial": 1561,
  "att": 1562,
  "cent": 1563,
  "factors": 1564,
  "identify": 1565,
  "nect": 1566,
  "engage": 1567,
  "sci": 1568,
  "sense": 1569,
  "pati": 1570,
  "diffic": 1571,
  "management": 1572,
  "comes": 1573,
  "gether": 1574,
  "organizations": 1575,
  "though": 1576,
  "grap": 1577,
  "prog": 1578,
  "healthcare": 1579,
  "gam": 1580,
  "arr": 1581,
  "meditation": 1582,
  "might": 1583,
  "ferences": 1584,
  "employees": 1585,
  "While": 1586,
  "tual": 1587,
  "helps": 1588,
  "fac": 1589,
  "programs": 1590,
  "fir": 1591,
  "turn": 1592,
  "ger": 1593,
  "exc": 1594,
  "together": 1595,
  "culture": 1596,
  "ref": 1597,
  "respect": 1598,
  "clear": 1599,
  "areas": 1600,
  "available": 1601,
  "necess": 1602,
  "really": 1603,
  "offers": 1604,
  "family": 1605,
  "proper": 1606,
  "Un": 1607,
  "treat": 1608,
  "ideas": 1609,
  "ilities": 1610,
  "20": 1611,
  "sal": 1612,
  "services": 1613,
  "prioriti": 1614,
  "elec": 1615,
  "avor": 1616,
  "negative": 1617,
  "So": 1618,
  "proble": 1619,
  "meas": 1620,
  "recommendations": 1621,
  "role": 1622,
  "events": 1623,
  "opportunities": 1624,
  "situ": 1625,
  "challenges": 1626,
  "secur": 1627,
  "progress": 1628,
  "ele": 1629,
  "icate": 1630,
  "rout": 1631,
  "difficult": 1632,
  "ave": 1633,
  "ort": 1634,
  "sof": 1635,
  "fit": 1636,
  "ination": 1637,
  "opinions": 1638,
  "customer": 1639,
  "values": 1640,
  "balance": 1641,
  "platforms": 1642,
  "materials": 1643,
  "account": 1644,
  "rect": 1645,
  "then": 1646,
  "effici": 1647,
  "ution": 1648,
  "ances": 1649,
  "ually": 1650,
  "itely": 1651,
  "pa": 1652,
  "pp": 1653,
  "connect": 1654,
  "ories": 1655,
  "expect": 1656,
  "ling": 1657,
  "ction": 1658,
  "That": 1659,
  "boo": 1660,
  "perspec": 1661,
  "contri": 1662,
  "oting": 1663,
  "various": 1664,
  "audience": 1665,
  "paren": 1666,
  "ier": 1667,
  "Pro": 1668,
  "reducing": 1669,
  "behavior": 1670,
  "els": 1671,
  "now": 1672,
  "market": 1673,
  "ming": 1674,
  "education": 1675,
  "communities": 1676,
  "fru": 1677,
  "suggestions": 1678,
  "tention": 1679,
  "home": 1680,
  "lik": 1681,
  "growth": 1682,
  "security": 1683,
  "asing": 1684,
  "explan": 1685,
  "mi": 1686,
  "relationships": 1687,
  "hist": 1688,
  "ically": 1689,
  "ditions": 1690,
  "idea": 1691,
  "collabor": 1692,
  "break": 1693,
  "ious": 1694,
  "definitely": 1695,
  "tics": 1696,
  "tively": 1697,
  "oring": 1698,
  "cip": 1699,
  "nu": 1700,
  "face": 1701,
  "exercise": 1702,
  "curren": 1703,
  "Input": 1704,
  "ather": 1705,
  "ulti": 1706,
  "complex": 1707,
  "strong": 1708,
  "consum": 1709,
  "preferences": 1710,
  "skin": 1711,
  "pain": 1712,
  "does": 1713,
  "emotions": 1714,
  "year": 1715,
  "divers": 1716,
  "sle": 1717,
  "someone": 1718,
  "control": 1719,
  "track": 1720,
  "necessary": 1721,
  "active": 1722,
  "things": 1723,
  "space": 1724,
  "aking": 1725,
  "bon": 1726,
  "zing": 1727,
  "look": 1728,
  "aring": 1729,
  "explanations": 1730,
  "Sure": 1731,
  "common": 1732,
  "rele": 1733,
  "building": 1734,
  "steps": 1735,
  "ems": 1736,
  "tries": 1737,
  "meet": 1738,
  "timately": 1739,
  "To": 1740,
  "two": 1741,
  "auth": 1742,
  "verse": 1743,
  "trust": 1744,
  "after": 1745,
  "oper": 1746,
  "ledge": 1747,
  "oil": 1748,
  "partic": 1749,
  "brand": 1750,
  "incorpor": 1751,
  "dev": 1752,
  "customers": 1753,
  "pay": 1754,
  "recogn": 1755,
  "ables": 1756,
  "sources": 1757,
  "mindfulness": 1758,
  "overall": 1759,
  "multi": 1760,
  "mean": 1761,
  "text": 1762,
  "Create": 1763,
  "features": 1764,
  "policies": 1765,
  "tail": 1766,
  "hold": 1767,
  "performance": 1768,
  "clim": 1769,
  "ons": 1770,
  "ping": 1771,
  "reach": 1772,
  "enh": 1773,
  "inst": 1774,
  "stead": 1775,
  "Take": 1776,
  "tasks": 1777,
  "known": 1778,
  "lish": 1779,
  "fil": 1780,
  "routine": 1781,
  "particular": 1782,
  "groups": 1783,
  "likely": 1784,
  "given": 1785,
  "ward": 1786,
  "nov": 1787,
  "ched": 1788,
  "check": 1789,
  "Al": 1790,
  "appl": 1791,
  "aries": 1792,
  "type": 1793,
  "cru": 1794,
  "comb": 1795,
  "sc": 1796,
  "countries": 1797,
  "reng": 1798,
  "achieve": 1799,
  "breath": 1800,
  "express": 1801,
  "prioritize": 1802,
  "ization": 1803,
  "affect": 1804,
  "children": 1805,
  "his": 1806,
  "emotional": 1807,
  "story": 1808,
  "non": 1809,
  "relationship": 1810,
  "political": 1811,
  "cost": 1812,
  "When": 1813,
  "questions": 1814,
  "teach": 1815,
  "ats": 1816,
  "concerns": 1817,
  "anxi": 1818,
  "ooking": 1819,
  "environmental": 1820,
  "tives": 1821,
  "types": 1822,
  "Make": 1823,
  "travel": 1824,
  "pass": 1825,
  "ord": 1826,
  "exercises": 1827,
  "providing": 1828,
  "gre": 1829,
  "first": 1830,
  "cannot": 1831,
  "ask": 1832,
  "chool": 1833,
  "hab": 1834,
  "everyone": 1835,
  "print": 1836,
  "ending": 1837,
  "relax": 1838,
  "ounds": 1839,
  "economic": 1840,
  "users": 1841,
  "sec": 1842,
  "eco": 1843,
  "tran": 1844,
  "ethical": 1845,
  "usion": 1846,
  "parti": 1847,
  "tar": 1848,
  "state": 1849,
  "stru": 1850,
  "renew": 1851,
  "levels": 1852,
  "sleep": 1853,
  "innov": 1854,
  "challenging": 1855,
  "continue": 1856,
  "On": 1857,
  "interesting": 1858,
  "sha": 1859,
  "gor": 1860,
  "Set": 1861,
  "friendly": 1862,
  "technologies": 1863,
  "ications": 1864,
  "cover": 1865,
  "something": 1866,
  "diversity": 1867,
  "da": 1868,
  "comfortable": 1869,
  "head": 1870,
  "site": 1871,
  "peti": 1872,
  "vol": 1873,
  "consist": 1874,
  "run": 1875,
  "streng": 1876,
  "same": 1877,
  "user": 1878,
  "option": 1879,
  "tu": 1880,
  "setting": 1881,
  "agree": 1882,
  "mess": 1883,
  "ded": 1884,
  "value": 1885,
  "oga": 1886,
  "listen": 1887,
  "game": 1888,
  "uses": 1889,
  "ners": 1890,
  "amoun": 1891,
  "ially": 1892,
  "tware": 1893,
  "analy": 1894,
  "spir": 1895,
  "awareness": 1896,
  "anxiety": 1897,
  "conf": 1898,
  "dem": 1899,
  "oney": 1900,
  "sigh": 1901,
  "ights": 1902,
  "decision": 1903,
  "ently": 1904,
  "ses": 1905,
  "dam": 1906,
  "aste": 1907,
  "anim": 1908,
  "forts": 1909,
  "fra": 1910,
  "ablish": 1911,
  "members": 1912,
  "oods": 1913,
  "society": 1914,
  "sion": 1915,
  "virtual": 1916,
  "eep": 1917,
  "convers": 1918,
  "n't": 1919,
  "risks": 1920,
  "sions": 1921,
  "cing": 1922,
  "espec": 1923,
  "views": 1924,
  "especially": 1925,
  "function": 1926,
  "suggest": 1927,
  "priv": 1928,
  "ock": 1929,
  "jects": 1930,
  "distr": 1931,
  "style": 1932,
  "advice": 1933,
  "effectively": 1934,
  "cultures": 1935,
  "renewable": 1936,
  "found": 1937,
  "efforts": 1938,
  "number": 1939,
  "variety": 1940,
  "allows": 1941,
  "atives": 1942,
  "software": 1943,
  "ek": 1944,
  "Tr": 1945,
  "gar": 1946,
  "ush": 1947,
  "choose": 1948,
  "effects": 1949,
  "feelings": 1950,
  "electr": 1951,
  "encourage": 1952,
  "coming": 1953,
  "must": 1954,
  "clean": 1955,
  "lying": 1956,
  "decisions": 1957,
  "easy": 1958,
  "valu": 1959,
  "tivity": 1960,
  "involves": 1961,
  "lower": 1962,
  "connec": 1963,
  "veget": 1964,
  "book": 1965,
  "quick": 1966,
  "Ar": 1967,
  "confl": 1968,
  "leading": 1969,
  "anced": 1970,
  "ashion": 1971,
  "tle": 1972,
  "sym": 1973,
  "climate": 1974,
  "tren": 1975,
  "ban": 1976,
  "very": 1977,
  "motivated": 1978,
  "ertain": 1979,
  "ican": 1980,
  "cloth": 1981,
  "therapy": 1982,
  "happ": 1983,
  "product": 1984,
  "test": 1985,
  "acter": 1986,
  "graph": 1987,
  "bring": 1988,
  "safety": 1989,
  "knowledge": 1990,
  "return": 1991,
  "law": 1992,
  "ource": 1993,
  "attention": 1994,
  "dig": 1995,
  "ah": 1996,
  "ender": 1997,
  "contribu": 1998,
  "che": 1999,
  "area": 2000,
  "gain": 2001,
  "particip": 2002,
  "fiel": 2003,
  "structure": 2004,
  "resh": 2005,
  "room": 2006,
  "sibility": 2007,
  "love": 2008,
  "aged": 2009,
  "deep": 2010,
  "ports": 2011,
  "sequ": 2012,
  "conditions": 2013,
  "urther": 2014,
  "focused": 2015,
  "marketing": 2016,
  "Keep": 2017,
  "With": 2018,
  "hard": 2019,
  "creative": 2020,
  "moder": 2021,
  "lect": 2022,
  "paign": 2023,
  "artists": 2024,
  "til": 2025,
  "thods": 2026,
  "Many": 2027,
  "promoting": 2028,
  "color": 2029,
  "pose": 2030,
  "Practi": 2031,
  "ensive": 2032,
  "ground": 2033,
  "post": 2034,
  "methods": 2035,
  "again": 2036,
  "But": 2037,
  "point": 2038,
  "wid": 2039,
  "Ac": 2040,
  "One": 2041,
  "initi": 2042,
  "effort": 2043,
  "iev": 2044,
  "def": 2045,
  "hol": 2046,
  "tell": 2047,
  "government": 2048,
  "iter": 2049,
  "appropri": 2050,
  "De": 2051,
  "bound": 2052,
  "fashion": 2053,
  "gorith": 2054,
  "utes": 2055,
  "hi": 2056,
  "sent": 2057,
  "current": 2058,
  "harm": 2059,
  "website": 2060,
  "ering": 2061,
  "whe": 2062,
  "wal": 2063,
  "campaign": 2064,
  "abilities": 2065,
  "00": 2066,
  "fle": 2067,
  "anti": 2068,
  "prin": 2069,
  "school": 2070,
  "requires": 2071,
  "contain": 2072,
  "ark": 2073,
  "waste": 2074,
  "patter": 2075,
  "discus": 2076,
  "jour": 2077,
  "investment": 2078,
  "mach": 2079,
  "engaging": 2080,
  "izing": 2081,
  "years": 2082,
  "service": 2083,
  "ule": 2084,
  "project": 2085,
  "interests": 2086,
  "study": 2087,
  "ature": 2088,
  "algorith": 2089,
  "worth": 2090,
  "iment": 2091,
  "fast": 2092,
  "acts": 2093,
  "confid": 2094,
  "insigh": 2095,
  "har": 2096,
  "group": 2097,
  "relig": 2098,
  "aks": 2099,
  "hip": 2100,
  "related": 2101,
  "tor": 2102,
  "force": 2103,
  "cul": 2104,
  "result": 2105,
  "inking": 2106,
  "crip": 2107,
  "Consider": 2108,
  "lig": 2109,
  "tour": 2110,
  "minim": 2111,
  "commit": 2112,
  "successful": 2113,
  "partner": 2114,
  "short": 2115,
  "getting": 2116,
  "ards": 2117,
  "Try": 2118,
  "chain": 2119,
  "special": 2120,
  "cept": 2121,
  "tein": 2122,
  "measures": 2123,
  "mun": 2124,
  "diet": 2125,
  "istic": 2126,
  "due": 2127,
  "pred": 2128,
  "fo": 2129,
  "uck": 2130,
  "remo": 2131,
  "begin": 2132,
  "grad": 2133,
  "remember": 2134,
  "yoga": 2135,
  "medical": 2136,
  "monit": 2137,
  "brands": 2138,
  "gate": 2139,
  "explore": 2140,
  "apps": 2141,
  "Av": 2142,
  "large": 2143,
  "plant": 2144,
  "note": 2145,
  "digital": 2146,
  "Amer": 2147,
  "strugg": 2148,
  "mil": 2149,
  "Ul": 2150,
  "dies": 2151,
  "bud": 2152,
  "competi": 2153,
  "hair": 2154,
  "bur": 2155,
  "friends": 2156,
  "activity": 2157,
  "hope": 2158,
  "crucial": 2159,
  "amount": 2160,
  "altern": 2161,
  "sched": 2162,
  "aling": 2163,
  "daily": 2164,
  "increasing": 2165,
  "hes": 2166,
  "order": 2167,
  "preci": 2168,
  "past": 2169,
  "ilar": 2170,
  "termine": 2171,
  "general": 2172,
  "target": 2173,
  "strength": 2174,
  "influenc": 2175,
  "evol": 2176,
  "ub": 2177,
  "finding": 2178,
  "diverse": 2179,
  "patient": 2180,
  "oes": 2181,
  "makes": 2182,
  "advance": 2183,
  "lack": 2184,
  "associ": 2185,
  "wear": 2186,
  "enough": 2187,
  "adap": 2188,
  "lif": 2189,
  "sat": 2190,
  "cred": 2191,
  "takes": 2192,
  "say": 2193,
  "critical": 2194,
  "legal": 2195,
  "case": 2196,
  "improving": 2197,
  "establish": 2198,
  "achiev": 2199,
  "Se": 2200,
  "because": 2201,
  "tch": 2202,
  "reas": 2203,
  "words": 2204,
  "Br": 2205,
  "ang": 2206,
  "inc": 2207,
  "pare": 2208,
  "tax": 2209,
  "within": 2210,
  "easier": 2211,
  "ied": 2212,
  "boundaries": 2213,
  "developing": 2214,
  "rup": 2215,
  "nam": 2216,
  "Ultimately": 2217,
  "emer": 2218,
  "designed": 2219,
  "shop": 2220,
  "Is": 2221,
  "dients": 2222,
  "transport": 2223,
  "intel": 2224,
  "minutes": 2225,
  "obal": 2226,
  "athy": 2227,
  "oto": 2228,
  "ili": 2229,
  "sound": 2230,
  "reality": 2231,
  "stic": 2232,
  "onic": 2233,
  "Sh": 2234,
  "compl": 2235,
  "direct": 2236,
  "situation": 2237,
  "ivers": 2238,
  "flexi": 2239,
  "going": 2240,
  "Encour": 2241,
  "protein": 2242,
  "That's": 2243,
  "mix": 2244,
  "adjust": 2245,
  "peri": 2246,
  "favor": 2247,
  "sn": 2248,
  "flow": 2249,
  "ouse": 2250,
  "among": 2251,
  "stream": 2252,
  "history": 2253,
  "devices": 2254,
  "money": 2255,
  "ey": 2256,
  "appreci": 2257,
  "rece": 2258,
  "ire": 2259,
  "ars": 2260,
  "land": 2261,
  "mail": 2262,
  "sparen": 2263,
  "cles": 2264,
  "sun": 2265,
  "inclu": 2266,
  "parents": 2267,
  "selves": 2268,
  "dist": 2269,
  "why": 2270,
  "meaning": 2271,
  "production": 2272,
  "represent": 2273,
  "regulations": 2274,
  "Practice": 2275,
  "weight": 2276,
  "problem": 2277,
  "Have": 2278,
  "date": 2279,
  "ators": 2280,
  "mal": 2281,
  "communicate": 2282,
  "ross": 2283,
  "alu": 2284,
  "event": 2285,
  "throughout": 2286,
  "ford": 2287,
  "ingre": 2288,
  "19": 2289,
  "appropriate": 2290,
  "multiple": 2291,
  "trying": 2292,
  "increased": 2293,
  "feeling": 2294,
  "another": 2295,
  "acces": 2296,
  "na": 2297,
  "ests": 2298,
  "Pl": 2299,
  "ition": 2300,
  "kind": 2301,
  "regularly": 2302,
  "Wr": 2303,
  "games": 2304,
  "sw": 2305,
  "thoughts": 2306,
  "ery": 2307,
  "atic": 2308,
  "national": 2309,
  "ins": 2310,
  "whether": 2311,
  "breaks": 2312,
  "exist": 2313,
  "rights": 2314,
  "visual": 2315,
  "Avoid": 2316,
  "sustainability": 2317,
  "dy": 2318,
  "relev": 2319,
  "treatment": 2320,
  "doing": 2321,
  "appe": 2322,
  "hydr": 2323,
  "ection": 2324,
  "bas": 2325,
  "perf": 2326,
  "policy": 2327,
  "lot": 2328,
  "carbon": 2329,
  "character": 2330,
  "We": 2331,
  "perspectives": 2332,
  "patterns": 2333,
  "higher": 2334,
  "aces": 2335,
  "rather": 2336,
  "Col": 2337,
  "having": 2338,
  "evalu": 2339,
  "crim": 2340,
  "aim": 2341,
  "ders": 2342,
  "typ": 2343,
  "additional": 2344,
  "doc": 2345,
  "omen": 2346,
  "ply": 2347,
  "Don't": 2348,
  "Im": 2349,
  "ama": 2350,
  "optim": 2351,
  "importance": 2352,
  "sequences": 2353,
  "Look": 2354,
  "ativity": 2355,
  "issue": 2356,
  "ression": 2357,
  "nor": 2358,
  "limit": 2359,
  "men": 2360,
  "afford": 2361,
  "until": 2362,
  "ship": 2363,
  "looking": 2364,
  "against": 2365,
  "transparen": 2366,
  "name": 2367,
  "done": 2368,
  "attr": 2369,
  "word": 2370,
  "Of": 2371,
  "itch": 2372,
  "Des": 2373,
  "ney": 2374,
  "ori": 2375,
  "engagement": 2376,
  "global": 2377,
  "ify": 2378,
  "empathy": 2379,
  "workout": 2380,
  "Wow": 2381,
  "ancing": 2382,
  "ysis": 2383,
  "Wor": 2384,
  "mom": 2385,
  "intr": 2386,
  "includes": 2387,
  "atory": 2388,
  "determine": 2389,
  "involved": 2390,
  "Start": 2391,
  "lives": 2392,
  "I've": 2393,
  "costs": 2394,
  "photo": 2395,
  "modern": 2396,
  "across": 2397,
  "cast": 2398,
  "Em": 2399,
  "writing": 2400,
  "contribute": 2401,
  "remain": 2402,
  "ingredients": 2403,
  "pack": 2404,
  "farm": 2405,
  "la": 2406,
  "medi": 2407,
  "wide": 2408,
  "cu": 2409,
  "relevant": 2410,
  "ced": 2411,
  "step": 2412,
  "consequences": 2413,
  "simple": 2414,
  "insights": 2415,
  "smo": 2416,
  "loss": 2417,
  "dress": 2418,
  "oss": 2419,
  "ury": 2420,
  "influence": 2421,
  "depending": 2422,
  "organization": 2423,
  "informed": 2424,
  "forms": 2425,
  "greater": 2426,
  "fresh": 2427,
  "eah": 2428,
  "ology": 2429,
  "nutri": 2430,
  "field": 2431,
  "Social": 2432,
  "collec": 2433,
  "enhance": 2434,
  "integr": 2435,
  "assess": 2436,
  "scienti": 2437,
  "results": 2438,
  "Gr": 2439,
  "ligence": 2440,
  "rol": 2441,
  "enge": 2442,
  "Jo": 2443,
  "problems": 2444,
  "source": 2445,
  "movi": 2446,
  "news": 2447,
  "purch": 2448,
  "efficient": 2449,
  "tific": 2450,
  "ption": 2451,
  "jo": 2452,
  "Yeah": 2453,
  "hour": 2454,
  "stor": 2455,
  "tend": 2456,
  "stu": 2457,
  "inj": 2458,
  "tice": 2459,
  "poll": 2460,
  "align": 2461,
  "particularly": 2462,
  "luck": 2463,
  "seek": 2464,
  "trends": 2465,
  "associated": 2466,
  "ken": 2467,
  "ready": 2468,
  "vary": 2469,
  "inten": 2470,
  "foods": 2471,
  "acking": 2472,
  "needed": 2473,
  "leaders": 2474,
  "ond": 2475,
  "typically": 2476,
  "Le": 2477,
  "city": 2478,
  "analysis": 2479,
  "instead": 2480,
  "means": 2481,
  "Certain": 2482,
  "perfect": 2483,
  "transportation": 2484,
  "projects": 2485,
  "acks": 2486,
  "course": 2487,
  "styles": 2488,
  "video": 2489,
  "last": 2490,
  "position": 2491,
  "watch": 2492,
  "nature": 2493,
  "fair": 2494,
  "string": 2495,
  "industries": 2496,
  "swe": 2497,
  "clothing": 2498,
  "sites": 2499,
  "advant": 2500,
  "tely": 2501,
  "wind": 2502,
  "email": 2503,
  "vegetables": 2504,
  "books": 2505,
  "prepare": 2506,
  "true": 2507,
  "ped": 2508,
  "creativity": 2509,
  "perspective": 2510,
  "productivity": 2511,
  "</": 2512,
  "ques": 2513,
  "akes": 2514,
  "itable": 2515,
  "credit": 2516,
  "lebr": 2517,
  "sult": 2518,
  "celebr": 2519,
  "lic": 2520,
  "ists": 2521,
  "Are": 2522,
  "elements": 2523,
  "vo": 2524,
  "differences": 2525,
  "Te": 2526,
  "log": 2527,
  "servation": 2528,
  "cri": 2529,
  "involve": 2530,
  "aut": 2531,
  "ose": 2532,
  "Encourage": 2533,
  "seen": 2534,
  "lines": 2535,
  "thinking": 2536,
  "budget": 2537,
  "situations": 2538,
  "personalized": 2539,
  "collaboration": 2540,
  "Fin": 2541,
  "regard": 2542,
  "astic": 2543,
  "sounds": 2544,
  "Write": 2545,
  "jud": 2546,
  "machine": 2547,
  "similar": 2548,
  "bio": 2549,
  "goal": 2550,
  "ired": 2551,
  "tre": 2552,
  "privacy": 2553,
  "experiment": 2554,
  "flavor": 2555,
  "employee": 2556,
  "country": 2557,
  "foot": 2558,
  "pan": 2559,
  "quickly": 2560,
  "Foc": 2561,
  "impacts": 2562,
  "sensi": 2563,
  "favorite": 2564,
  "iving": 2565,
  "vid": 2566,
  "damage": 2567,
  "satis": 2568,
  "seems": 2569,
  "habit": 2570,
  "draw": 2571,
  "elf": 2572,
  "workplace": 2573,
  "autom": 2574,
  "terms": 2575,
  "resist": 2576,
  "bar": 2577,
  "author": 2578,
  "equip": 2579,
  "sharing": 2580,
  "cir": 2581,
  "fitness": 2582,
  "valuable": 2583,
  "challenge": 2584,
  "sess": 2585,
  "Find": 2586,
  "implementing": 2587,
  "themselves": 2588,
  "Certainly": 2589,
  "den": 2590,
  "can't": 2591,
  "did": 2592,
  "network": 2593,
  "further": 2594,
  "round": 2595,
  "stitu": 2596,
  "rates": 2597,
  "aving": 2598,
  "ift": 2599,
  "stretch": 2600,
  "items": 2601,
  "Reg": 2602,
  "ended": 2603,
  "guidance": 2604,
  "answ": 2605,
  "scal": 2606,
  "hot": 2607,
  "Good": 2608,
  "conversation": 2609,
  "responsible": 2610,
  "bed": 2611,
  "cases": 2612,
  "sentence": 2613,
  "ince": 2614,
  "away": 2615,
  "powerful": 2616,
  "reci": 2617,
  "ade": 2618,
  "affordable": 2619,
  "frequ": 2620,
  "emis": 2621,
  "never": 2622,
  "frustr": 2623,
  "allowing": 2624,
  "dio": 2625,
  "mor": 2626,
  "live": 2627,
  "compare": 2628,
  "expectations": 2629,
  "intelligence": 2630,
  "willing": 2631,
  "pt": 2632,
  "kers": 2633,
  "eness": 2634,
  "recognize": 2635,
  "question": 2636,
  "ints": 2637,
  "rate": 2638,
  "emic": 2639,
  "Mo": 2640,
  "difference": 2641,
  "Choose": 2642,
  "colors": 2643,
  "phone": 2644,
  "movement": 2645,
  "pair": 2646,
  "schedule": 2647,
  "temper": 2648,
  "responsibility": 2649,
  "interested": 2650,
  "gene": 2651,
  "experienc": 2652,
  "initiatives": 2653,
  "adop": 2654,
  "consistent": 2655,
  "smart": 2656,
  "block": 2657,
  "size": 2658,
  "gender": 2659,
  "ids": 2660,
  "strategy": 2661,
  "next": 2662,
  "ket": 2663,
  "tili": 2664,
  "recommended": 2665,
  "heart": 2666,
  "At": 2667,
  "sidered": 2668,
  "inclusive": 2669,
  "professionals": 2670,
  "Therefore": 2671,
  "icult": 2672,
  "models": 2673,
  "report": 2674,
  "considered": 2675,
  "store": 2676,
  "income": 2677,
  "ton": 2678,
  "spread": 2679,
  "adapt": 2680,
  "objec": 2681,
  "gricult": 2682,
  "emissions": 2683,
  "staying": 2684,
  "plants": 2685,
  "Res": 2686,
  "construc": 2687,
  "partners": 2688,
  "dry": 2689,
  "bit": 2690,
  "onest": 2691,
  "investing": 2692,
  "accessible": 2693,
  "creen": 2694,
  "icious": 2695,
  "'re": 2696,
  "demand": 2697,
  "compass": 2698,
  "career": 2699,
  "cies": 2700,
  "starting": 2701,
  "colle": 2702,
  "pressure": 2703,
  "location": 2704,
  "acters": 2705,
  "ich": 2706,
  "electric": 2707,
  "species": 2708,
  "fill": 2709,
  "algorithms": 2710,
  "usu": 2711,
  "tit": 2712,
  "she": 2713,
  "Commun": 2714,
  "spirit": 2715,
  "reput": 2716,
  "planning": 2717,
  "ug": 2718,
  "secure": 2719,
  "ining": 2720,
  "consult": 2721,
  "suring": 2722,
  "sib": 2723,
  "engine": 2724,
  "slow": 2725,
  "practicing": 2726,
  "shows": 2727,
  "Stay": 2728,
  "fost": 2729,
  "ters": 2730,
  "Focus": 2731,
  "choice": 2732,
  "conduc": 2733,
  "sor": 2734,
  "ator": 2735,
  "believe": 2736,
  "soil": 2737,
  "opportunity": 2738,
  "itive": 2739,
  "navi": 2740,
  "United": 2741,
  "pi": 2742,
  "serve": 2743,
  "cyber": 2744,
  "relaxation": 2745,
  "brain": 2746,
  "ules": 2747,
  "moment": 2748,
  "hear": 2749,
  "American": 2750,
  "ric": 2751,
  "asc": 2752,
  "symp": 2753,
  "conven": 2754,
  "maintaining": 2755,
  "rely": 2756,
  "fu": 2757,
  "advoc": 2758,
  "buy": 2759,
  "characters": 2760,
  "ont": 2761,
  "authenti": 2762,
  "else": 2763,
  "icts": 2764,
  "tors": 2765,
  "tab": 2766,
  "input": 2767,
  "argu": 2768,
  "cording": 2769,
  "reviews": 2770,
  "toms": 2771,
  "ged": 2772,
  "criti": 2773,
  "breathing": 2774,
  "outcomes": 2775,
  "alternative": 2776,
  "bro": 2777,
  "resol": 2778,
  "offe": 2779,
  "explain": 2780,
  "viol": 2781,
  "Cl": 2782,
  "incorporate": 2783,
  "courses": 2784,
  "completely": 2785,
  "women": 2786,
  "talk": 2787,
  "changing": 2788,
  "correct": 2789,
  "limited": 2790,
  "scen": 2791,
  "incorporating": 2792,
  "stories": 2793,
  "emphas": 2794,
  "listening": 2795,
  "fall": 2796,
  "task": 2797,
  "week": 2798,
  "weather": 2799,
  "gaming": 2800,
  "elines": 2801,
  "aper": 2802,
  "itate": 2803,
  "insp": 2804,
  "conservation": 2805,
  "connection": 2806,
  "outs": 2807,
  "accountable": 2808,
  "whel": 2809,
  "predict": 2810,
  "Bu": 2811,
  "deb": 2812,
  "oud": 2813,
  "Check": 2814,
  "Mind": 2815,
  "student": 2816,
  "summ": 2817,
  "compassion": 2818,
  "ball": 2819,
  "amazing": 2820,
  "overwhel": 2821,
  "ered": 2822,
  "depends": 2823,
  "Gener": 2824,
  "religious": 2825,
  "appreciate": 2826,
  "expected": 2827,
  "hours": 2828,
  "ease": 2829,
  "symptoms": 2830,
  "calm": 2831,
  "meth": 2832,
  "tiveness": 2833,
  "along": 2834,
  "wild": 2835,
  "List": 2836,
  "sets": 2837,
  "enses": 2838,
  "bot": 2839,
  "cry": 2840,
  "continu": 2841,
  "campaigns": 2842,
  "az": 2843,
  "qual": 2844,
  "demo": 2845,
  "videos": 2846,
  "concl": 2847,
  "lands": 2848,
  "ginal": 2849,
  "journey": 2850,
  "agricult": 2851,
  "respectful": 2852,
  "generate": 2853,
  "Or": 2854,
  "cand": 2855,
  "thought": 2856,
  "Educ": 2857,
  "governments": 2858,
  "icial": 2859,
  "maj": 2860,
  "goti": 2861,
  "response": 2862,
  "overcome": 2863,
  "solution": 2864,
  "conflict": 2865,
  "unte": 2866,
  "reflec": 2867,
  "method": 2868,
  "ological": 2869,
  "visit": 2870,
  "already": 2871,
  "mist": 2872,
  "bir": 2873,
  "miti": 2874,
  "array": 2875,
  "uter": 2876,
  "humans": 2877,
  "requirements": 2878,
  "auti": 2879,
  "remote": 2880,
  "Your": 2881,
  "bul": 2882,
  "smaller": 2883,
  "max": 2884,
  "laws": 2885,
  "taken": 2886,
  "denti": 2887,
  "purpose": 2888,
  "benefit": 2889,
  "ening": 2890,
  "early": 2891,
  "message": 2892,
  "incenti": 2893,
  "cs": 2894,
  "ising": 2895,
  "full": 2896,
  "Med": 2897,
  "addition": 2898,
  "cool": 2899,
  "push": 2900,
  "night": 2901,
  "sweet": 2902,
  "atively": 2903,
  "muscle": 2904,
  "equipment": 2905,
  "fish": 2906,
  "managing": 2907,
  "load": 2908,
  "speak": 2909,
  "highly": 2910,
  "workers": 2911,
  "spiritual": 2912,
  "rich": 2913,
  "Co": 2914,
  "ulation": 2915,
  "det": 2916,
  "monitor": 2917,
  "Dr": 2918,
  "speed": 2919,
  "interpre": 2920,
  "replace": 2921,
  "warm": 2922,
  "matter": 2923,
  "Instead": 2924,
  "developed": 2925,
  "gment": 2926,
  "evid": 2927,
  "sens": 2928,
  "bol": 2929,
  "major": 2930,
  "processes": 2931,
  "implemented": 2932,
  "advancements": 2933,
  "innovation": 2934,
  "whole": 2935,
  "prim": 2936,
  "Develop": 2937,
  "aur": 2938,
  "ali": 2939,
  "easily": 2940,
  "hic": 2941,
  "ig": 2942,
  "Provide": 2943,
  "won": 2944,
  "points": 2945,
  "ufact": 2946,
  "ored": 2947,
  "deter": 2948,
  "produce": 2949,
  "efficiency": 2950,
  "solar": 2951,
  "heard": 2952,
  "sports": 2953,
  "classes": 2954,
  "today": 2955,
  "Lear": 2956,
  "intro": 2957,
  "sou": 2958,
  "lay": 2959,
  "heat": 2960,
  "seas": 2961,
  "cup": 2962,
  "nal": 2963,
  "shoes": 2964,
  "fre": 2965,
  "comput": 2966,
  "core": 2967,
  "innovative": 2968,
  "ags": 2969,
  "gle": 2970,
  "ums": 2971,
  "song": 2972,
  "jus": 2973,
  "No": 2974,
  "ouch": 2975,
  "recy": 2976,
  "conflicts": 2977,
  "applications": 2978,
  "standards": 2979,
  "guidelines": 2980,
  "urt": 2981,
  "Rese": 2982,
  "meal": 2983,
  "realistic": 2984,
  "excited": 2985,
  "honest": 2986,
  "ellent": 2987,
  "created": 2988,
  "wa": 2989,
  "cli": 2990,
  "recover": 2991,
  "board": 2992,
  "ets": 2993,
  "More": 2994,
  "Research": 2995,
  "pen": 2996,
  "animals": 2997,
  "harmful": 2998,
  "sensitive": 2999,
  "sometimes": 3000,
  "that's": 3001,
  "ler": 3002,
  "negoti": 3003,
  "scientific": 3004,
  "cream": 3005,
  "summary": 3006,
  "deli": 3007,
  "lit": 3008,
  "prefer": 3009,
  "Ap": 3010,
  "schools": 3011,
  "funding": 3012,
  "big": 3013,
  "evidence": 3014,
  "table": 3015,
  "outside": 3016,
  "demon": 3017,
  "longer": 3018,
  "detail": 3019,
  "hor": 3020,
  "gent": 3021,
  "const": 3022,
  "shown": 3023,
  "technique": 3024,
  "Identi": 3025,
  "peace": 3026,
  "ensuring": 3027,
  "seeking": 3028,
  "cheese": 3029,
  "computer": 3030,
  "vision": 3031,
  "numbers": 3032,
  "answer": 3033,
  "esty": 3034,
  "preh": 3035,
  "US": 3036,
  "recent": 3037,
  "30": 3038,
  "histor": 3039,
  "Pe": 3040,
  "effectiveness": 3041,
  "liter": 3042,
  "youn": 3043,
  "shape": 3044,
  "studies": 3045,
  "eye": 3046,
  "States": 3047,
  "Red": 3048,
  "heav": 3049,
  "ultimately": 3050,
  "anything": 3051,
  "yth": 3052,
  "taste": 3053,
  "Comp": 3054,
  "unch": 3055,
  "topics": 3056,
  "bs": 3057,
  "started": 3058,
  "Sup": 3059,
  "forward": 3060,
  "complete": 3061,
  "secon": 3062,
  "movements": 3063,
  "manufact": 3064,
  "Man": 3065,
  "discrim": 3066,
  "New": 3067,
  "save": 3068,
  "according": 3069,
  "pand": 3070,
  "cook": 3071,
  "err": 3072,
  "international": 3073,
  "three": 3074,
  "usually": 3075,
  "seem": 3076,
  "mers": 3077,
  "motivation": 3078,
  "excellent": 3079,
  "ulner": 3080,
  "becoming": 3081,
  "conclusion": 3082,
  "ana": 3083,
  "rise": 3084,
  "improved": 3085,
  "Eng": 3086,
  "period": 3087,
  "smooth": 3088,
  "biases": 3089,
  "handle": 3090,
  "vey": 3091,
  "economy": 3092,
  "Au": 3093,
  "sessions": 3094,
  "VR": 3095,
  "frastructure": 3096,
  "review": 3097,
  "protection": 3098,
  "door": 3099,
  "since": 3100,
  "inspir": 3101,
  "15": 3102,
  "cell": 3103,
  "itude": 3104,
  "identity": 3105,
  "dest": 3106,
  "sugar": 3107,
  "graphy": 3108,
  "context": 3109,
  "ale": 3110,
  "don": 3111,
  "sau": 3112,
  "oogle": 3113,
  "docu": 3114,
  "Mindful": 3115,
  "sav": 3116,
  "month": 3117,
  "compreh": 3118,
  "dishes": 3119,
  "websites": 3120,
  "measure": 3121,
  "combination": 3122,
  "ok": 3123,
  "vehic": 3124,
  "doesn't": 3125,
  "consumers": 3126,
  "Identify": 3127,
  "crop": 3128,
  "ange": 3129,
  "tea": 3130,
  "consumption": 3131,
  "call": 3132,
  "inating": 3133,
  "stick": 3134,
  "posure": 3135,
  "discover": 3136,
  "receive": 3137,
  "Indi": 3138,
  "Google": 3139,
  "Another": 3140,
  "sibilities": 3141,
  "forest": 3142,
  "vulner": 3143,
  "holders": 3144,
  "cop": 3145,
  "offering": 3146,
  "condition": 3147,
  "centr": 3148,
  "confidence": 3149,
  "match": 3150,
  "writ": 3151,
  "oing": 3152,
  "frame": 3153,
  "cum": 3154,
  "ognitive": 3155,
  "Fr": 3156,
  "engaged": 3157,
  "productive": 3158,
  "Str": 3159,
  "reliable": 3160,
  "install": 3161,
  "scious": 3162,
  "dom": 3163,
  "therapist": 3164,
  "provider": 3165,
  "Mar": 3166,
  "Pre": 3167,
  "testing": 3168,
  "flexibility": 3169,
  "ython": 3170,
  "<|": 3171,
  "<|tab": 3172,
  "<|tab|": 3173,
  "mut": 3174,
  "write": 3175,
  "gency": 3176,
  "fied": 3177,
  "opinion": 3178,
  "larger": 3179,
  "sales": 3180,
  "advanced": 3181,
  "ck": 3182,
  "lifesty": 3183,
  "symbol": 3184,
  "transparency": 3185,
  "rain": 3186,
  "ls": 3187,
  "iction": 3188,
  "supply": 3189,
  "zed": 3190,
  "cribe": 3191,
  "ox": 3192,
  "ength": 3193,
  "plastic": 3194,
  "mechan": 3195,
  "mic": 3196,
  "oman": 3197,
  "beneficial": 3198,
  "designs": 3199,
  "exciting": 3200,
  "walk": 3201,
  "restaur": 3202,
  "Sm": 3203,
  "science": 3204,
  "actively": 3205,
  "connected": 3206,
  "ups": 3207,
  "minimize": 3208,
  "stake": 3209,
  "Rec": 3210,
  "topic": 3211,
  "Add": 3212,
  "ilies": 3213,
  "selec": 3214,
  "guided": 3215,
  "eating": 3216,
  "ica": 3217,
  "keeping": 3218,
  "glad": 3219,
  "conscious": 3220,
  "pep": 3221,
  "mosp": 3222,
  "Dis": 3223,
  "infrastructure": 3224,
  "material": 3225,
  "Seek": 3226,
  "authentic": 3227,
  "Afr": 3228,
  "shared": 3229,
  "Techn": 3230,
  "habits": 3231,
  "living": 3232,
  "required": 3233,
  "thetic": 3234,
  "days": 3235,
  "interact": 3236,
  "boost": 3237,
  "aca": 3238,
  "chann": 3239,
  "contribut": 3240,
  "interactive": 3241,
  "Sp": 3242,
  "neur": 3243,
  "tempor": 3244,
  "helped": 3245,
  "touch": 3246,
  "auty": 3247,
  "surance": 3248,
  "foli": 3249,
  "Inst": 3250,
  "icated": 3251,
  "dance": 3252,
  "screen": 3253,
  "analyze": 3254,
  "ior": 3255,
  "National": 3256,
  "fab": 3257,
  "patients": 3258,
  "row": 3259,
  "ju": 3260,
  "milk": 3261,
  "accept": 3262,
  "vest": 3263,
  "atmosp": 3264,
  "Bre": 3265,
  "adding": 3266,
  "reading": 3267,
  "dur": 3268,
  "chr": 3269,
  "eds": 3270,
  "expenses": 3271,
  "ware": 3272,
  "private": 3273,
  "sex": 3274,
  "lat": 3275,
  "delicious": 3276,
  "colleag": 3277,
  "posed": 3278,
  "offee": 3279,
  "concep": 3280,
  "iven": 3281,
  "focusing": 3282,
  "useful": 3283,
  "Ph": 3284,
  "season": 3285,
  "Eur": 3286,
  "fail": 3287,
  "stat": 3288,
  "animal": 3289,
  "threat": 3290,
  "Get": 3291,
  "inked": 3292,
  "preser": 3293,
  "lighting": 3294,
  "sole": 3295,
  "ongoing": 3296,
  "ned": 3297,
  "bor": 3298,
  "oosing": 3299,
  "helping": 3300,
  "commo": 3301,
  "cas": 3302,
  "aly": 3303,
  "choices": 3304,
  "mission": 3305,
  "verti": 3306,
  "Than": 3307,
  "trade": 3308,
  "deci": 3309,
  "iled": 3310,
  "flexible": 3311,
  "entially": 3312,
  "justice": 3313,
  "politi": 3314,
  "parties": 3315,
  "places": 3316,
  "meaningful": 3317,
  "struct": 3318,
  "pects": 3319,
  "giving": 3320,
  "sell": 3321,
  "atitude": 3322,
  "cling": 3323,
  "temperature": 3324,
  "aspects": 3325,
  "concept": 3326,
  "Finally": 3327,
  "green": 3328,
  "movie": 3329,
  "ulate": 3330,
  "single": 3331,
  "Expl": 3332,
  "exploring": 3333,
  "providers": 3334,
  "eces": 3335,
  "Moreover": 3336,
  "expensive": 3337,
  "road": 3338,
  "ff": 3339,
  "participate": 3340,
  "internet": 3341,
  "portive": 3342,
  "psy": 3343,
  "fruits": 3344,
  "achieving": 3345,
  "navigate": 3346,
  "Mon": 3347,
  "Ask": 3348,
  "civ": 3349,
  "families": 3350,
  "pollution": 3351,
  "paper": 3352,
  "generally": 3353,
  "ft": 3354,
  "practical": 3355,
  "syn": 3356,
  "ense": 3357,
  "growing": 3358,
  "grounds": 3359,
  "profit": 3360,
  "ference": 3361,
  "Regular": 3362,
  "poses": 3363,
  "AR": 3364,
  "broad": 3365,
  "moist": 3366,
  "struggle": 3367,
  "mood": 3368,
  "aid": 3369,
  "existing": 3370,
  "pieces": 3371,
  "evaluate": 3372,
  "connections": 3373,
  "ho": 3374,
  "advis": 3375,
  "aller": 3376,
  "feels": 3377,
  "temporary": 3378,
  "teachers": 3379,
  "pandemic": 3380,
  "supportive": 3381,
  "adoption": 3382,
  "little": 3383,
  "Europe": 3384,
  "frustrating": 3385,
  "lifestyle": 3386,
  "themes": 3387,
  "cognitive": 3388,
  "ient": 3389,
  "price": 3390,
  "met": 3391,
  "beauty": 3392,
  "length": 3393,
  "ix": 3394,
  "once": 3395,
  "solving": 3396,
  "distractions": 3397,
  "yond": 3398,
  "soft": 3399,
  "organic": 3400,
  "plans": 3401,
  "inf": 3402,
  "guide": 3403,
  "voice": 3404,
  "gradually": 3405,
  "acknow": 3406,
  "press": 3407,
  "surround": 3408,
  "immers": 3409,
  "tracking": 3410,
  "cript": 3411,
  "front": 3412,
  "foster": 3413,
  "antum": 3414,
  "Incre": 3415,
  "properly": 3416,
  "image": 3417,
  "constant": 3418,
  "gas": 3419,
  "inclusion": 3420,
  "playing": 3421,
  "And": 3422,
  "running": 3423,
  "feature": 3424,
  "images": 3425,
  "agriculture": 3426,
  "ech": 3427,
  "expression": 3428,
  "blog": 3429,
  "addressing": 3430,
  "ressive": 3431,
  "accountability": 3432,
  "egg": 3433,
  "independ": 3434,
  "party": 3435,
  "dates": 3436,
  "Li": 3437,
  "mitigate": 3438,
  "basic": 3439,
  "occur": 3440,
  "satisf": 3441,
  "princi": 3442,
  "mag": 3443,
  "respond": 3444,
  "comprehensive": 3445,
  "Pers": 3446,
  "improvement": 3447,
  "exposure": 3448,
  "decre": 3449,
  "supporting": 3450,
  "stakeholders": 3451,
  "meals": 3452,
  "widely": 3453,
  "ficial": 3454,
  "company's": 3455,
  "commer": 3456,
  "analytics": 3457,
  "Python": 3458,
  "eat": 3459,
  "reflect": 3460,
  "cooking": 3461,
  "classic": 3462,
  "workouts": 3463,
  "rein": 3464,
  "educational": 3465,
  "contact": 3466,
  "ava": 3467,
  "ading": 3468,
  "ible": 3469,
  "oyal": 3470,
  "Po": 3471,
  "storage": 3472,
  "Pol": 3473,
  "gard": 3474,
  "Govern": 3475,
  "Once": 3476,
  "cid": 3477,
  "Tim": 3478,
  "cut": 3479,
  "instance": 3480,
  "izz": 3481,
  "Further": 3482,
  "coffee": 3483,
  "house": 3484,
  "park": 3485,
  "icine": 3486,
  "ert": 3487,
  "you'll": 3488,
  "blood": 3489,
  "statement": 3490,
  "factor": 3491,
  "pie": 3492,
  "medit": 3493,
  "balanced": 3494,
  "manag": 3495,
  "discuss": 3496,
  "volunte": 3497,
  "extra": 3498,
  "stores": 3499,
  "valid": 3500,
  "Build": 3501,
  "Generate": 3502,
  "near": 3503,
  "Support": 3504,
  "determin": 3505,
  "ute": 3506,
  "oration": 3507,
  "farmers": 3508,
  "overs": 3509,
  "tension": 3510,
  "accuracy": 3511,
  "modif": 3512,
  "provided": 3513,
  "region": 3514,
  "ously": 3515,
  "potentially": 3516,
  "institu": 3517,
  "mistakes": 3518,
  "Using": 3519,
  "She": 3520,
  "enable": 3521,
  "attit": 3522,
  "bile": 3523,
  "itam": 3524,
  "hands": 3525,
  "agram": 3526,
  "counsel": 3527,
  "traditions": 3528,
  "satisfaction": 3529,
  "cel": 3530,
  "amm": 3531,
  "interpret": 3532,
  "mobile": 3533,
  "Plan": 3534,
  "monitoring": 3535,
  "confident": 3536,
  "least": 3537,
  "historical": 3538,
  "ified": 3539,
  "pite": 3540,
  "atmosphere": 3541,
  "players": 3542,
  "gi": 3543,
  "chick": 3544,
  "mass": 3545,
  "count": 3546,
  "genetic": 3547,
  "investors": 3548,
  "scale": 3549,
  "makers": 3550,
  "reasons": 3551,
  "univers": 3552,
  "remove": 3553,
  "significantly": 3554,
  "inks": 3555,
  "everything": 3556,
  "treatments": 3557,
  "ects": 3558,
  "weak": 3559,
  "iring": 3560,
  "parts": 3561,
  "conversations": 3562,
  "reason": 3563,
  "verage": 3564,
  "candid": 3565,
  "barri": 3566,
  "butter": 3567,
  "wonder": 3568,
  "meeting": 3569,
  "adverti": 3570,
  "discrimination": 3571,
  "experts": 3572,
  "beyond": 3573,
  "messages": 3574,
  "influenced": 3575,
  "fruit": 3576,
  "Vis": 3577,
  "sauce": 3578,
  "ulations": 3579,
  "super": 3580,
  "advantage": 3581,
  "Sim": 3582,
  "shift": 3583,
  "apan": 3584,
  "disease": 3585,
  "insurance": 3586,
  "Japan": 3587,
  "fasc": 3588,
  "Furthermore": 3589,
  "ries": 3590,
  "texture": 3591,
  "cash": 3592,
  "subject": 3593,
  "mat": 3594,
  "chat": 3595,
  "ends": 3596,
  "sume": 3597,
  "academ": 3598,
  "certific": 3599,
  "deal": 3600,
  "distri": 3601,
  "recognition": 3602,
  "accounts": 3603,
  "one's": 3604,
  "flav": 3605,
  "efore": 3606,
  "speech": 3607,
  "choosing": 3608,
  "ecosystems": 3609,
  "buil": 3610,
  "commitment": 3611,
  "spending": 3612,
  "incentives": 3613,
  "batter": 3614,
  "dial": 3615,
  "imag": 3616,
  "meat": 3617,
  "aves": 3618,
  "wildlife": 3619,
  "ove": 3620,
  "tiz": 3621,
  "entertain": 3622,
  "attract": 3623,
  "mit": 3624,
  "asp": 3625,
  "archit": 3626,
  "artificial": 3627,
  "bow": 3628,
  "affic": 3629,
  "vegan": 3630,
  "outh": 3631,
  "black": 3632,
  "interactions": 3633,
  "accommo": 3634,
  "loyal": 3635,
  "oce": 3636,
  "ished": 3637,
  "restr": 3638,
  "resistance": 3639,
  "burn": 3640,
  "Joh": 3641,
  "serious": 3642,
  "application": 3643,
  "path": 3644,
  "colleagues": 3645,
  "experienced": 3646,
  "transform": 3647,
  "illed": 3648,
  "utely": 3649,
  "olate": 3650,
  "technical": 3651,
  "venue": 3652,
  "memory": 3653,
  "ived": 3654,
  "uries": 3655,
  "ental": 3656,
  "solutely": 3657,
  "shops": 3658,
  "assistance": 3659,
  "caused": 3660,
  "tric": 3661,
  "ht": 3662,
  "driving": 3663,
  "aps": 3664,
  "Tw": 3665,
  "accompl": 3666,
  "muscles": 3667,
  "gratitude": 3668,
  "Ear": 3669,
  "trip": 3670,
  "encies": 3671,
  "12": 3672,
  "High": 3673,
  "box": 3674,
  "detect": 3675,
  "psych": 3676,
  "card": 3677,
  "Offer": 3678,
  "ought": 3679,
  "reward": 3680,
  "transi": 3681,
  "World": 3682,
  "vac": 3683,
  "iet": 3684,
  "Af": 3685,
  "turns": 3686,
  "directly": 3687,
  "actually": 3688,
  "cape": 3689,
  "depression": 3690,
  "hips": 3691,
  "white": 3692,
  "apply": 3693,
  "far": 3694,
  "behaviors": 3695,
  "programming": 3696,
  "called": 3697,
  "pet": 3698,
  "traffic": 3699,
  "young": 3700,
  "craf": 3701,
  "tire": 3702,
  "ictions": 3703,
  "ght": 3704,
  "injury": 3705,
  "feet": 3706,
  "My": 3707,
  "izes": 3708,
  "acing": 3709,
  "rules": 3710,
  "er's": 3711,
  "Health": 3712,
  "anger": 3713,
  "isms": 3714,
  "chec": 3715,
  "cities": 3716,
  "Collabor": 3717,
  "backgrounds": 3718,
  "tise": 3719,
  "Companies": 3720,
  "backs": 3721,
  "dog": 3722,
  "host": 3723,
  "streaming": 3724,
  "pursu": 3725,
  "comprom": 3726,
  "Qu": 3727,
  "maxim": 3728,
  "Person": 3729,
  "child's": 3730,
  "que": 3731,
  "introduc": 3732,
  "hind": 3733,
  "Cele": 3734,
  "ina": 3735,
  "purchase": 3736,
  "printing": 3737,
  "Celebr": 3738,
  "dark": 3739,
  "owners": 3740,
  "inations": 3741,
  "arily": 3742,
  "strengths": 3743,
  "property": 3744,
  "record": 3745,
  "TV": 3746,
  "dead": 3747,
  "distance": 3748,
  "film": 3749,
  "approaches": 3750,
  "citiz": 3751,
  "utili": 3752,
  "institutions": 3753,
  "dish": 3754,
  "appear": 3755,
  "expand": 3756,
  "ocolate": 3757,
  "aches": 3758,
  "device": 3759,
  "eases": 3760,
  "latest": 3761,
  "direc": 3762,
  "democr": 3763,
  "reputation": 3764,
  "tone": 3765,
  "pod": 3766,
  "regions": 3767,
  "interview": 3768,
  "explo": 3769,
  "Ab": 3770,
  "ogue": 3771,
  "fa": 3772,
  "mill": 3773,
  "fees": 3774,
  "continues": 3775,
  "expertise": 3776,
  "fascinating": 3777,
  "recipe": 3778,
  "usage": 3779,
  "BT": 3780,
  "resili": 3781,
  "sity": 3782,
  "chronic": 3783,
  "sides": 3784,
  "snack": 3785,
  "series": 3786,
  "diseases": 3787,
  "languages": 3788,
  "funds": 3789,
  "istr": 3790,
  "close": 3791,
  "algorithm": 3792,
  "designers": 3793,
  "transparent": 3794,
  "base": 3795,
  "background": 3796,
  "compon": 3797,
  "era": 3798,
  "Ne": 3799,
  "influencers": 3800,
  "orders": 3801,
  "disrup": 3802,
  "urn": 3803,
  "norms": 3804,
  "principles": 3805,
  "func": 3806,
  "ata": 3807,
  "Impro": 3808,
  "competition": 3809,
  "bing": 3810,
  "effect": 3811,
  "Ro": 3812,
  "roles": 3813,
  "Before": 3814,
  "oils": 3815,
  "cipl": 3816,
  "beginners": 3817,
  "suf": 3818,
  "otes": 3819,
  "extr": 3820,
  "raise": 3821,
  "eper": 3822,
  "Great": 3823,
  "details": 3824,
  "specifically": 3825,
  "played": 3826,
  "mindset": 3827,
  "blockchain": 3828,
  "dynam": 3829,
  "recovery": 3830,
  "root": 3831,
  "cris": 3832,
  "Car": 3833,
  "seeds": 3834,
  "compared": 3835,
  "hob": 3836,
  "Java": 3837,
  "ountain": 3838,
  "Instagram": 3839,
  "happy": 3840,
  "academic": 3841,
  "ays": 3842,
  "channels": 3843,
  "mas": 3844,
  "classroom": 3845,
  "fix": 3846,
  "suitable": 3847,
  "tow": 3848,
  "teams": 3849,
  "behind": 3850,
  "ined": 3851,
  "Me": 3852,
  "footprint": 3853,
  "migr": 3854,
  "affected": 3855,
  "civil": 3856,
  "prices": 3857,
  "speaking": 3858,
  "ification": 3859,
  "Gree": 3860,
  "Let": 3861,
  "glass": 3862,
  "cau": 3863,
  "beauti": 3864,
  "cuis": 3865,
  "discipl": 3866,
  "fes": 3867,
  "regardless": 3868,
  "Sec": 3869,
  "charge": 3870,
  "cars": 3871,
  "tourism": 3872,
  "robo": 3873,
  "swim": 3874,
  "enty": 3875,
  "Name": 3876,
  "enjoyable": 3877,
  "GP": 3878,
  "podcast": 3879,
  "tenance": 3880,
  "bell": 3881,
  "competitive": 3882,
  "walking": 3883,
  "piece": 3884,
  "SE": 3885,
  "spr": 3886,
  "flavors": 3887,
  "artist": 3888,
  "prepared": 3889,
  "transition": 3890,
  "gers": 3891,
  "cloud": 3892,
  "clos": 3893,
  "Ser": 3894,
  "graphics": 3895,
  "leadership": 3896,
  "Sy": 3897,
  "bread": 3898,
  "snacks": 3899,
  "rap": 3900,
  "quantum": 3901,
  "inflamm": 3902,
  "inate": 3903,
  "fits": 3904,
  "properties": 3905,
  "intensity": 3906,
  "stances": 3907,
  "saf": 3908,
  "gets": 3909,
  "ster": 3910,
  "shopping": 3911,
  "accomplish": 3912,
  "Sw": 3913,
  "processing": 3914,
  "personality": 3915,
  "cou": 3916,
  "document": 3917,
  "movies": 3918,
  "John": 3919,
  "Sometimes": 3920,
  "ird": 3921,
  "evolution": 3922,
  "calcul": 3923,
  "uly": 3924,
  "edom": 3925,
  "loved": 3926,
  "limitations": 3927,
  "exchange": 3928,
  "advent": 3929,
  "medicine": 3930,
  "vention": 3931,
  "operations": 3932,
  "sil": 3933,
  "lights": 3934,
  "repl": 3935,
  "jobs": 3936,
  "fields": 3937,
  "irr": 3938,
  "vehicles": 3939,
  "equal": 3940,
  "dou": 3941,
  "inde": 3942,
  "Art": 3943,
  "aced": 3944,
  "spend": 3945,
  "markets": 3946,
  "narr": 3947,
  "person's": 3948,
  "fraid": 3949,
  "immedi": 3950,
  "increasingly": 3951,
  "painting": 3952,
  "readers": 3953,
  "mentor": 3954,
  "Online": 3955,
  "Invest": 3956,
  "afraid": 3957,
  "inner": 3958,
  "mention": 3959,
  "plenty": 3960,
  "tut": 3961,
  "flu": 3962,
  "lu": 3963,
  "committed": 3964,
  "payment": 3965,
  "hood": 3966,
  "mel": 3967,
  "salt": 3968,
  "Face": 3969,
  "beautiful": 3970,
  "protecting": 3971,
  "Governments": 3972,
  "ills": 3973,
  "nuts": 3974,
  "icy": 3975,
  "retail": 3976,
  "settings": 3977,
  "Vir": 3978,
  "causes": 3979,
  "istics": 3980,
  "revenue": 3981,
  "networks": 3982,
  "arian": 3983,
  "deeper": 3984,
  "patience": 3985,
  "impl": 3986,
  "ads": 3987,
  "struggling": 3988,
  "wash": 3989,
  "telling": 3990,
  "ony": 3991,
  "atoes": 3992,
  "famous": 3993,
  "All": 3994,
  "wood": 3995,
  "outdoor": 3996,
  "cleaning": 3997,
  "meditations": 3998,
  "revol": 3999,
  "forcement": 4000,
  "bias": 4001,
  "wait": 4002,
  "cross": 4003,
  "ID": 4004,
  "myself": 4005,
  "After": 4006,
  "dialogue": 4007,
  "Inter": 4008,
  "Employ": 4009,
  "alone": 4010,
  "Fi": 4011,
  "inary": 4012,
  "remind": 4013,
  "leave": 4014,
  "trail": 4015,
  "fear": 4016,
  "reduced": 4017,
  "plays": 4018,
  "clar": 4019,
  "teaching": 4020,
  "immersive": 4021,
  "Tra": 4022,
  "drive": 4023,
  "alle": 4024,
  "said": 4025,
  "nutrients": 4026,
  "okay": 4027,
  "cient": 4028,
  "element": 4029,
  "novel": 4030,
  "hom": 4031,
  "etal": 4032,
  "filling": 4033,
  "atures": 4034,
  "left": 4035,
  "Mindfulness": 4036,
  "faster": 4037,
  "vitam": 4038,
  "aster": 4039,
  "graphic": 4040,
  "advantages": 4041,
  "War": 4042,
  "ows": 4043,
  "signs": 4044,
  "ene": 4045,
  "Organ": 4046,
  "dating": 4047,
  "Su": 4048,
  "promo": 4049,
  "maintenance": 4050,
  "CO": 4051,
  "rice": 4052,
  "objectives": 4053,
  "contains": 4054,
  "II": 4055,
  "zes": 4056,
  "successfully": 4057,
  "optimize": 4058,
  "voting": 4059,
  "Net": 4060,
  "standing": 4061,
  "trained": 4062,
  "causing": 4063,
  "convey": 4064,
  "squ": 4065,
  "technological": 4066,
  "claim": 4067,
  "architect": 4068,
  "ective": 4069,
  "ods": 4070,
  "strain": 4071,
  "disabilities": 4072,
  "becomes": 4073,
  "Mus": 4074,
  "ream": 4075,
  "previ": 4076,
  "Earth": 4077,
  "ato": 4078,
  "street": 4079,
  "voc": 4080,
  "concepts": 4081,
  "avoiding": 4082,
  "rics": 4083,
  "advertising": 4084,
  "chocolate": 4085,
  "separ": 4086,
  "networking": 4087,
  "embr": 4088,
  "sl": 4089,
  "nesses": 4090,
  "added": 4091,
  "release": 4092,
  "hiking": 4093,
  "Bl": 4094,
  "generated": 4095,
  "enhouse": 4096,
  "barriers": 4097,
  "facil": 4098,
  "reson": 4099,
  "Fol": 4100,
  "ado": 4101,
  "ooks": 4102,
  "investments": 4103,
  "leather": 4104,
  "Par": 4105,
  "ably": 4106,
  "ik": 4107,
  "adequ": 4108,
  "People": 4109,
  "creates": 4110,
  "Out": 4111,
  "happen": 4112,
  "African": 4113,
  "recipes": 4114,
  "depth": 4115,
  "metr": 4116,
  "computing": 4117,
  "truly": 4118,
  "tex": 4119,
  "strengthen": 4120,
  "commonly": 4121,
  "ots": 4122,
  "crow": 4123,
  "Engage": 4124,
  "cription": 4125,
  "Celebrate": 4126,
  "extre": 4127,
  "zz": 4128,
  "greenhouse": 4129,
  "tried": 4130,
  "App": 4131,
  "marginal": 4132,
  "circum": 4133,
  "inspiration": 4134,
  "freedom": 4135,
  "urban": 4136,
  "vot": 4137,
  "grain": 4138,
  "parent": 4139,
  "savings": 4140,
  "page": 4141,
  "cot": 4142,
  "Incorpor": 4143,
  "lean": 4144,
  "environments": 4145,
  "believ": 4146,
  "drug": 4147,
  "Est": 4148,
  "Design": 4149,
  "div": 4150,
  "gest": 4151,
  "18": 4152,
  "stronger": 4153,
  "they're": 4154,
  "ocean": 4155,
  "000": 4156,
  "Share": 4157,
  "responses": 4158,
  "ky": 4159,
  "Tu": 4160,
  "utr": 4161,
  "letes": 4162,
  "marine": 4163,
  "Sur": 4164,
  "emergency": 4165,
  "instru": 4166,
  "cuisine": 4167,
  "blue": 4168,
  "regulatory": 4169,
  "bath": 4170,
  "Listen": 4171,
  "phr": 4172,
  "arts": 4173,
  "Nor": 4174,
  "constantly": 4175,
  "objects": 4176,
  "clients": 4177,
  "ais": 4178,
  "ino": 4179,
  "revolution": 4180,
  "Linked": 4181,
  "scr": 4182,
  "creation": 4183,
  "brid": 4184,
  "fans": 4185,
  "cultiv": 4186,
  "later": 4187,
  "ternal": 4188,
  "came": 4189,
  "mark": 4190,
  "Learning": 4191,
  "alse": 4192,
  "updates": 4193,
  "encouraging": 4194,
  "cancer": 4195,
  "suit": 4196,
  "presence": 4197,
  "organized": 4198,
  "ades": 4199,
  "spaces": 4200,
  "duces": 4201,
  "pepper": 4202,
  "ian": 4203,
  "cohol": 4204,
  "parenting": 4205,
  "Park": 4206,
  "transl": 4207,
  "Apple": 4208,
  "tirement": 4209,
  "contrast": 4210,
  "ahead": 4211,
  "andom": 4212,
  "LE": 4213,
  "five": 4214,
  "py": 4215,
  "lets": 4216,
  "stop": 4217,
  "followers": 4218,
  "wall": 4219,
  "fire": 4220,
  "pic": 4221,
  "societal": 4222,
  "plements": 4223,
  "immun": 4224,
  "normal": 4225,
  "ann": 4226,
  "achievable": 4227,
  "UR": 4228,
  "rent": 4229,
  "Cal": 4230,
  "adopt": 4231,
  "Taking": 4232,
  "Cont": 4233,
  "alternatives": 4234,
  "25": 4235,
  "switch": 4236,
  "session": 4237,
  "wider": 4238,
  "manner": 4239,
  "Go": 4240,
  "berries": 4241,
  "gather": 4242,
  "humor": 4243,
  "Even": 4244,
  "gentle": 4245,
  "Thanks": 4246,
  "literature": 4247,
  "moving": 4248,
  "thor": 4249,
  "Prior": 4250,
  "Establish": 4251,
  "consumer": 4252,
  "healthier": 4253,
  "Why": 4254,
  "allowed": 4255,
  "capable": 4256,
  "dle": 4257,
  "clothes": 4258,
  "ception": 4259,
  "repe": 4260,
  "LinkedIn": 4261,
  "drink": 4262,
  "Facebook": 4263,
  "overwhelmed": 4264,
  "udes": 4265,
  "engineering": 4266,
  "conduct": 4267,
  "showcase": 4268,
  "journal": 4269,
  "susp": 4270,
  "second": 4271,
  "len": 4272,
  "chem": 4273,
  "fat": 4274,
  "criticis": 4275,
  "certainly": 4276,
  "YouTu": 4277,
  "Lim": 4278,
  "states": 4279,
  "entertainment": 4280,
  "stim": 4281,
  "staff": 4282,
  "desired": 4283,
  "farming": 4284,
  "ishing": 4285,
  "built": 4286,
  "attend": 4287,
  "diag": 4288,
  "resolution": 4289,
  "zon": 4290,
  "solve": 4291,
  "Education": 4292,
  "ogurt": 4293,
  "periods": 4294,
  "Technology": 4295,
  "ike": 4296,
  "ides": 4297,
  "powder": 4298,
  "lock": 4299,
  "Ste": 4300,
  "fig": 4301,
  "stability": 4302,
  "cryp": 4303,
  "demonstrate": 4304,
  "medication": 4305,
  "assi": 4306,
  "discussions": 4307,
  "there's": 4308,
  "sid": 4309,
  "Per": 4310,
  "proced": 4311,
  "mentioned": 4312,
  "inequality": 4313,
  "checking": 4314,
  "considering": 4315,
  "resource": 4316,
  "celebrate": 4317,
  "ises": 4318,
  "tough": 4319,
  "amounts": 4320,
  "juice": 4321,
  "intended": 4322,
  "surface": 4323,
  "bullying": 4324,
  "Mix": 4325,
  "hydrated": 4326,
  "eyes": 4327,
  "lasting": 4328,
  "circumstances": 4329,
  "audiences": 4330,
  "NA": 4331,
  "unexpected": 4332,
  "goes": 4333,
  "distribu": 4334,
  "individual's": 4335,
  "retirement": 4336,
  "lap": 4337,
  "employers": 4338,
  "rewards": 4339,
  "capture": 4340,
  "established": 4341,
  "preventing": 4342,
  "capital": 4343,
  "Analy": 4344,
  "chicken": 4345,
  "acknowledge": 4346,
  "trend": 4347,
  "gation": 4348,
  "breaking": 4349,
  "debt": 4350,
  "Under": 4351,
  "temp": 4352,
  "stretching": 4353,
  "file": 4354,
  "suppl": 4355,
  "arise": 4356,
  "Follow": 4357,
  "toler": 4358,
  "collaborate": 4359,
  "phil": 4360,
  "inspire": 4361,
  "manufacturing": 4362,
  "Ren": 4363,
  "responsibilities": 4364,
  "ceed": 4365,
  "Emp": 4366,
  "uals": 4367,
  "memor": 4368,
  "amp": 4369,
  "office": 4370,
  "him": 4371,
  "stage": 4372,
  "faced": 4373,
  "wel": 4374,
  "numer": 4375,
  "ower": 4376,
  "iel": 4377,
  "planet": 4378,
  "ideal": 4379,
  "ites": 4380,
  "ither": 4381,
  "representation": 4382,
  "loyalty": 4383,
  "garlic": 4384,
  "sivity": 4385,
  "giveness": 4386,
  "experiencing": 4387,
  "Ama": 4388,
  "clo": 4389,
  "contemporary": 4390,
  "tical": 4391,
  "regarding": 4392,
  "returns": 4393,
  "availability": 4394,
  "cled": 4395,
  "Can't": 4396,
  "counts": 4397,
  "violence": 4398,
  "simply": 4399,
  "equality": 4400,
  "icating": 4401,
  "marginalized": 4402,
  "hun": 4403,
  "oral": 4404,
  "osop": 4405,
  "Virtual": 4406,
  "11": 4407,
  "powered": 4408,
  "intage": 4409,
  "primary": 4410,
  "wed": 4411,
  "sea": 4412,
  "excl": 4413,
  "accordingly": 4414,
  "Data": 4415,
  "sexual": 4416,
  "overwhelming": 4417,
  "efficiently": 4418,
  "diagno": 4419,
  "surve": 4420,
  "ewel": 4421,
  "vital": 4422,
  "agon": 4423,
  "status": 4424,
  "mutual": 4425,
  "Explain": 4426,
  "survi": 4427,
  "athletes": 4428,
  "preneur": 4429,
  "researchers": 4430,
  "icing": 4431,
  "tutor": 4432,
  "guar": 4433,
  "meetings": 4434,
  "supplements": 4435,
  "Bus": 4436,
  "inspired": 4437,
  "Dif": 4438,
  "beach": 4439,
  "cardio": 4440,
  "stock": 4441,
  "enter": 4442,
  "ga": 4443,
  "fuel": 4444,
  "alcohol": 4445,
  "Inte": 4446,
  "cise": 4447,
  "Prioriti": 4448,
  "Sal": 4449,
  "valued": 4450,
  "Resp": 4451,
  "ork": 4452,
  "Amazon": 4453,
  "Work": 4454,
  "URL": 4455,
  "buying": 4456,
  "workshops": 4457,
  "crops": 4458,
  "emerging": 4459,
  "Dep": 4460,
  "beginner": 4461,
  "Yoga": 4462,
  "editing": 4463,
  "Just": 4464,
  "manip": 4465,
  "band": 4466,
  "sand": 4467,
  "implications": 4468,
  "Absolutely": 4469,
  "metrics": 4470,
  "citizens": 4471,
  "ane": 4472,
  "serving": 4473,
  "Gu": 4474,
  "operation": 4475,
  "passion": 4476,
  "pun": 4477,
  "shaping": 4478,
  "50": 4479,
  "ancy": 4480,
  "injuries": 4481,
  "you've": 4482,
  "candidates": 4483,
  "popularity": 4484,
  "Pay": 4485,
  "identifying": 4486,
  "tailed": 4487,
  "complement": 4488,
  "vere": 4489,
  "Har": 4490,
  "harass": 4491,
  "Greek": 4492,
  "Redu": 4493,
  "original": 4494,
  "anch": 4495,
  "earth": 4496,
  "decl": 4497,
  "mid": 4498,
  "underlying": 4499,
  "oke": 4500,
  "100": 4501,
  "eties": 4502,
  "Personal": 4503,
  "YouTube": 4504,
  "environmentally": 4505,
  "assign": 4506,
  "phones": 4507,
  "equitable": 4508,
  "unning": 4509,
  "generations": 4510,
  "score": 4511,
  "fabric": 4512,
  "portfoli": 4513,
  "Tal": 4514,
  "itter": 4515,
  "emotion": 4516,
  "constructive": 4517,
  "ships": 4518,
  "gree": 4519,
  "elim": 4520,
  "brush": 4521,
  "attacks": 4522,
  "bright": 4523,
  "outfit": 4524,
  "output": 4525,
  "cells": 4526,
  "ancient": 4527,
  "exec": 4528,
  "detailed": 4529,
  "jum": 4530,
  "Prom": 4531,
  "coverage": 4532,
  "posts": 4533,
  "forget": 4534,
  "photos": 4535,
  "dedicated": 4536,
  "rac": 4537,
  "recor": 4538,
  "intim": 4539,
  "Enjoy": 4540,
  "implementation": 4541,
  "burnout": 4542,
  "carry": 4543,
  "resilience": 4544,
  "structures": 4545,
  "Ensure": 4546,
  "population": 4547,
  "articles": 4548,
  "conut": 4549,
  "independent": 4550,
  "genous": 4551,
  "ring": 4552,
  "construction": 4553,
  "neutr": 4554,
  "icians": 4555,
  "dealing": 4556,
  "regulation": 4557,
  "jewel": 4558,
  "ubl": 4559,
  "object": 4560,
  "counter": 4561,
  "Also": 4562,
  "criticism": 4563,
  "heavily": 4564,
  "rench": 4565,
  "restaurants": 4566,
  "rough": 4567,
  "kets": 4568,
  "acity": 4569,
  "Business": 4570,
  "Describe": 4571,
  "philosop": 4572,
  "genu": 4573,
  "politics": 4574,
  "wearing": 4575,
  "statements": 4576,
  "Di": 4577,
  "deliver": 4578,
  "accommod": 4579,
  "pread": 4580,
  "Reduc": 4581,
  "Exercis": 4582,
  "parks": 4583,
  "Show": 4584,
  "tox": 4585,
  "vast": 4586,
  "automation": 4587,
  "Provi": 4588,
  "club": 4589,
  "focuses": 4590,
  "entre": 4591,
  "soon": 4592,
  "immune": 4593,
  "Fe": 4594,
  "death": 4595,
  "bags": 4596,
  "decide": 4597,
  "agreement": 4598,
  "Exper": 4599,
  "Hum": 4600,
  "wrong": 4601,
  "Black": 4602,
  "bag": 4603,
  "resulting": 4604,
  "bold": 4605,
  "Cr": 4606,
  "Time": 4607,
  "developers": 4608,
  "exploration": 4609,
  "Cult": 4610,
  "objective": 4611,
  "argue": 4612,
  "itor": 4613,
  "either": 4614,
  "collection": 4615,
  "item": 4616,
  "considerations": 4617,
  "agencies": 4618,
  "prepar": 4619,
  "recycled": 4620,
  "asted": 4621,
  "hesitate": 4622,
  "kindness": 4623,
  "curious": 4624,
  "Give": 4625,
  "anyone": 4626,
  "sam": 4627,
  "habitats": 4628,
  "won't": 4629,
  "contributions": 4630,
  "destination": 4631,
  "cards": 4632,
  "zer": 4633,
  "sures": 4634,
  "Gl": 4635,
  "honey": 4636,
  "catch": 4637,
  "frequency": 4638,
  "compromise": 4639,
  "fiber": 4640,
  "architecture": 4641,
  "Which": 4642,
  "biodiversity": 4643,
  "central": 4644,
  "Increased": 4645,
  "held": 4646,
  "Hell": 4647,
  "eral": 4648,
  "td": 4649,
  "inated": 4650,
  "inclusivity": 4651,
  "interaction": 4652,
  "oor": 4653,
  "served": 4654,
  "evolve": 4655,
  "vintage": 4656,
  "messaging": 4657,
  "firm": 4658,
  "absor": 4659,
  "ocado": 4660,
  "ibility": 4661,
  "understandable": 4662,
  "Intern": 4663,
  "sour": 4664,
  "battery": 4665,
  "random": 4666,
  "Any": 4667,
  "yogurt": 4668,
  "people's": 4669,
  "differ": 4670,
  "String": 4671,
  "bank": 4672,
  "inal": 4673,
  "written": 4674,
  "minded": 4675,
  "Loc": 4676,
  "wealth": 4677,
  "talent": 4678,
  "libr": 4679,
  "genres": 4680,
  "frequently": 4681,
  "oty": 4682,
  "judgment": 4683,
  "refer": 4684,
  "persist": 4685,
  "acqu": 4686,
  "quiet": 4687,
  "Water": 4688,
  "buildings": 4689,
  "saying": 4690,
  "reputable": 4691,
  "tro": 4692,
  "accessibility": 4693,
  "tree": 4694,
  "limits": 4695,
  "uni": 4696,
  "watching": 4697,
  "Similar": 4698,
  "td>": 4699,
  "cold": 4700,
  "ised": 4701,
  "CT": 4702,
  "irst": 4703,
  "eventually": 4704,
  "stra": 4705,
  "usive": 4706,
  "garden": 4707,
  "itary": 4708,
  "religion": 4709,
  "distract": 4710,
  "Open": 4711,
  "rapid": 4712,
  "French": 4713,
  "attitudes": 4714,
  "reflection": 4715,
  "uth": 4716,
  "packaging": 4717,
  "priorities": 4718,
  "Ger": 4719,
  "Attend": 4720,
  "Teach": 4721,
  "tailored": 4722,
  "Io": 4723,
  "incredi": 4724,
  "consistency": 4725,
  "yet": 4726,
  "elling": 4727,
  "consistently": 4728,
  "studying": 4729,
  "Learn": 4730,
  "inflammation": 4731,
  "birth": 4732,
  "reaching": 4733,
  "join": 4734,
  "accep": 4735,
  "attending": 4736,
  "almon": 4737,
  "landscape": 4738,
  "above": 4739,
  "izations": 4740,
  "finance": 4741,
  "holding": 4742,
  "vulnerable": 4743,
  "jective": 4744,
  "bacter": 4745,
  "IoT": 4746,
  "jewelry": 4747,
  "electricity": 4748,
  "RO": 4749,
  "eggs": 4750,
  "dess": 4751,
  "collect": 4752,
  "Given": 4753,
  "accurately": 4754,
  "aspect": 4755,
  "purchasing": 4756,
  "suits": 4757,
  "morning": 4758,
  "Reduce": 4759,
  "ML": 4760,
  "impacted": 4761,
  "entrepreneur": 4762,
  "populations": 4763,
  "facing": 4764,
  "fats": 4765,
  "race": 4766,
  "angle": 4767,
  "harassment": 4768,
  "layer": 4769,
  "changed": 4770,
  "motivate": 4771,
  "concern": 4772,
  "noise": 4773,
  "apart": 4774,
  "chemic": 4775,
  "financing": 4776,
  "LG": 4777,
  "iliar": 4778,
  "thorough": 4779,
  "commerce": 4780,
  "chemicals": 4781,
  "four": 4782,
  "tian": 4783,
  "ni": 4784,
  "vered": 4785,
  "200": 4786,
  "ggest": 4787,
  "adequate": 4788,
  "third": 4789,
  "danger": 4790,
  "ief": 4791,
  "sac": 4792,
  "fund": 4793,
  "proto": 4794,
  "encourages": 4795,
  "storytelling": 4796,
  "Each": 4797,
  "century": 4798,
  "reoty": 4799,
  "teacher": 4800,
  "numerous": 4801,
  "micro": 4802,
  "label": 4803,
  "wellness": 4804,
  "consuming": 4805,
  "participation": 4806,
  "portfolio": 4807,
  "homes": 4808,
  "ellow": 4809,
  "intu": 4810,
  "Implement": 4811,
  "drinks": 4812,
  "goods": 4813,
  "cks": 4814,
  "International": 4815,
  "Air": 4816,
  "'ll": 4817,
  "bloc": 4818,
  "sus": 4819,
  "bad": 4820,
  "shel": 4821,
  "LGBT": 4822,
  "manufacture": 4823,
  "kne": 4824,
  "tacti": 4825,
  "breakfast": 4826,
  "bies": 4827,
  "asking": 4828,
  "Twitter": 4829,
  "entire": 4830,
  "chance": 4831,
  "transfer": 4832,
  "loan": 4833,
  "affir": 4834,
  "mountain": 4835,
  "employment": 4836,
  "herbs": 4837,
  "este": 4838,
  "concentr": 4839,
  "baking": 4840,
  "beans": 4841,
  "months": 4842,
  "Cus": 4843,
  "ults": 4844,
  "pace": 4845,
  "fraud": 4846,
  "total": 4847,
  "slowly": 4848,
  "Bi": 4849,
  "Play": 4850,
  "decrease": 4851,
  "obtain": 4852,
  "formal": 4853,
  "paid": 4854,
  "Gre": 4855,
  "onto": 4856,
  "cycle": 4857,
  "artic": 4858,
  "refresh": 4859,
  "spices": 4860,
  "currently": 4861,
  "May": 4862,
  "reduction": 4863,
  "coord": 4864,
  "neutral": 4865,
  "tore": 4866,
  "Train": 4867,
  "cat": 4868,
  "procedures": 4869,
  "trees": 4870,
  "payments": 4871,
  "vation": 4872,
  "bringing": 4873,
  "lip": 4874,
  "advisor": 4875,
  "learners": 4876,
  "analyzing": 4877,
  "late": 4878,
  "shor": 4879,
  "external": 4880,
  "poon": 4881,
  "assum": 4882,
  "promotes": 4883,
  "Could": 4884,
  "Ve": 4885,
  "severe": 4886,
  "hiring": 4887,
  "lease": 4888,
  "scientists": 4889,
  "forgiveness": 4890,
  "threats": 4891,
  "tified": 4892,
  "surrounding": 4893,
  "Sol": 4894,
  "compost": 4895,
  "Communication": 4896,
  "seconds": 4897,
  "emphasis": 4898,
  "delivery": 4899,
  "Bud": 4900,
  "jac": 4901,
  "counseling": 4902,
  "Prioritize": 4903,
  "hasht": 4904,
  "earli": 4905,
  "bes": 4906,
  "located": 4907,
  "urally": 4908,
  "stac": 4909,
  "participants": 4910,
  "retention": 4911,
  "autonom": 4912,
  "visitors": 4913,
  "currency": 4914,
  "First": 4915,
  "worry": 4916,
  "ank": 4917,
  "hal": 4918,
  "trigg": 4919,
  "straight": 4920,
  "applying": 4921,
  "combat": 4922,
  "Rel": 4923,
  "despite": 4924,
  "consume": 4925,
  "compati": 4926,
  "insight": 4927,
  "prints": 4928,
  "esteem": 4929,
  "ny": 4930,
  "managers": 4931,
  "scul": 4932,
  "careful": 4933,
  "everyday": 4934,
  "guess": 4935,
  "Def": 4936,
  "South": 4937,
  "Mex": 4938,
  "remains": 4939,
  "tables": 4940,
  "machines": 4941,
  "brown": 4942,
  "writers": 4943,
  "regulate": 4944,
  "bab": 4945,
  "continued": 4946,
  "busy": 4947,
  "geting": 4948,
  "Other": 4949,
  "drop": 4950,
  "foreign": 4951,
  "profile": 4952,
  "qualities": 4953,
  "miss": 4954,
  "capacity": 4955,
  "wine": 4956,
  "win": 4957,
  "bike": 4958,
  "Coun": 4959,
  "didn't": 4960,
  "Having": 4961,
  "Exercise": 4962,
  "ried": 4963,
  "policymakers": 4964,
  "Custom": 4965,
  "thes": 4966,
  "disorders": 4967,
  "adventure": 4968,
  "preference": 4969,
  "perce": 4970,
  "songs": 4971,
  "false": 4972,
  "covered": 4973,
  "obstac": 4974,
  "restaurant": 4975,
  "Bar": 4976,
  "electronic": 4977,
  "olive": 4978,
  "deeply": 4979,
  "Best": 4980,
  "Main": 4981,
  "heavy": 4982,
  "clearly": 4983,
  "flour": 4984,
  "stract": 4985,
  "vism": 4986,
  "cate": 4987,
  "iance": 4988,
  "othing": 4989,
  "ai": 4990,
  "stereoty": 4991,
  "biased": 4992,
  "paying": 4993,
  "relying": 4994,
  "demonstr": 4995,
  "exten": 4996,
  "appreciation": 4997,
  "nan": 4998,
  "familiar": 4999,
  "necessarily": 5000,
  "prioritizing": 5001,
  "Vol": 5002,
  "positions": 5003,
  "Visual": 5004,
  "exces": 5005,
  "HT": 5006,
  "notes": 5007,
  "loop": 5008,
  "assessments": 5009,
  "locations": 5010,
  "lost": 5011,
  "doctor": 5012,
  "Break": 5013,
  "usable": 5014,
  "calming": 5015,
  "center": 5016,
  "Being": 5017,
  "isol": 5018,
  "scar": 5019,
  "complexity": 5020,
  "allerg": 5021,
  "final": 5022,
  "origin": 5023,
  "profits": 5024,
  "wet": 5025,
  "theme": 5026,
  "aders": 5027,
  "reporting": 5028,
  "moisture": 5029,
  "forestation": 5030,
  "believed": 5031,
  "improvements": 5032,
  "nergy": 5033,
  "craft": 5034,
  "rock": 5035,
  "tech": 5036,
  "memorable": 5037,
  "vegg": 5038,
  "errors": 5039,
  "wise": 5040,
  "driven": 5041,
  "ublic": 5042,
  "comed": 5043,
  "broader": 5044,
  "relaxing": 5045,
  "Experiment": 5046,
  "corrup": 5047,
  "bowl": 5048,
  "decor": 5049,
  "America": 5050,
  "tele": 5051,
  "teen": 5052,
  "Part": 5053,
  "repair": 5054,
  "During": 5055,
  "nic": 5056,
  "pricing": 5057,
  "pat": 5058,
  "hous": 5059,
  "Their": 5060,
  "dia": 5061,
  "comments": 5062,
  "achieved": 5063,
  "leads": 5064,
  "ossil": 5065,
  "direction": 5066,
  "theory": 5067,
  "rit": 5068,
  "version": 5069,
  "hobbies": 5070,
  "Energy": 5071,
  "targeted": 5072,
  "lose": 5073,
  "talking": 5074,
  "compe": 5075,
  "stunning": 5076,
  "arrange": 5077,
  "Up": 5078,
  "components": 5079,
  "facts": 5080,
  "discipline": 5081,
  "filter": 5082,
  "understandings": 5083,
  "tours": 5084,
  "password": 5085,
  "produced": 5086,
  "je": 5087,
  "Script": 5088,
  "achievements": 5089,
  "ume": 5090,
  "weigh": 5091,
  "Revolution": 5092,
  "scenari": 5093,
  "mechanisms": 5094,
  "isn't": 5095,
  "collaborative": 5096,
  "societies": 5097,
  "pul": 5098,
  "abuse": 5099,
  "Mic": 5100,
  "truth": 5101,
  "salad": 5102,
  "Hello": 5103,
  "earlier": 5104,
  "moral": 5105,
  "subjective": 5106,
  "remed": 5107,
  "stitute": 5108,
  "tutorials": 5109,
  "artistic": 5110,
  "dream": 5111,
  "poor": 5112,
  "letter": 5113,
  "proof": 5114,
  "sky": 5115,
  "cidents": 5116,
  "Similarly": 5117,
  "hydration": 5118,
  "Trans": 5119,
  "URL>": 5120,
  "sho": 5121,
  "Sust": 5122,
  "Sustain": 5123,
  "<URL>": 5124,
  "ison": 5125,
  "degrad": 5126,
  "viewers": 5127,
  "significance": 5128,
  "willingness": 5129,
  "ER": 5130,
  "medications": 5131,
  "ections": 5132,
  "rooms": 5133,
  "average": 5134,
  "outcome": 5135,
  "acid": 5136,
  "aligns": 5137,
  "16": 5138,
  "rs": 5139,
  "panels": 5140,
  "swimming": 5141,
  "upon": 5142,
  "hop": 5143,
  "appearance": 5144,
  "gear": 5145,
  "dated": 5146,
  "vert": 5147,
  "faces": 5148,
  "affirm": 5149,
  "possibilities": 5150,
  "Op": 5151,
  "advocacy": 5152,
  "selection": 5153,
  "player": 5154,
  "tivals": 5155,
  "simpl": 5156,
  "purposes": 5157,
  "crypto": 5158,
  "chances": 5159,
  "lighten": 5160,
  "Engl": 5161,
  "solely": 5162,
  "intake": 5163,
  "Japanese": 5164,
  "invent": 5165,
  "makeup": 5166,
  "lightly": 5167,
  "performances": 5168,
  "colon": 5169,
  "17": 5170,
  "Wear": 5171,
  "caf": 5172,
  "muse": 5173,
  "ecosystem": 5174,
  "ames": 5175,
  "discussion": 5176,
  "cybersecurity": 5177,
  "pool": 5178,
  "peaceful": 5179,
  "traits": 5180,
  "activism": 5181,
  "learned": 5182,
  "Wal": 5183,
  "artwork": 5184,
  "tests": 5185,
  "section": 5186,
  "rot": 5187,
  "ogen": 5188,
  "lists": 5189,
  "convenient": 5190,
  "Music": 5191,
  "specialized": 5192,
  "subs": 5193,
  "apple": 5194,
  "addiction": 5195,
  "medium": 5196,
  "title": 5197,
  "previous": 5198,
  "fight": 5199,
  "Her": 5200,
  "resistant": 5201,
  "military": 5202,
  "God": 5203,
  "capabilities": 5204,
  "Lack": 5205,
  "oven": 5206,
  "Manage": 5207,
  "extreme": 5208,
  "notice": 5209,
  "ee": 5210,
  "fossil": 5211,
  "discour": 5212,
  "retain": 5213,
  "trading": 5214,
  "filled": 5215,
  "negatively": 5216,
  "estern": 5217,
  "blend": 5218,
  "operating": 5219,
  "Providing": 5220,
  "gue": 5221,
  "discomfort": 5222,
  "cow": 5223,
  "Sk": 5224,
  "assessment": 5225,
  "query": 5226,
  "successes": 5227,
  "cope": 5228,
  "forecast": 5229,
  "lon": 5230,
  "Min": 5231,
  "Always": 5232,
  "deadlines": 5233,
  "sizes": 5234,
  "actors": 5235,
  "wellbeing": 5236,
  "Stud": 5237,
  "omantic": 5238,
  "destinations": 5239,
  "interrup": 5240,
  "formation": 5241,
  "itself": 5242,
  "traveling": 5243,
  "afood": 5244,
  "encoun": 5245,
  "equity": 5246,
  "tray": 5247,
  "estim": 5248,
  "became": 5249,
  "shir": 5250,
  "leader": 5251,
  "reef": 5252,
  "arms": 5253,
  "pregn": 5254,
  "format": 5255,
  "emails": 5256,
  "assets": 5257,
  "usi": 5258,
  "faith": 5259,
  "JavaScript": 5260,
  "Every": 5261,
  "edge": 5262,
  "temperatures": 5263,
  "communicating": 5264,
  "ker": 5265,
  "grand": 5266,
  "educate": 5267,
  "corporations": 5268,
  "leaves": 5269,
  "transactions": 5270,
  "entirely": 5271,
  "Building": 5272,
  "misunderstandings": 5273,
  "visually": 5274,
  "genre": 5275,
  "coral": 5276,
  "offici": 5277,
  "Clim": 5278,
  "addressed": 5279,
  "festivals": 5280,
  "advocate": 5281,
  "yiel": 5282,
  "peak": 5283,
  "Dec": 5284,
  "gating": 5285,
  "ifying": 5286,
  "Read": 5287,
  "duration": 5288,
  "sector": 5289,
  "chol": 5290,
  "coconut": 5291,
  "Improved": 5292,
  "partnerships": 5293,
  "asset": 5294,
  "degree": 5295,
  "organize": 5296,
  "Asi": 5297,
  "guides": 5298,
  "supports": 5299,
  "bly": 5300,
  "coping": 5301,
  "lemon": 5302,
  "minimal": 5303,
  "Ge": 5304,
  "roll": 5305,
  "Ed": 5306,
  "Communicate": 5307,
  "verbal": 5308,
  "scene": 5309,
  "indi": 5310,
  "CS": 5311,
  "dynamic": 5312,
  "mes": 5313,
  "fan": 5314,
  "seeing": 5315,
  "depart": 5316,
  "nia": 5317,
  "motion": 5318,
  "poly": 5319,
  "14": 5320,
  "abstract": 5321,
  "dressing": 5322,
  "System": 5323,
  "appoint": 5324,
  "distribution": 5325,
  "universe": 5326,
  "trusted": 5327,
  "visualization": 5328,
  "suns": 5329,
  "lux": 5330,
  "VID": 5331,
  "other's": 5332,
  "failure": 5333,
  "aes": 5334,
  "QL": 5335,
  "Sci": 5336,
  "personally": 5337,
  "summer": 5338,
  "bodies": 5339,
  "avocado": 5340,
  "Child": 5341,
  "mask": 5342,
  "European": 5343,
  "cycling": 5344,
  "fabrics": 5345,
  "map": 5346,
  "solid": 5347,
  "couples": 5348,
  "adults": 5349,
  "unders": 5350,
  "happiness": 5351,
  "Join": 5352,
  "York": 5353,
  "datab": 5354,
  "unc": 5355,
  "ometric": 5356,
  "mixture": 5357,
  "intense": 5358,
  "China": 5359,
  "salary": 5360,
  "stereotypes": 5361,
  "accessories": 5362,
  "facilitate": 5363,
  "vesti": 5364,
  "vic": 5365,
  "Encouraging": 5366,
  "breaths": 5367,
  "priority": 5368,
  "fiction": 5369,
  "asy": 5370,
  "foundation": 5371,
  "Prot": 5372,
  "teas": 5373,
  "pick": 5374,
  "interven": 5375,
  "nutrient": 5376,
  "grass": 5377,
  "fed": 5378,
  "scan": 5379,
  "India": 5380,
  "occas": 5381,
  "School": 5382,
  "proactive": 5383,
  "Wi": 5384,
  "sensors": 5385,
  "augment": 5386,
  "expressing": 5387,
  "ives": 5388,
  "Through": 5389,
  "stable": 5390,
  "ante": 5391,
  "healing": 5392,
  "abling": 5393,
  "article": 5394,
  "cyberbullying": 5395,
  "Here's": 5396,
  "rid": 5397,
  "excessive": 5398,
  "cryption": 5399,
  "appealing": 5400,
  "gold": 5401,
  "democratic": 5402,
  "difficulty": 5403,
  "cooked": 5404,
  "zy": 5405,
  "atile": 5406,
  "allevi": 5407,
  "wides": 5408,
  "seafood": 5409,
  "Self": 5410,
  "VP": 5411,
  "fuels": 5412,
  "manager": 5413,
  "remedies": 5414,
  "musical": 5415,
  "izza": 5416,
  "widespread": 5417,
  "pitch": 5418,
  "religions": 5419,
  "taxes": 5420,
  "eli": 5421,
  "noting": 5422,
  "agreements": 5423,
  "recru": 5424,
  "generation": 5425,
  "pasta": 5426,
  "performing": 5427,
  "travelers": 5428,
  "reduces": 5429,
  "Industr": 5430,
  "recycling": 5431,
  "Hy": 5432,
  "veggies": 5433,
  "Differen": 5434,
  "audio": 5435,
  "pray": 5436,
  "succeed": 5437,
  "lessons": 5438,
  "officials": 5439,
  "trol": 5440,
  "worked": 5441,
  "cultivate": 5442,
  "select": 5443,
  "iversity": 5444,
  "agg": 5445,
  "cater": 5446,
  "hurt": 5447,
  "Cultural": 5448,
  "vous": 5449,
  "coach": 5450,
  "highlight": 5451,
  "exact": 5452,
  "Program": 5453,
  "dough": 5454,
  "wish": 5455,
  "Despite": 5456,
  "IP": 5457,
  "Ob": 5458,
  "treating": 5459,
  "received": 5460,
  "ourselves": 5461,
  "discounts": 5462,
  "manageable": 5463,
  "enables": 5464,
  "pover": 5465,
  "compliance": 5466,
  "ience": 5467,
  "owing": 5468,
  "Stand": 5469,
  "lies": 5470,
  "largest": 5471,
  "illing": 5472,
  "tolerance": 5473,
  "selling": 5474,
  "Paren": 5475,
  "boards": 5476,
  "turning": 5477,
  "display": 5478,
  "tival": 5479,
  "strict": 5480,
  "cotton": 5481,
  "Not": 5482,
  "uncertain": 5483,
  "Pop": 5484,
  "reader": 5485,
  "fulfilling": 5486,
  "You're": 5487,
  "toxic": 5488,
  "exhi": 5489,
  "timel": 5490,
  "drawbacks": 5491,
  "moistur": 5492,
  "oom": 5493,
  "Incorporate": 5494,
  "rating": 5495,
  "figure": 5496,
  "genuine": 5497,
  "doub": 5498,
  "certification": 5499,
  "copy": 5500,
  "recharge": 5501,
  "destr": 5502,
  "fel": 5503,
  "SQL": 5504,
  "iers": 5505,
  "ptions": 5506,
  "evolving": 5507,
  "acceptance": 5508,
  "chop": 5509,
  "fine": 5510,
  "Chris": 5511,
  "duct": 5512,
  "ske": 5513,
  "vegetarian": 5514,
  "index": 5515,
  "spot": 5516,
  "functions": 5517,
  "posing": 5518,
  "dec": 5519,
  "guests": 5520,
  "tel": 5521,
  "predic": 5522,
  "request": 5523,
  "controvers": 5524,
  "Recogn": 5525,
  "podcasts": 5526,
  "ministr": 5527,
  "Micro": 5528,
  "Stu": 5529,
  "loans": 5530,
  "tun": 5531,
  "shapes": 5532,
  "initial": 5533,
  "musicians": 5534,
  "nervous": 5535,
  "neck": 5536,
  "accommodations": 5537,
  "Mach": 5538,
  "Who": 5539,
  "massage": 5540,
  "enforcement": 5541,
  "presentation": 5542,
  "gal": 5543,
  "what's": 5544,
  "reusable": 5545,
  "contributed": 5546,
  "tility": 5547,
  "tici": 5548,
  "Creating": 5549,
  "fake": 5550,
  "forums": 5551,
  "DI": 5552,
  "Both": 5553,
  "nutrition": 5554,
  "qualified": 5555,
  "adopting": 5556,
  "harsh": 5557,
  "virus": 5558,
  "spin": 5559,
  "portion": 5560,
  "tifications": 5561,
  "perception": 5562,
  "weaknesses": 5563,
  "assumptions": 5564,
  "obstacles": 5565,
  "cooperation": 5566,
  "clin": 5567,
  "Please": 5568,
  "athle": 5569,
  "relief": 5570,
  "plot": 5571,
  "saving": 5572,
  "concentration": 5573,
  "calls": 5574,
  "credi": 5575,
  "Posi": 5576,
  "Ref": 5577,
  "attach": 5578,
  "lectual": 5579,
  "vibr": 5580,
  "ascular": 5581,
  "Exam": 5582,
  "aming": 5583,
  "betes": 5584,
  "soup": 5585,
  "vascular": 5586,
  "physically": 5587,
  "boots": 5588,
  "bacteria": 5589,
  "authentication": 5590,
  "alleviate": 5591,
  "orient": 5592,
  "client": 5593,
  "surveys": 5594,
  "iny": 5595,
  "romantic": 5596,
  "prop": 5597,
  "inspiring": 5598,
  "facial": 5599,
  "COVID": 5600,
  "native": 5601,
  "mony": 5602,
  "ension": 5603,
  "strings": 5604,
  "script": 5605,
  "protected": 5606,
  "aer": 5607,
  "classical": 5608,
  "poverty": 5609,
  "coast": 5610,
  "wedding": 5611,
  "chair": 5612,
  "lightenment": 5613,
  "server": 5614,
  "calories": 5615,
  "almond": 5616,
  "endor": 5617,
  "senti": 5618,
  "formul": 5619,
  "endur": 5620,
  "endurance": 5621,
  "hardware": 5622,
  "employer": 5623,
  "Setting": 5624,
  "sunlight": 5625,
  "AP": 5626,
  "Fun": 5627,
  "Char": 5628,
  "leep": 5629,
  "competitors": 5630,
  "van": 5631,
  "VPN": 5632,
  "omic": 5633,
  "lin": 5634,
  "enabling": 5635,
  "themat": 5636,
  "struggles": 5637,
  "oxid": 5638,
  "crisis": 5639,
  "deforestation": 5640,
  "interpretation": 5641,
  "collective": 5642,
  "meets": 5643,
  "alloc": 5644,
  "standard": 5645,
  "diff": 5646,
  "Cost": 5647,
  "tactics": 5648,
  "radi": 5649,
  "tight": 5650,
  "volunteer": 5651,
  "stir": 5652,
  "flowers": 5653,
  "impressive": 5654,
  "adds": 5655,
  "=\"": 5656,
  "included": 5657,
  "psychological": 5658,
  "neak": 5659,
  "however": 5660,
  "inese": 5661,
  "fishing": 5662,
  "separate": 5663,
  "Stre": 5664,
  "enders": 5665,
  "harder": 5666,
  "ensures": 5667,
  "labels": 5668,
  "restrictions": 5669,
  "via": 5670,
  "Monitor": 5671,
  "teamwork": 5672,
  "reports": 5673,
  "feine": 5674,
  "Public": 5675,
  "election": 5676,
  "umber": 5677,
  "Climate": 5678,
  "investi": 5679,
  "aside": 5680,
  "cere": 5681,
  "Small": 5682,
  "voices": 5683,
  "ownership": 5684,
  "satisfy": 5685,
  "iver": 5686,
  "downsides": 5687,
  "fundam": 5688,
  "City": 5689,
  "retailers": 5690,
  "protocol": 5691,
  "North": 5692,
  "attack": 5693,
  "affirmations": 5694,
  "rural": 5695,
  "flat": 5696,
  "HTML": 5697,
  "alb": 5698,
  "guarante": 5699,
  "pal": 5700,
  "vegetable": 5701,
  "optimal": 5702,
  "putting": 5703,
  "Educate": 5704,
  "affects": 5705,
  "Consist": 5706,
  "immediately": 5707,
  "son": 5708,
  "inflation": 5709,
  "operate": 5710,
  "charging": 5711,
  "erts": 5712,
  "sis": 5713,
  "hearing": 5714,
  "illness": 5715,
  "differenti": 5716,
  "Bring": 5717,
  "herit": 5718,
  "cade": 5719,
  "brainstor": 5720,
  "brow": 5721,
  "programmed": 5722,
  "auto": 5723,
  "frequent": 5724,
  "covers": 5725,
  "thick": 5726,
  "describe": 5727,
  "rewarding": 5728,
  "Western": 5729,
  "applied": 5730,
  "Off": 5731,
  "soul": 5732,
  "intention": 5733,
  "concise": 5734,
  "intricate": 5735,
  "appeal": 5736,
  "thusi": 5737,
  "skincare": 5738,
  "Green": 5739,
  "asive": 5740,
  "Smart": 5741,
  "Different": 5742,
  "moments": 5743,
  "records": 5744,
  "lightweight": 5745,
  "Sched": 5746,
  "202": 5747,
  "increases": 5748,
  "chemical": 5749,
  "stit": 5750,
  "attitude": 5751,
  "insul": 5752,
  "itious": 5753,
  "notic": 5754,
  "geo": 5755,
  "ada": 5756,
  "town": 5757,
  "prompt": 5758,
  "camera": 5759,
  "shorter": 5760,
  "tered": 5761,
  "computers": 5762,
  "mort": 5763,
  "urch": 5764,
  "pattern": 5765,
  "unnecessary": 5766,
  "Tha": 5767,
  "nation": 5768,
  "authority": 5769,
  "selecting": 5770,
  "uge": 5771,
  "ru": 5772,
  "fragr": 5773,
  "error": 5774,
  "leaving": 5775,
  "workload": 5776,
  "voters": 5777,
  "reve": 5778,
  "Sun": 5779,
  "slightly": 5780,
  "13": 5781,
  "enthusi": 5782,
  "legs": 5783,
  "phen": 5784,
  "uten": 5785,
  "stal": 5786,
  "centers": 5787,
  "suggests": 5788,
  "ricul": 5789,
  "robots": 5790,
  "correctly": 5791,
  "criter": 5792,
  "Chinese": 5793,
  "customs": 5794,
  "Talk": 5795,
  "vitamin": 5796,
  "million": 5797,
  "participating": 5798,
  "dangerous": 5799,
  "beat": 5800,
  "migration": 5801,
  "bill": 5802,
  "haz": 5803,
  "conventional": 5804,
  "aph": 5805,
  "reactions": 5806,
  "showing": 5807,
  "Cour": 5808,
  "Interest": 5809,
  "uncomfortable": 5810,
  "certifications": 5811,
  "contributing": 5812,
  "hashtags": 5813,
  "completing": 5814,
  "stone": 5815,
  "crowd": 5816,
  "washing": 5817,
  "functional": 5818,
  "peppers": 5819,
  "attle": 5820,
  "visibility": 5821,
  "integration": 5822,
  "angu": 5823,
  "forced": 5824,
  "preserve": 5825,
  "mouth": 5826,
  "maximum": 5827,
  "kids": 5828,
  "English": 5829,
  "Elec": 5830,
  "Adv": 5831,
  "evaluation": 5832,
  "decline": 5833,
  "Change": 5834,
  "responding": 5835,
  "developments": 5836,
  "apping": 5837,
  "quite": 5838,
  "police": 5839,
  "pros": 5840,
  "perpe": 5841,
  "Sustainable": 5842,
  "Union": 5843,
  "suffer": 5844,
  "auma": 5845,
  "ires": 5846,
  "bands": 5847,
  "diabetes": 5848,
  "dim": 5849,
  "tooth": 5850,
  "rhy": 5851,
  "inu": 5852,
  "corruption": 5853,
  "naling": 5854,
  "Test": 5855,
  "sance": 5856,
  "evolved": 5857,
  "older": 5858,
  "minute": 5859,
  "shi": 5860,
  "cues": 5861,
  "lor": 5862,
  "habitat": 5863,
  "uling": 5864,
  "Individu": 5865,
  "pizza": 5866,
  "looks": 5867,
  "thesis": 5868,
  "urity": 5869,
  "empower": 5870,
  "commercial": 5871,
  "ium": 5872,
  "itish": 5873,
  "encryption": 5874,
  "criteria": 5875,
  "Meditation": 5876,
  "Cor": 5877,
  "conducted": 5878,
  "ara": 5879,
  "tomatoes": 5880,
  "presents": 5881,
  "Volunte": 5882,
  "British": 5883,
  "consideration": 5884,
  "seriously": 5885,
  "pursue": 5886,
  "workforce": 5887,
  "relatively": 5888,
  "welcome": 5889,
  "tices": 5890,
  "vacc": 5891,
  "ml": 5892,
  "aud": 5893,
  "Don": 5894,
  "fing": 5895,
  "glasses": 5896,
  "GPS": 5897,
  "intellectual": 5898,
  "bond": 5899,
  "drinking": 5900,
  "joint": 5901,
  "interface": 5902,
  "universities": 5903,
  "ester": 5904,
  "supervis": 5905,
  "Most": 5906,
  "iling": 5907,
  "resonates": 5908,
  "Rep": 5909,
  "mathemat": 5910,
  "vine": 5911,
  "letters": 5912,
  "educators": 5913,
  "Community": 5914,
  "library": 5915,
  "LGBTQ": 5916,
  "wanted": 5917,
  "40": 5918,
  "marks": 5919,
  "aissance": 5920,
  "immediate": 5921,
  "hosp": 5922,
  "memories": 5923,
  "Indian": 5924,
  "agricultural": 5925,
  "containers": 5926,
  "notifications": 5927,
  "augmented": 5928,
  "cardiovascular": 5929,
  "diges": 5930,
  "winter": 5931,
  "launch": 5932,
  "tack": 5933,
  "holds": 5934,
  "extract": 5935,
  "mixed": 5936,
  "zen": 5937,
  "advances": 5938,
  "exfoli": 5939,
  "politici": 5940,
  "bird": 5941,
  "peas": 5942,
  "ened": 5943,
  "Che": 5944,
  "Renaissance": 5945,
  "Tur": 5946,
  "inventory": 5947,
  "relaxed": 5948,
  "send": 5949,
  "curricul": 5950,
  "Cy": 5951,
  "iture": 5952,
  "inoa": 5953,
  "handling": 5954,
  "eries": 5955,
  "width": 5956,
  "Schedule": 5957,
  "bust": 5958,
  "grate": 5959,
  "grains": 5960,
  "eks": 5961,
  "upunc": 5962,
  "court": 5963,
  "quanti": 5964,
  "explores": 5965,
  "neigh": 5966,
  "baby": 5967,
  "documents": 5968,
  "Last": 5969,
  "Head": 5970,
  "safely": 5971,
  "supported": 5972,
  "Pot": 5973,
  "Hold": 5974,
  "files": 5975,
  "Prof": 5976,
  "tles": 5977,
  "interviews": 5978,
  "vehicle": 5979,
  "resolve": 5980,
  "extended": 5981,
  "spl": 5982,
  "oots": 5983,
  "download": 5984,
  "brought": 5985,
  "victim": 5986,
  "Know": 5987,
  "fertili": 5988,
  "Hel": 5989,
  "ST": 5990,
  "upcoming": 5991,
  "tailor": 5992,
  "photography": 5993,
  "casual": 5994,
  "riage": 5995,
  "etc": 5996,
  "argument": 5997,
  "posture": 5998,
  "sneak": 5999,
  "Am": 6000,
  "reser": 6001,
  "aimed": 6002,
  "authenticity": 6003,
  "indic": 6004,
  "Environ": 6005,
  "lam": 6006,
  "male": 6007,
  "sensitivity": 6008,
  "aids": 6009,
  "sunscreen": 6010,
  "stocks": 6011,
  "snow": 6012,
  "Langu": 6013,
  "texti": 6014,
  "birds": 6015,
  "connecting": 6016,
  "shif": 6017,
  "tify": 6018,
  "Connect": 6019,
  "misinformation": 6020,
  "till": 6021,
  "Positive": 6022,
  "ficient": 6023,
  "interventions": 6024,
  "alian": 6025,
  "gently": 6026,
  "vitamins": 6027,
  "felt": 6028,
  "pression": 6029,
  "dietary": 6030,
  "authorized": 6031,
  "puts": 6032,
  "wich": 6033,
  "linked": 6034,
  "Hol": 6035,
  "adjustments": 6036,
  "ride": 6037,
  "accomplishments": 6038,
  "greatly": 6039,
  "Sum": 6040,
  "Intel": 6041,
  "trou": 6042,
  "attractions": 6043,
  "worldwide": 6044,
  "bonds": 6045,
  "deals": 6046,
  "Determine": 6047,
  "volunteering": 6048,
  "ye": 6049,
  "phrase": 6050,
  "durable": 6051,
  "offered": 6052,
  "sushi": 6053,
  "DIY": 6054,
  "sem": 6055,
  "smoothie": 6056,
  "symbols": 6057,
  "acknowled": 6058,
  "Budd": 6059,
  "systemic": 6060,
  "affecting": 6061,
  "surpr": 6062,
  "everyone's": 6063,
  "gel": 6064,
  "maximize": 6065,
  "passwords": 6066,
  "borrow": 6067,
  "Block": 6068,
  "milest": 6069,
  "click": 6070,
  "elfare": 6071,
  "organisms": 6072,
  "sibly": 6073,
  "Plus": 6074,
  "mining": 6075,
  "spicy": 6076,
  "antioxid": 6077,
  "vacation": 6078,
  "visiting": 6079,
  "caffeine": 6080,
  "iles": 6081,
  "Thank": 6082,
  "gence": 6083,
  "isk": 6084,
  "Fore": 6085,
  "mobility": 6086,
  "recognizing": 6087,
  "housing": 6088,
  "erals": 6089,
  "adi": 6090,
  "doors": 6091,
  "rule": 6092,
  "cauti": 6093,
  "vulnerability": 6094,
  "schedules": 6095,
  "integrated": 6096,
  "creators": 6097,
  "hate": 6098,
  "shad": 6099,
  "airy": 6100,
  "installation": 6101,
  "basis": 6102,
  "Jour": 6103,
  "versatile": 6104,
  "Maintain": 6105,
  "Africa": 6106,
  "Consum": 6107,
  "component": 6108,
  "slic": 6109,
  "minor": 6110,
  "ump": 6111,
  "fewer": 6112,
  "trails": 6113,
  "Wind": 6114,
  "poe": 6115,
  "desk": 6116,
  "thers": 6117,
  "portray": 6118,
  "represented": 6119,
  "chopped": 6120,
  "forests": 6121,
  "modify": 6122,
  "rou": 6123,
  "star": 6124,
  "angered": 6125,
  "fati": 6126,
  "enhancing": 6127,
  "Fost": 6128,
  "Austr": 6129,
  "involvement": 6130,
  "strive": 6131,
  "eliminate": 6132,
  "hid": 6133,
  "ancial": 6134,
  "teeth": 6135,
  "ferencing": 6136,
  "updated": 6137,
  "Tik": 6138,
  "belong": 6139,
  "iced": 6140,
  "producing": 6141,
  "trauma": 6142,
  "rog": 6143,
  "negotiation": 6144,
  "Practicing": 6145,
  "please": 6146,
  "60": 6147,
  "sco": 6148,
  "penal": 6149,
  "raising": 6150,
  "Web": 6151,
  "asser": 6152,
  "framework": 6153,
  "gives": 6154,
  "indicate": 6155,
  "predictions": 6156,
  "roasted": 6157,
  "debate": 6158,
  "Tok": 6159,
  "filters": 6160,
  "furn": 6161,
  "Chr": 6162,
  "Financial": 6163,
  "comment": 6164,
  "ROM": 6165,
  "intuition": 6166,
  "LECT": 6167,
  "differently": 6168,
  "facilities": 6169,
  "sort": 6170,
  "Parti": 6171,
  "characteristics": 6172,
  "textures": 6173,
  "Sa": 6174,
  "categ": 6175,
  "calculate": 6176,
  "SELECT": 6177,
  "Mid": 6178,
  "mechanics": 6179,
  "drawing": 6180,
  "beginning": 6181,
  "forces": 6182,
  "West": 6183,
  "emotionally": 6184,
  "survey": 6185,
  "Act": 6186,
  "attemp": 6187,
  "conducting": 6188,
  "Local": 6189,
  "illa": 6190,
  "Regularly": 6191,
  "classi": 6192,
  "astics": 6193,
  "deploy": 6194,
  "recruit": 6195,
  "iconic": 6196,
  "Reach": 6197,
  "industrial": 6198,
  "realize": 6199,
  "happening": 6200,
  "console": 6201,
  "Incl": 6202,
  "Cur": 6203,
  "Pil": 6204,
  "Americ": 6205,
  "prevention": 6206,
  "Germany": 6207,
  "repeat": 6208,
  "instruments": 6209,
  "variable": 6210,
  "outlets": 6211,
  "shar": 6212,
  "straw": 6213,
  "pushing": 6214,
  "extensive": 6215,
  "layers": 6216,
  "dedication": 6217,
  "excess": 6218,
  "itting": 6219,
  "FROM": 6220,
  "Language": 6221,
  "stylish": 6222,
  "convenience": 6223,
  "protocols": 6224,
  "Star": 6225,
  "SP": 6226,
  "tot": 6227,
  "asts": 6228,
  "bots": 6229,
  "determined": 6230,
  "elihood": 6231,
  "Machine": 6232,
  "Microsoft": 6233,
  "spark": 6234,
  "update": 6235,
  "AT": 6236,
  "database": 6237,
  "dynamics": 6238,
  "heritage": 6239,
  "minimum": 6240,
  "preparation": 6241,
  "niche": 6242,
  "distinc": 6243,
  "square": 6244,
  "writer": 6245,
  "apy": 6246,
  "Sn": 6247,
  "From": 6248,
  "exercising": 6249,
  "vote": 6250,
  "likelihood": 6251,
  "Move": 6252,
  "minimizing": 6253,
  "inside": 6254,
  "sop": 6255,
  "aft": 6256,
  "Particip": 6257,
  "welfare": 6258,
  "Sou": 6259,
  "agers": 6260,
  "gluten": 6261,
  "histic": 6262,
  "losses": 6263,
  "possibility": 6264,
  "xide": 6265,
  "weeks": 6266,
  "Ver": 6267,
  "politicians": 6268,
  "leverage": 6269,
  "define": 6270,
  "Bal": 6271,
  "lun": 6272,
  "reinforce": 6273,
  "sample": 6274,
  "designing": 6275,
  "vinegar": 6276,
  "trial": 6277,
  "Clear": 6278,
  "grateful": 6279,
  "counselor": 6280,
  "pings": 6281,
  "moderation": 6282,
  "oneself": 6283,
  "receiving": 6284,
  "enabled": 6285,
  "Whe": 6286,
  "sophistic": 6287,
  "asters": 6288,
  "routines": 6289,
  "bohydr": 6290,
  "html": 6291,
  "cups": 6292,
  "uts": 6293,
  "cautious": 6294,
  "colorful": 6295,
  "sheet": 6296,
  "ror": 6297,
  "osion": 6298,
  "Civ": 6299,
  "totally": 6300,
  "Dig": 6301,
  "subjects": 6302,
  "His": 6303,
  "Pat": 6304,
  "fant": 6305,
  "24": 6306,
  "endangered": 6307,
  "IT": 6308,
  "poem": 6309,
  "ime": 6310,
  "tial": 6311,
  "Training": 6312,
  "King": 6313,
  "sequence": 6314,
  "TikTok": 6315,
  "thank": 6316,
  "camping": 6317,
  "HR": 6318,
  "saw": 6319,
  "double": 6320,
  "tes": 6321,
  "preserving": 6322,
  "structured": 6323,
  "State": 6324,
  "rapidly": 6325,
  "lunch": 6326,
  "iances": 6327,
  "hin": 6328,
  "surroundings": 6329,
  "profound": 6330,
  "grown": 6331,
  "sorry": 6332,
  "pregnancy": 6333,
  "closely": 6334,
  "Security": 6335,
  "corn": 6336,
  "reefs": 6337,
  "dioxide": 6338,
  "gures": 6339,
  "shaped": 6340,
  "consciousness": 6341,
  "nel": 6342,
  "gained": 6343,
  "atically": 6344,
  "repeti": 6345,
  "college": 6346,
  "ees": 6347,
  "indigenous": 6348,
  "Cali": 6349,
  "Enlightenment": 6350,
  "got": 6351,
  "Oh": 6352,
  "Review": 6353,
  "targets": 6354,
  "half": 6355,
  "soy": 6356,
  "sport": 6357,
  "existence": 6358,
  "Non": 6359,
  "setbacks": 6360,
  "exclusive": 6361,
  "groc": 6362,
  "tick": 6363,
  "Associ": 6364,
  "supplement": 6365,
  "names": 6366,
  "pestici": 6367,
  "conferencing": 6368,
  "laun": 6369,
  "peer": 6370,
  "unable": 6371,
  "compelling": 6372,
  "precau": 6373,
  "internal": 6374,
  "grade": 6375,
  "notable": 6376,
  "oma": 6377,
  "Teachers": 6378,
  "gs": 6379,
  "Ther": 6380,
  "Ban": 6381,
  "followed": 6382,
  "sight": 6383,
  "strike": 6384,
  "Phys": 6385,
  "Serv": 6386,
  "cil": 6387,
  "influencer": 6388,
  "vibrant": 6389,
  "boss": 6390,
  "polar": 6391,
  "experimenting": 6392,
  "engines": 6393,
  "worthy": 6394,
  "earthqu": 6395,
  "figures": 6396,
  "rots": 6397,
  "tofu": 6398,
  "furniture": 6399,
  "Ret": 6400,
  "negotiate": 6401,
  "toppings": 6402,
  "introduced": 6403,
  "entrepreneurs": 6404,
  "indeed": 6405,
  "jacket": 6406,
  "Ben": 6407,
  "dependent": 6408,
  "La": 6409,
  "fostering": 6410,
  "conferences": 6411,
  "positively": 6412,
  "gym": 6413,
  "brainstorming": 6414,
  "limiting": 6415,
  "suited": 6416,
  "minerals": 6417,
  "jection": 6418,
  "Ber": 6419,
  "intervention": 6420,
  "Econ": 6421,
  "noticed": 6422,
  "Val": 6423,
  "stretches": 6424,
  "invested": 6425,
  "Califor": 6426,
  "desire": 6427,
  "mate": 6428,
  "appliances": 6429,
  "Plant": 6430,
  "workspace": 6431,
  "merch": 6432,
  "thrive": 6433,
  "clarity": 6434,
  "compar": 6435,
  "Lo": 6436,
  "ams": 6437,
  "scenarios": 6438,
  "Evalu": 6439,
  "warming": 6440,
  "adapted": 6441,
  "curriculum": 6442,
  "advocating": 6443,
  "stored": 6444,
  "luxury": 6445,
  "roots": 6446,
  "varies": 6447,
  "Human": 6448,
  "younger": 6449,
  "resent": 6450,
  "expert": 6451,
  "innovations": 6452,
  "reflects": 6453,
  "went": 6454,
  "hat": 6455,
  "California": 6456,
  "cutting": 6457,
  "iron": 6458,
  "compens": 6459,
  "potatoes": 6460,
  "Priv": 6461,
  "umb": 6462,
  "cally": 6463,
  "bars": 6464,
  "obby": 6465,
  "sandwich": 6466,
  "drugs": 6467,
  "celer": 6468,
  "scalp": 6469,
  "Bel": 6470,
  "discovery": 6471,
  "ardi": 6472,
  "wearable": 6473,
  "fatigue": 6474,
  "reminders": 6475,
  "Begin": 6476,
  "sentiment": 6477,
  "philosoph": 6478,
  "cision": 6479,
  "tracks": 6480,
  "Output": 6481,
  "recognized": 6482,
  "ral": 6483,
  "Collaboration": 6484,
  "Life": 6485,
  "metal": 6486,
  "ighting": 6487,
  "volume": 6488,
  "hotels": 6489,
  "tap": 6490,
  "careers": 6491,
  "fundamental": 6492,
  "hike": 6493,
  "math": 6494,
  "azz": 6495,
  "oxy": 6496,
  "integrate": 6497,
  "hale": 6498,
  "inch": 6499,
  "Us": 6500,
  "collaborations": 6501,
  "customized": 6502,
  "OS": 6503,
  "otechnology": 6504,
  "occasion": 6505,
  "Analyze": 6506,
  "dessert": 6507,
  "remotely": 6508,
  "Think": 6509,
  "Repe": 6510,
  "generating": 6511,
  "gaining": 6512,
  "alter": 6513,
  "Fran": 6514,
  "grav": 6515,
  "mented": 6516,
  "neural": 6517,
  "blocks": 6518,
  "Foster": 6519,
  "IIT": 6520,
  "Proper": 6521,
  "liqu": 6522,
  "judg": 6523,
  "isolation": 6524,
  "Although": 6525,
  "perpetu": 6526,
  "Digital": 6527,
  "endors": 6528,
  "appropriately": 6529,
  "height": 6530,
  "banana": 6531,
  "observe": 6532,
  "instruction": 6533,
  "purchases": 6534,
  "controlled": 6535,
  "embrace": 6536,
  "intern": 6537,
  "frustration": 6538,
  "combine": 6539,
  "democracy": 6540,
  "SD": 6541,
  "Cam": 6542,
  "emphasizes": 6543,
  "visuals": 6544,
  "sufficient": 6545,
  "sensations": 6546,
  "lifting": 6547,
  "patch": 6548,
  "calend": 6549,
  "drones": 6550,
  "missions": 6551,
  "Allow": 6552,
  "ley": 6553,
  "ico": 6554,
  "resid": 6555,
  "Rob": 6556,
  "Sub": 6557,
  "verify": 6558,
  "impossible": 6559,
  "album": 6560,
  "anywhere": 6561,
  "tan": 6562,
  "unlikely": 6563,
  "fixed": 6564,
  "continuous": 6565,
  "Management": 6566,
  "picture": 6567,
  "HIIT": 6568,
  "processed": 6569,
  "myth": 6570,
  "mod": 6571,
  "scam": 6572,
  "tis": 6573,
  "nut": 6574,
  "quir": 6575,
  "laptop": 6576,
  "Instruc": 6577,
  "0.": 6578,
  "peers": 6579,
  "managed": 6580,
  "pret": 6581,
  "finish": 6582,
  "festival": 6583,
  "Cap": 6584,
  "upuncture": 6585,
  "die": 6586,
  "cos": 6587,
  "sliced": 6588,
  "scenes": 6589,
  "specialize": 6590,
  "journaling": 6591,
  "authorities": 6592,
  "highest": 6593,
  "aters": 6594,
  "integrity": 6595,
  "fertility": 6596,
  "emphasize": 6597,
  "poetry": 6598,
  "determining": 6599,
  "usual": 6600,
  "athetic": 6601,
  "universal": 6602,
  "acting": 6603,
  "administr": 6604,
  "precautions": 6605,
  "thin": 6606,
  "visible": 6607,
  "tast": 6608,
  "ival": 6609,
  "banks": 6610,
  "diving": 6611,
  "planting": 6612,
  "insec": 6613,
  "narrative": 6614,
  "equipped": 6615,
  "Eating": 6616,
  "involving": 6617,
  "enger": 6618,
  "composition": 6619,
  "package": 6620,
  "oph": 6621,
  "spinach": 6622,
  "Emo": 6623,
  "accepting": 6624,
  "respected": 6625,
  "protests": 6626,
  "nuc": 6627,
  "Apply": 6628,
  "refers": 6629,
  "anges": 6630,
  "lips": 6631,
  "aising": 6632,
  "imagine": 6633,
  "fication": 6634,
  "attraction": 6635,
  "Watch": 6636,
  "supplies": 6637,
  "grilled": 6638,
  "cin": 6639,
  "SA": 6640,
  "Body": 6641,
  "templ": 6642,
  "erosion": 6643,
  "Individuals": 6644,
  "femin": 6645,
  "Space": 6646,
  "photograph": 6647,
  "therapies": 6648,
  "scheduling": 6649,
  "empathetic": 6650,
  "Conduct": 6651,
  "Eff": 6652,
  "intimacy": 6653,
  "released": 6654,
  "pleas": 6655,
  "Treat": 6656,
  "naturally": 6657,
  "itchen": 6658,
  "description": 6659,
  "astr": 6660,
  "criminal": 6661,
  "Fit": 6662,
  "promotions": 6663,
  "disasters": 6664,
  "imal": 6665,
  "designer": 6666,
  "rhyth": 6667,
  "films": 6668,
  "IN": 6669,
  "chains": 6670,
  "bottom": 6671,
  "idity": 6672,
  "instructor": 6673,
  "encounter": 6674,
  "2020": 6675,
  "guil": 6676,
  "ios": 6677,
  "creamy": 6678,
  "treated": 6679,
  "nutr": 6680,
  "irl": 6681,
  "reliance": 6682,
  "bohydrates": 6683,
  "acceptable": 6684,
  "tomato": 6685,
  "tood": 6686,
  "Nat": 6687,
  "Interesting": 6688,
  "Roman": 6689,
  "rare": 6690,
  "haven": 6691,
  "instances": 6692,
  "Trust": 6693,
  "tempt": 6694,
  "nutritious": 6695,
  "frameworks": 6696,
  "waves": 6697,
  "phrases": 6698,
  "Power": 6699,
  "fulfill": 6700,
  "published": 6701,
  "began": 6702,
  "nearby": 6703,
  "illi": 6704,
  "middle": 6705,
  "owned": 6706,
  "oat": 6707,
  "Respect": 6708,
  "avi": 6709,
  "acceler": 6710,
  "pages": 6711,
  "primarily": 6712,
  "augh": 6713,
  "buted": 6714,
  "Understanding": 6715,
  "None": 6716,
  "concerned": 6717,
  "Host": 6718,
  "Civil": 6719,
  "arguments": 6720,
  "constrain": 6721,
  "Muse": 6722,
  "creens": 6723,
  "raw": 6724,
  "licens": 6725,
  "command": 6726,
  "falls": 6727,
  "puzz": 6728,
  "Whether": 6729,
  "Americans": 6730,
  "certified": 6731,
  "dairy": 6732,
  "aked": 6733,
  "subst": 6734,
  "ham": 6735,
  "reliability": 6736,
  "credibility": 6737,
  "dol": 6738,
  "voter": 6739,
  "phenomen": 6740,
  "skilled": 6741,
  "encouraged": 6742,
  "clubs": 6743,
  "combined": 6744,
  "candidate": 6745,
  "currencies": 6746,
  "Artific": 6747,
  "refreshing": 6748,
  "Recognize": 6749,
  "ared": 6750,
  "liber": 6751,
  "eras": 6752,
  "autonomous": 6753,
  "clou": 6754,
  "Leaders": 6755,
  "Mis": 6756,
  "rific": 6757,
  "below": 6758,
  "opening": 6759,
  "Grou": 6760,
  "Rest": 6761,
  "floor": 6762,
  "jun": 6763,
  "incredible": 6764,
  "Artificial": 6765,
  "strategic": 6766,
  "odor": 6767,
  "irritation": 6768,
  "placement": 6769,
  "I'd": 6770,
  "paste": 6771,
  "fee": 6772,
  "Christian": 6773,
  "satisfying": 6774,
  "descrip": 6775,
  "forcing": 6776,
  "oxygen": 6777,
  "modified": 6778,
  "matt": 6779,
  "altogether": 6780,
  "promotion": 6781,
  "absolutely": 6782,
  "Blue": 6783,
  "RA": 6784,
  "avender": 6785,
  "gap": 6786,
  "bub": 6787,
  "container": 6788,
  "coding": 6789,
  "incentivi": 6790,
  "custo": 6791,
  "translation": 6792,
  "realized": 6793,
  "stages": 6794,
  "racial": 6795,
  "France": 6796,
  "soda": 6797,
  "Altern": 6798,
  "otherwise": 6799,
  "Access": 6800,
  "aims": 6801,
  "chest": 6802,
  "stig": 6803,
  "va": 6804,
  "mentorship": 6805,
  "grid": 6806,
  "lex": 6807,
  "Cook": 6808,
  "thoroughly": 6809,
  "camp": 6810,
  "automate": 6811,
  "understood": 6812,
  "absorb": 6813,
  "Ingre": 6814,
  "ager": 6815,
  "illu": 6816,
  "Pilates": 6817,
  "links": 6818,
  "incorporated": 6819,
  "arrangements": 6820,
  "Profession": 6821,
  "descri": 6822,
  "onions": 6823,
  "pursuing": 6824,
  "missing": 6825,
  "collected": 6826,
  "Canada": 6827,
  "procr": 6828,
  "procrast": 6829,
  "Repeat": 6830,
  "joining": 6831,
  "biotics": 6832,
  "Rights": 6833,
  "theless": 6834,
  "onym": 6835,
  "household": 6836,
  "Os": 6837,
  "Network": 6838,
  "exts": 6839,
  "hobby": 6840,
  "coll": 6841,
  "surrog": 6842,
  "Mich": 6843,
  "defined": 6844,
  "actual": 6845,
  "org": 6846,
  "denim": 6847,
  "balancing": 6848,
  "antioxidants": 6849,
  "Consistency": 6850,
  "rentices": 6851,
  "decreased": 6852,
  "bottles": 6853,
  "openly": 6854,
  "tery": 6855,
  "eve": 6856,
  "Smo": 6857,
  "behavioral": 6858,
  "energ": 6859,
  "Italian": 6860,
  "<td>": 6861,
  "vendors": 6862,
  "hidden": 6863,
  "Physical": 6864,
  "conv": 6865,
  "Food": 6866,
  "abor": 6867,
  "Like": 6868,
  "organizing": 6869,
  "Healthcare": 6870,
  "acids": 6871,
  "knees": 6872,
  "</td>": 6873,
  "hotel": 6874,
  "discussing": 6875,
  "bedtime": 6876,
  "attractive": 6877,
  "percent": 6878,
  "satell": 6879,
  "automated": 6880,
  "Age": 6881,
  "exposed": 6882,
  "flight": 6883,
  "speakers": 6884,
  "izer": 6885,
  "onion": 6886,
  "forming": 6887,
  "estic": 6888,
  "teaspoon": 6889,
  "turb": 6890,
  "Paris": 6891,
  "completed": 6892,
  "Fam": 6893,
  "Place": 6894,
  "contexts": 6895,
  "weights": 6896,
  "greens": 6897,
  "Limit": 6898,
  "AC": 6899,
  "stry": 6900,
  "partnership": 6901,
  "shares": 6902,
  "mm": 6903,
  "Association": 6904,
  "crime": 6905,
  "199": 6906,
  "fry": 6907,
  "upper": 6908,
  "flavorful": 6909,
  "Environmental": 6910,
  "Ingredients": 6911,
  "Turn": 6912,
  "ologist": 6913,
  "Utili": 6914,
  "robotics": 6915,
  "station": 6916,
  "evaluating": 6917,
  "sacrific": 6918,
  "nail": 6919,
  "ratings": 6920,
  "uctu": 6921,
  "reinforcement": 6922,
  "Mental": 6923,
  "mode": 6924,
  "suffering": 6925,
  "museums": 6926,
  "sentences": 6927,
  "safer": 6928,
  "regist": 6929,
  "Businesses": 6930,
  "sculp": 6931,
  "placed": 6932,
  "introduction": 6933,
  "wants": 6934,
  "bottle": 6935,
  "hygi": 6936,
  "menu": 6937,
  "Real": 6938,
  "afterlife": 6939,
  "secre": 6940,
  "mand": 6941,
  "wand": 6942,
  "ulties": 6943,
  "demands": 6944,
  "claims": 6945,
  "preval": 6946,
  "apolog": 6947,
  "lever": 6948,
  "fly": 6949,
  "responsibly": 6950,
  "synthetic": 6951,
  "manufacturers": 6952,
  "athe": 6953,
  "Cloud": 6954,
  "raised": 6955,
  "rituals": 6956,
  "Egy": 6957,
  "Pal": 6958,
  "bone": 6959,
  "carrots": 6960,
  "cident": 6961,
  "tock": 6962,
  "ackers": 6963,
  "yellow": 6964,
  "PC": 6965,
  "encouragement": 6966,
  "agency": 6967,
  "studi": 6968,
  "spray": 6969,
  "posting": 6970,
  "establishing": 6971,
  "oot": 6972,
  "Trail": 6973,
  "serves": 6974,
  "Da": 6975,
  "substitute": 6976,
  "Parents": 6977,
  "Well": 6978,
  "biggest": 6979,
  "therapists": 6980,
  "fs": 6981,
  "Class": 6982,
  "Promote": 6983,
  "stimulate": 6984,
  "featuring": 6985,
  "static": 6986,
  "angers": 6987,
  "ini": 6988,
  "zation": 6989,
  "aesthetic": 6990,
  "requests": 6991,
  "prayer": 6992,
  "punish": 6993,
  "alert": 6994,
  "pants": 6995,
  "Spec": 6996,
  "informative": 6997,
  "rental": 6998,
  "opt": 6999,
  "expressions": 7000,
  "RE": 7001,
  "Empire": 7002,
  "ulating": 7003,
  "compassionate": 7004,
  "scent": 7005,
  "centuries": 7006,
  "onics": 7007,
  "schol": 7008,
  "combinations": 7009,
  "Enh": 7010,
  "Arr": 7011,
  "mainstream": 7012,
  "authors": 7013,
  "continuously": 7014,
  "ull": 7015,
  "beef": 7016,
  "Engaging": 7017,
  "hur": 7018,
  "Incorporating": 7019,
  "Collaborate": 7020,
  "difficulties": 7021,
  "consent": 7022,
  "itr": 7023,
  "mac": 7024,
  "Deep": 7025,
  "toward": 7026,
  "Blockchain": 7027,
  "cuc": 7028,
  "Ugh": 7029,
  "reasonable": 7030,
  "contract": 7031,
  "compatibility": 7032,
  "diction": 7033,
  "dried": 7034,
  "thous": 7035,
  "prob": 7036,
  "wing": 7037,
  "fluctu": 7038,
  "sectors": 7039,
  "batteries": 7040,
  "disrupt": 7041,
  "Chall": 7042,
  "posal": 7043,
  "unhealthy": 7044,
  "Indigenous": 7045,
  "diagnosis": 7046,
  "indoor": 7047,
  "destruc": 7048,
  "delicate": 7049,
  "Visit": 7050,
  "haven't": 7051,
  "Then": 7052,
  "idge": 7053,
  "tr>": 7054,
  "sively": 7055,
  "promp": 7056,
  "imagery": 7057,
  "represents": 7058,
  "channel": 7059,
  "removing": 7060,
  "particles": 7061,
  "severity": 7062,
  "wax": 7063,
  "introduce": 7064,
  "Wall": 7065,
  "startups": 7066,
  "reform": 7067,
  "pesticides": 7068,
  "Reducing": 7069,
  "Wash": 7070,
  "revolutionize": 7071,
  "University": 7072,
  "functionality": 7073,
  "named": 7074,
  "resulted": 7075,
  "Second": 7076,
  "para": 7077,
  "answers": 7078,
  "Reward": 7079,
  "incredibly": 7080,
  "twist": 7081,
  "powers": 7082,
  "Suggest": 7083,
  "ette": 7084,
  "bles": 7085,
  "crete": 7086,
  "sophisticated": 7087,
  "Developing": 7088,
  "losing": 7089,
  "whenever": 7090,
  "lation": 7091,
  "predictable": 7092,
  "federal": 7093,
  "essay": 7094,
  "habil": 7095,
  "differentiate": 7096,
  "Eth": 7097,
  "fro": 7098,
  "shoe": 7099,
  "woman": 7100,
  "keywords": 7101,
  "facilit": 7102,
  "quinoa": 7103,
  "Tom": 7104,
  "micr": 7105,
  "shoulders": 7106,
  "carbohydrates": 7107,
  "Should": 7108,
  "Honest": 7109,
  "brace": 7110,
  "excite": 7111,
  "soap": 7112,
  "bun": 7113,
  "stitution": 7114,
  "Center": 7115,
  "independence": 7116,
  "milestones": 7117,
  "coordination": 7118,
  "passed": 7119,
  "80": 7120,
  "routes": 7121,
  "gradu": 7122,
  "children's": 7123,
  "demographics": 7124,
  "influences": 7125,
  "wi": 7126,
  "Examples": 7127,
  "escal": 7128,
  "ethics": 7129,
  "thern": 7130,
  "gut": 7131,
  "icit": 7132,
  "Advoc": 7133,
  "bits": 7134,
  "characterized": 7135,
  "suppliers": 7136,
  "oblig": 7137,
  "blogs": 7138,
  "Children": 7139,
  "chickpeas": 7140,
  "Reduced": 7141,
  "pets": 7142,
  "acknowledging": 7143,
  "celebrities": 7144,
  "amen": 7145,
  "Natural": 7146,
  "world's": 7147,
  "Middle": 7148,
  "Assist": 7149,
  "Mexico": 7150,
  "kitchen": 7151,
  "atable": 7152,
  "stery": 7153,
  "illegal": 7154,
  "pests": 7155,
  "advancement": 7156,
  "cleaner": 7157,
  "caught": 7158,
  "frozen": 7159,
  "ka": 7160,
  "mentors": 7161,
  "Ty": 7162,
  "Land": 7163,
  "ambi": 7164,
  "proven": 7165,
  "infections": 7166,
  "warning": 7167,
  "Customer": 7168,
  "ifications": 7169,
  "cake": 7170,
  "pon": 7171,
  "critici": 7172,
  "Span": 7173,
  "xim": 7174,
  "pill": 7175,
  "nice": 7176,
  "hygiene": 7177,
  "spo": 7178,
  "Limited": 7179,
  "entials": 7180,
  "Evaluate": 7181,
  "constraints": 7182,
  "triggers": 7183,
  "Eat": 7184,
  "finances": 7185,
  "variables": 7186,
  "Its": 7187,
  "mint": 7188,
  "Cut": 7189,
  "ician": 7190,
  "Sam": 7191,
  "sitting": 7192,
  "Clean": 7193,
  "fortun": 7194,
  "walls": 7195,
  "UV": 7196,
  "Native": 7197,
  "shirt": 7198,
  "someone's": 7199,
  "combines": 7200,
  "respir": 7201,
  "colum": 7202,
  "contam": 7203,
  "locals": 7204,
  "neighbor": 7205,
  "appointment": 7206,
  "thus": 7207,
  "controversial": 7208,
  "discouraged": 7209,
  "inkle": 7210,
  "eu": 7211,
  "penalties": 7212,
  "meant": 7213,
  "fires": 7214,
  "html>": 7215,
  "Media": 7216,
  "mixing": 7217,
  "upl": 7218,
  "brings": 7219,
  "icted": 7220,
  "tissu": 7221,
  "anticip": 7222,
  "alous": 7223,
  "button": 7224,
  "previously": 7225,
  "perceived": 7226,
  "compete": 7227,
  "hypo": 7228,
  "robust": 7229,
  "rati": 7230,
  "Sovi": 7231,
  "See": 7232,
  "ginger": 7233,
  "assignments": 7234,
  "According": 7235,
  "ceptions": 7236,
  "sleeping": 7237,
  "dogs": 7238,
  "adopted": 7239,
  "sed": 7240,
  "trouble": 7241,
  "Schools": 7242,
  "pollut": 7243,
  "excitement": 7244,
  "designated": 7245,
  "racism": 7246,
  "Acknowledge": 7247,
  "Inde": 7248,
  "san": 7249,
  "Shop": 7250,
  "grammar": 7251,
  "comedy": 7252,
  "frustrated": 7253,
  "1.": 7254,
  "exit": 7255,
  "codes": 7256,
  "Traditional": 7257,
  "izable": 7258,
  "Construct": 7259,
  "guarantee": 7260,
  "AD": 7261,
  "born": 7262,
  "negotiations": 7263,
  "Fl": 7264,
  "Wild": 7265,
  "ET": 7266,
  "reverse": 7267,
  "momentum": 7268,
  "overcoming": 7269,
  "habilitation": 7270,
  "hinder": 7271,
  "rix": 7272,
  "Movement": 7273,
  "las": 7274,
  "estate": 7275,
  "we're": 7276,
  "Global": 7277,
  "cular": 7278,
  "branding": 7279,
  "brief": 7280,
  "Making": 7281,
  "Investing": 7282,
  "sharp": 7283,
  "restore": 7284,
  "Define": 7285,
  "dens": 7286,
  "master": 7287,
  "Soviet": 7288,
  "prone": 7289,
  "positivity": 7290,
  "Care": 7291,
  "doctors": 7292,
  "instant": 7293,
  "grocery": 7294,
  "earn": 7295,
  "chips": 7296,
  "couple": 7297,
  "flower": 7298,
  "Asia": 7299,
  "aggressive": 7300,
  "virt": 7301,
  "texts": 7302,
  "emerge": 7303,
  "deser": 7304,
  "folk": 7305,
  "ause": 7306,
  "bored": 7307,
  "East": 7308,
  "instructors": 7309,
  "accommodate": 7310,
  "Bra": 7311,
  "Hin": 7312,
  "impression": 7313,
  "recently": 7314,
  "coastal": 7315,
  "identified": 7316,
  "influential": 7317,
  "sensory": 7318,
  "responsive": 7319,
  "smell": 7320,
  "river": 7321,
  "77": 7322,
  "enjoying": 7323,
  "centered": 7324,
  "sulting": 7325,
  "climbing": 7326,
  "distur": 7327,
  "breaches": 7328,
  "startup": 7329,
  "nothing": 7330,
  "irs": 7331,
  "happens": 7332,
  "lyrics": 7333,
  "honesty": 7334,
  "escape": 7335,
  "jar": 7336,
  "flows": 7337,
  "nuclear": 7338,
  "Step": 7339,
  "WH": 7340,
  "convert": 7341,
  "drivers": 7342,
  "starts": 7343,
  "confusion": 7344,
  "Women": 7345,
  "erry": 7346,
  "hon": 7347,
  "worried": 7348,
  "'ve": 7349,
  "Mountain": 7350,
  "meditate": 7351,
  "Happ": 7352,
  "lobby": 7353,
  "balances": 7354,
  "Bet": 7355,
  "berry": 7356,
  "matches": 7357,
  "drain": 7358,
  "remin": 7359,
  "cium": 7360,
  "achievement": 7361,
  "wit": 7362,
  "Mc": 7363,
  "kit": 7364,
  "masks": 7365,
  "tradition": 7366,
  "Professional": 7367,
  "protective": 7368,
  "Economic": 7369,
  "icting": 7370,
  "ils": 7371,
  "reveal": 7372,
  "Vi": 7373,
  "Thai": 7374,
  "Employers": 7375,
  "zone": 7376,
  "possess": 7377,
  "took": 7378,
  "engineers": 7379,
  "Mor": 7380,
  "zers": 7381,
  "Hindu": 7382,
  "shr": 7383,
  "chili": 7384,
  "disorder": 7385,
  "glo": 7386,
  "resume": 7387,
  "therefore": 7388,
  "cohes": 7389,
  "advisors": 7390,
  "OT": 7391,
  "ago": 7392,
  "kee": 7393,
  "hybrid": 7394,
  "stations": 7395,
  "Based": 7396,
  "dinner": 7397,
  "namon": 7398,
  "Sha": 7399,
  "hoods": 7400,
  "mistake": 7401,
  "anut": 7402,
  "proteins": 7403,
  "country's": 7404,
  "Will": 7405,
  "Compare": 7406,
  "relieve": 7407,
  "Kore": 7408,
  "freel": 7409,
  "today's": 7410,
  "apprentices": 7411,
  "Doc": 7412,
  "storm": 7413,
  "45": 7414,
  "paint": 7415,
  "sacred": 7416,
  "allergies": 7417,
  "here's": 7418,
  "initiative": 7419,
  "we'll": 7420,
  "stars": 7421,
  "eted": 7422,
  "shoulder": 7423,
  "detection": 7424,
  "literacy": 7425,
  "tag": 7426,
  "branch": 7427,
  "clouds": 7428,
  "survival": 7429,
  "Headspace": 7430,
  "semin": 7431,
  "timer": 7432,
  "Safe": 7433,
  "nations": 7434,
  "locally": 7435,
  "seam": 7436,
  "breast": 7437,
  "drama": 7438,
  "persistent": 7439,
  "precision": 7440,
  "bloggers": 7441,
  "judge": 7442,
  "citizen": 7443,
  "martial": 7444,
  "pup": 7445,
  "Market": 7446,
  "DNA": 7447,
  "GPT": 7448,
  "smoking": 7449,
  "mur": 7450,
  "mush": 7451,
  "tackle": 7452,
  "weap": 7453,
  "bills": 7454,
  "complicated": 7455,
  "Spanish": 7456,
  "Rewrite": 7457,
  "unauthorized": 7458,
  "sad": 7459,
  "cowor": 7460,
  "Home": 7461,
  "calendar": 7462,
  "smartphone": 7463,
  "Without": 7464,
  "aise": 7465,
  "perfectly": 7466,
  "ault": 7467,
  "applic": 7468,
  "body>": 7469,
  "steak": 7470,
  "Track": 7471,
  "append": 7472,
  "Cer": 7473,
  "osen": 7474,
  "streams": 7475,
  "Hey": 7476,
  "marize": 7477,
  "compatible": 7478,
  "improves": 7479,
  "dimension": 7480,
  "huge": 7481,
  "packed": 7482,
  "experimentation": 7483,
  "brand's": 7484,
  "venture": 7485,
  "astern": 7486,
  "Political": 7487,
  "Hmm": 7488,
  "smartphones": 7489,
  "extent": 7490,
  "jumping": 7491,
  "tops": 7492,
  "lenders": 7493,
  "Travel": 7494,
  "enforce": 7495,
  "promising": 7496,
  "Feed": 7497,
  "socio": 7498,
  "optimization": 7499,
  "prol": 7500,
  "Intelligence": 7501,
  "Hot": 7502,
  "acer": 7503,
  "Studies": 7504,
  "associations": 7505,
  "ulated": 7506,
  "dram": 7507,
  "distracted": 7508,
  "boy": 7509,
  "CBT": 7510,
  "accidents": 7511,
  "ranging": 7512,
  "grab": 7513,
  "suggested": 7514,
  "attri": 7515,
  "iments": 7516,
  "budgeting": 7517,
  "coworkers": 7518,
  "sustainably": 7519,
  "yields": 7520,
  "Lastly": 7521,
  "UN": 7522,
  "reforms": 7523,
  "profitability": 7524,
  "enjoyed": 7525,
  "Comb": 7526,
  "Since": 7527,
  "satisfied": 7528,
  "SEO": 7529,
  "variations": 7530,
  "hire": 7531,
  "suspicious": 7532,
  "mother": 7533,
  "defensive": 7534,
  "hospit": 7535,
  "Post": 7536,
  "restoration": 7537,
  "feas": 7538,
  "symbolism": 7539,
  "monthly": 7540,
  "atever": 7541,
  "crowdfunding": 7542,
  "dro": 7543,
  "resilient": 7544,
  "confront": 7545,
  "nutritional": 7546,
  "ski": 7547,
  "alia": 7548,
  "relatable": 7549,
  "Store": 7550,
  "Day": 7551,
  "emerged": 7552,
  "synthesis": 7553,
  "ba": 7554,
  "rello": 7555,
  "viewpoints": 7556,
  "comply": 7557,
  "Renew": 7558,
  "tac": 7559,
  "oll": 7560,
  "Earth's": 7561,
  "respecting": 7562,
  "Trello": 7563,
  "automatically": 7564,
  "flash": 7565,
  "incidents": 7566,
  "fries": 7567,
  "storing": 7568,
  "spent": 7569,
  "pairs": 7570,
  "inflammatory": 7571,
  "adjusting": 7572,
  "decades": 7573,
  "Rem": 7574,
  "anda": 7575,
  "fatty": 7576,
  "Mexican": 7577,
  "disaster": 7578,
  "timeline": 7579,
  "runs": 7580,
  "manipulate": 7581,
  "sculpt": 7582,
  "subtle": 7583,
  "Mem": 7584,
  "500": 7585,
  "elected": 7586,
  "erie": 7587,
  "solo": 7588,
  "ampl": 7589,
  "representative": 7590,
  "philosophy": 7591,
  "aircraft": 7592,
  "lift": 7593,
  "hummus": 7594,
  "faceted": 7595,
  "ethnic": 7596,
  "closer": 7597,
  "iosity": 7598,
  "millions": 7599,
  "procrastination": 7600,
  "gone": 7601,
  "students'": 7602,
  "iking": 7603,
  "combining": 7604,
  "installations": 7605,
  "reps": 7606,
  "viewed": 7607,
  "una": 7608,
  "ool": 7609,
  "producers": 7610,
  "orange": 7611,
  "outdoors": 7612,
  "hormon": 7613,
  "uncertainty": 7614,
  "Cent": 7615,
  "searching": 7616,
  "scarf": 7617,
  "elev": 7618,
  "illnesses": 7619,
  "  ": 7620,
  "passionate": 7621,
  "qualifications": 7622,
  "sticking": 7623,
  "Free": 7624,
  "submit": 7625,
  "lime": 7626,
  "spreading": 7627,
  "massive": 7628,
  "urable": 7629,
  "relations": 7630,
  "arma": 7631,
  "spirituality": 7632,
  "gage": 7633,
  "BC": 7634,
  "dian": 7635,
  "moves": 7636,
  "degre": 7637,
  "Mag": 7638,
  "fried": 7639,
  "aroma": 7640,
  "reported": 7641,
  "percentage": 7642,
  "morale": 7643,
  "Serve": 7644,
  "corporate": 7645,
  "azy": 7646,
  "expanding": 7647,
  "volcan": 7648,
  "measuring": 7649,
  "Project": 7650,
  "highlighting": 7651,
  "pict": 7652,
  "confidential": 7653,
  "2019": 7654,
  "Solar": 7655,
  "Calcul": 7656,
  "rush": 7657,
  "contest": 7658,
  "theories": 7659,
  "acc": 7660,
  "whereas": 7661,
  "bridge": 7662,
  "divine": 7663,
  "gger": 7664,
  "Emotional": 7665,
  "fli": 7666,
  "Instructions": 7667,
  "ampoo": 7668,
  "Fle": 7669,
  "weet": 7670,
  "equally": 7671,
  "athletic": 7672,
  "inquir": 7673,
  "bn": 7674,
  "attor": 7675,
  "deciding": 7676,
  "emon": 7677,
  "link": 7678,
  "body's": 7679,
  "Employees": 7680,
  "split": 7681,
  "illance": 7682,
  "AN": 7683,
  "instrument": 7684,
  "violent": 7685,
  "ologies": 7686,
  "Increase": 7687,
  "composting": 7688,
  "Top": 7689,
  "stressed": 7690,
  "presented": 7691,
  "releases": 7692,
  "verb": 7693,
  "discovered": 7694,
  "tablespoon": 7695,
  "legiti": 7696,
  "eters": 7697,
  "animation": 7698,
  "surfaces": 7699,
  "atten": 7700,
  "closed": 7701,
  "degrees": 7702,
  "capes": 7703,
  "entry": 7704,
  "vanilla": 7705,
  "economies": 7706,
  "anas": 7707,
  "accomplishment": 7708,
  "icking": 7709,
  "distinct": 7710,
  "Multi": 7711,
  "pping": 7712,
  "falling": 7713,
  "marriage": 7714,
  "altit": 7715,
  "preparing": 7716,
  "adapting": 7717,
  "exha": 7718,
  "unethical": 7719,
  "Cyber": 7720,
  "Sof": 7721,
  "mild": 7722,
  "compensation": 7723,
  "Lat": 7724,
  "nood": 7725,
  "jazz": 7726,
  "Depending": 7727,
  "vulnerabilities": 7728,
  "utilizing": 7729,
  "psychology": 7730,
  "sourced": 7731,
  "concrete": 7732,
  "Autom": 7733,
  "chatbots": 7734,
  "acerb": 7735,
  "plom": 7736,
  "stroke": 7737,
  "Industrial": 7738,
  "speaker": 7739,
  "Game": 7740,
  "mentally": 7741,
  "exacerb": 7742,
  "overly": 7743,
  "cademy": 7744,
  "accepted": 7745,
  "engers": 7746,
  "streamline": 7747,
  "reminder": 7748,
  "mp": 7749,
  "nonverbal": 7750,
  "occurs": 7751,
  "prev": 7752,
  "extend": 7753,
  "ologists": 7754,
  "creatures": 7755,
  "route": 7756,
  "researching": 7757,
  "keting": 7758,
  "nanotechnology": 7759,
  "crazy": 7760,
  "perceive": 7761,
  "Code": 7762,
  "ansion": 7763,
  "User": 7764,
  "chosen": 7765,
  "partner's": 7766,
  "Proc": 7767,
  "blaz": 7768,
  "survive": 7769,
  "apples": 7770,
  "Rock": 7771,
  "caution": 7772,
  "discoveries": 7773,
  "composed": 7774,
  "atire": 7775,
  "pictures": 7776,
  "physics": 7777,
  "Speak": 7778,
  "commitments": 7779,
  "negotiating": 7780,
  "izon": 7781,
  "conserve": 7782,
  "pressing": 7783,
  "trigger": 7784,
  "lesson": 7785,
  "Nike": 7786,
  "subscription": 7787,
  "resonate": 7788,
  "perman": 7789,
  "worn": 7790,
  "dit": 7791,
  "overview": 7792,
  "Rus": 7793,
  "Color": 7794,
  "aren't": 7795,
  "licensed": 7796,
  "vict": 7797,
  "holid": 7798,
  "roof": 7799,
  "dependence": 7800,
  "Dress": 7801,
  "umes": 7802,
  "offensive": 7803,
  "eding": 7804,
  "Journal": 7805,
  "circul": 7806,
  "capt": 7807,
  "refine": 7808,
  "Rather": 7809,
  "Australia": 7810,
  "magical": 7811,
  "reaction": 7812,
  "Writing": 7813,
  "Prepare": 7814,
  "Ma": 7815,
  "customize": 7816,
  "Effective": 7817,
  "Meet": 7818,
  "jealous": 7819,
  "Optim": 7820,
  "prime": 7821,
  "Fresh": 7822,
  "preferred": 7823,
  "sick": 7824,
  "student's": 7825,
  "homemade": 7826,
  "LL": 7827,
  "degradable": 7828,
  "complain": 7829,
  "female": 7830,
  "Utilize": 7831,
  "poons": 7832,
  "mone": 7833,
  "cuts": 7834,
  "Continu": 7835,
  "acquis": 7836,
  "unconventional": 7837,
  "vill": 7838,
  "barrier": 7839,
  "deduc": 7840,
  "oco": 7841,
  "simulations": 7842,
  "literary": 7843,
  "Volunteer": 7844,
  "turbines": 7845,
  "plastics": 7846,
  "thoughtful": 7847,
  "interfe": 7848,
  "Edit": 7849,
  "standardi": 7850,
  "potato": 7851,
  "ethically": 7852,
  "paths": 7853,
  "Ele": 7854,
  "itar": 7855,
  "Tod": 7856,
  "slices": 7857,
  "San": 7858,
  "jump": 7859,
  "miles": 7860,
  "cham": 7861,
  "moon": 7862,
  "gami": 7863,
  "produces": 7864,
  "Active": 7865,
  "rising": 7866,
  "clinical": 7867,
  "Tran": 7868,
  "aligned": 7869,
  "governance": 7870,
  "heels": 7871,
  "targeting": 7872,
  "calcium": 7873,
  "Surround": 7874,
  "Organizations": 7875,
  "launched": 7876,
  "istance": 7877,
  "oles": 7878,
  "realism": 7879,
  "Spe": 7880,
  "unsure": 7881,
  "PT": 7882,
  "visualize": 7883,
  "El": 7884,
  "prompts": 7885,
  "pil": 7886,
  "transmit": 7887,
  "knew": 7888,
  "mentoring": 7889,
  "varying": 7890,
  "unbiased": 7891,
  "attende": 7892,
  "trustworthy": 7893,
  "performed": 7894,
  "dir": 7895,
  "fusion": 7896,
  "intentions": 7897,
  "almost": 7898,
  "domin": 7899,
  "Table": 7900,
  "2.": 7901,
  "tible": 7902,
  "nour": 7903,
  "itis": 7904,
  "Anti": 7905,
  "bling": 7906,
  "Visualize": 7907,
  "rejection": 7908,
  "sorted": 7909,
  "introducing": 7910,
  "checks": 7911,
  "blocking": 7912,
  "thousands": 7913,
  "highlights": 7914,
  "electronics": 7915,
  "paragraph": 7916,
  "rehabilitation": 7917,
  "raft": 7918,
  "bnb": 7919,
  "containing": 7920,
  "Fashion": 7921,
  "pretty": 7922,
  "timate": 7923,
  "Streng": 7924,
  "aphor": 7925,
  "Stretch": 7926,
  "elig": 7927,
  "tourist": 7928,
  "sculpture": 7929,
  "gun": 7930,
  "param": 7931,
  "Low": 7932,
  "Renewable": 7933,
  "precise": 7934,
  "beer": 7935,
  "ola": 7936,
  "sending": 7937,
  "LED": 7938,
  "six": 7939,
  "fundr": 7940,
  "matters": 7941,
  "io": 7942,
  "dense": 7943,
  "CSS": 7944,
  "Airbnb": 7945,
  "Consult": 7946,
  "steam": 7947,
  "stuck": 7948,
  "agonist": 7949,
  "instability": 7950,
  "controls": 7951,
  "balls": 7952,
  "unintended": 7953,
  "othic": 7954,
  "franch": 7955,
  "roid": 7956,
  "kin": 7957,
  "oversight": 7958,
  "regional": 7959,
  "Search": 7960,
  "Ori": 7961,
  "surveillance": 7962,
  "unfair": 7963,
  "termin": 7964,
  "Bas": 7965,
  "conver": 7966,
  "curiosity": 7967,
  "modifications": 7968,
  "damaged": 7969,
  "und": 7970,
  "knee": 7971,
  "andise": 7972,
  "Calm": 7973,
  "user's": 7974,
  "Islam": 7975,
  "Buy": 7976,
  "basics": 7977,
  "obic": 7978,
  "pine": 7979,
  "trips": 7980,
  "profiles": 7981,
  "Science": 7982,
  "cinnamon": 7983,
  "interpretations": 7984,
  "scores": 7985,
  "elections": 7986,
  "Bur": 7987,
  "gran": 7988,
  "Implementing": 7989,
  "likes": 7990,
  "inse": 7991,
  "harvest": 7992,
  "favorites": 7993,
  "colored": 7994,
  "uba": 7995,
  "copyright": 7996,
  "Help": 7997,
  "Model": 7998,
  "acne": 7999,
  "tivi": 8000,
  "collecting": 8001,
  "battle": 8002,
  "EM": 8003,
  "acupuncture": 8004,
  "logo": 8005,
  "unting": 8006,
  "Hand": 8007,
  "han": 8008,
  "concerts": 8009,
  "Students": 8010,
  "coal": 8011,
  "lenti": 8012,
  "Hist": 8013,
  "custody": 8014,
  "Angel": 8015,
  "Now": 8016,
  "packing": 8017,
  "critically": 8018,
  "timing": 8019,
  "distributed": 8020,
  "void": 8021,
  "Analytics": 8022,
  "blan": 8023,
  "ecraft": 8024,
  "SC": 8025,
  "anxious": 8026,
  "modeling": 8027,
  "iner": 8028,
  "Found": 8029,
  "2021": 8030,
  "sneakers": 8031,
  "Understand": 8032,
  "theater": 8033,
  "offerings": 8034,
  "savory": 8035,
  "rub": 8036,
  "Unity": 8037,
  "ON": 8038,
  "attendees": 8039,
  "autonomy": 8040,
  "centralized": 8041,
  "cons": 8042,
  "iro": 8043,
  "hit": 8044,
  "expense": 8045,
  "oceans": 8046,
  "indul": 8047,
  "head>": 8048,
  "identities": 8049,
  "cue": 8050,
  "Sit": 8051,
  "invasive": 8052,
  "crispy": 8053,
  "Today": 8054,
  "activists": 8055,
  "izzes": 8056,
  "keeps": 8057,
  "plain": 8058,
  "stressful": 8059,
  "employed": 8060,
  "salmon": 8061,
  "\">": 8062,
  "gardening": 8063,
  "formula": 8064,
  "myster": 8065,
  "exactly": 8066,
  "respiratory": 8067,
  "inn": 8068,
  "Viet": 8069,
  "ictive": 8070,
  "breakthrough": 8071,
  "screens": 8072,
  "inser": 8073,
  "Adding": 8074,
  "Therapy": 8075,
  "seamless": 8076,
  "roc": 8077,
  "belonging": 8078,
  "itarian": 8079,
  "magaz": 8080,
  "inappropriate": 8081,
  "Working": 8082,
  "molec": 8083,
  "eling": 8084,
  "bean": 8085,
  "acci": 8086,
  "comparison": 8087,
  "sident": 8088,
  "relate": 8089,
  "pottery": 8090,
  "aterials": 8091,
  "comparing": 8092,
  "Creative": 8093,
  "hero": 8094,
  "pollutants": 8095,
  "lighter": 8096,
  "feeding": 8097,
  "apologize": 8098,
  "failures": 8099,
  "interfere": 8100,
  "Development": 8101,
  "Lu": 8102,
  "Control": 8103,
  "functioning": 8104,
  "ram": 8105,
  "misconcep": 8106,
  "observ": 8107,
  "fulfillment": 8108,
  "perceptions": 8109,
  "aset": 8110,
  "optimizing": 8111,
  "cooling": 8112,
  "challenged": 8113,
  "recording": 8114,
  "replacement": 8115,
  "durability": 8116,
  "mates": 8117,
  "Psy": 8118,
  "nur": 8119,
  "tie": 8120,
  "herent": 8121,
  "tau": 8122,
  "Our": 8123,
  "alleg": 8124,
  "Pinterest": 8125,
  "official": 8126,
  "costly": 8127,
  "punishment": 8128,
  "True": 8129,
  "organization's": 8130,
  "deleg": 8131,
  "evenly": 8132,
  "binary": 8133,
  "Perform": 8134,
  "liquid": 8135,
  "otic": 8136,
  "Maybe": 8137,
  "moderate": 8138,
  "jeans": 8139,
  "forecasting": 8140,
  "Note": 8141,
  "logical": 8142,
  "categories": 8143,
  "Pass": 8144,
  "Harry": 8145,
  "chart": 8146,
  "asting": 8147,
  "bra": 8148,
  "heating": 8149,
  "quizzes": 8150,
  "Gar": 8151,
  "overnight": 8152,
  "dresses": 8153,
  "infr": 8154,
  "node": 8155,
  "aws": 8156,
  "domestic": 8157,
  "ounce": 8158,
  "legis": 8159,
  "grading": 8160,
  "biometric": 8161,
  "persistence": 8162,
  "stigma": 8163,
  "tells": 8164,
  "glob": 8165,
  "ret": 8166,
  "banking": 8167,
  "bigger": 8168,
  "ligent": 8169,
  "Qual": 8170,
  "Employee": 8171,
  "grades": 8172,
  "signal": 8173,
  "courage": 8174,
  "measurable": 8175,
  "diced": 8176,
  "premi": 8177,
  "oly": 8178,
  "remaining": 8179,
  "asleep": 8180,
  "ito": 8181,
  "chant": 8182,
  "Patagon": 8183,
  "globalization": 8184,
  "continuing": 8185,
  "department": 8186,
  "tested": 8187,
  "Sing": 8188,
  "Explore": 8189,
  "ighten": 8190,
  "motivations": 8191,
  "doubt": 8192,
  "transformed": 8193,
  "Install": 8194,
  "othermal": 8195,
  "regulating": 8196,
  "eleg": 8197,
  "beings": 8198,
  "sculptures": 8199,
  "gry": 8200,
  "shirts": 8201,
  "traum": 8202,
  "plate": 8203,
  "White": 8204,
  "Stick": 8205,
  "timely": 8206,
  "merchandise": 8207,
  "longest": 8208,
  "border": 8209,
  "gameplay": 8210,
  "trainer": 8211,
  "harmony": 8212,
  "Better": 8213,
  "Vietnam": 8214,
  "tasty": 8215,
  "sumed": 8216,
  "tired": 8217,
  "Patagonia": 8218,
  "cameras": 8219,
  "karma": 8220,
  "delivering": 8221,
  "extrem": 8222,
  "Mal": 8223,
  "packages": 8224,
  "Gothic": 8225,
  "knowing": 8226,
  "utilize": 8227,
  "Eastern": 8228,
  "abs": 8229,
  "Soci": 8230,
  "90": 8231,
  "tastes": 8232,
  "educating": 8233,
  "Honestly": 8234,
  "nuanced": 8235,
  "grace": 8236,
  "asked": 8237,
  "dancing": 8238,
  "Respon": 8239,
  "philosophical": 8240,
  "memo": 8241,
  "profess": 8242,
  "aching": 8243,
  "whose": 8244,
  "cultivating": 8245,
  "sud": 8246,
  "sudden": 8247,
  "apers": 8248,
  "instinc": 8249,
  "Two": 8250,
  "dispar": 8251,
  "Long": 8252,
  "bonacci": 8253,
  "blind": 8254,
  "wis": 8255,
  "anonym": 8256,
  "taught": 8257,
  "hism": 8258,
  "window": 8259,
  "trop": 8260,
  "beaches": 8261,
  "detr": 8262,
  "Russi": 8263,
  "Quantum": 8264,
  "ERE": 8265,
  "kill": 8266,
  "propag": 8267,
  "Address": 8268,
  "metaphor": 8269,
  "insects": 8270,
  "bil": 8271,
  "Marketing": 8272,
  "Books": 8273,
  "occup": 8274,
  "diplom": 8275,
  "herb": 8276,
  "welcoming": 8277,
  "buddy": 8278,
  "manual": 8279,
  "preservation": 8280,
  "damaging": 8281,
  "personalize": 8282,
  "scope": 8283,
  "cush": 8284,
  "wrap": 8285,
  "ention": 8286,
  "documentation": 8287,
  "destruction": 8288,
  "skep": 8289,
  "ero": 8290,
  "fairness": 8291,
  "credits": 8292,
  "mathematical": 8293,
  "cab": 8294,
  "burden": 8295,
  "former": 8296,
  "utilized": 8297,
  "Sleep": 8298,
  "dient": 8299,
  "spots": 8300,
  "Vide": 8301,
  "Intro": 8302,
  "requiring": 8303,
  "experiments": 8304,
  "lived": 8305,
  "alongside": 8306,
  "performers": 8307,
  "Italy": 8308,
  "ED": 8309,
  "font": 8310,
  "hase": 8311,
  "Mob": 8312,
  "aul": 8313,
  "tang": 8314,
  "fluctuations": 8315,
  "yield": 8316,
  "findings": 8317,
  "specializes": 8318,
  "victims": 8319,
  "coli": 8320,
  "holder": 8321,
  "enery": 8322,
  "fragrance": 8323,
  "Listening": 8324,
  "amenities": 8325,
  "billion": 8326,
  "patient's": 8327,
  "Getting": 8328,
  "Gal": 8329,
  "scratch": 8330,
  "revolutionized": 8331,
  "recruitment": 8332,
  "carving": 8333,
  "Promoting": 8334,
  "gases": 8335,
  "Reading": 8336,
  "predictive": 8337,
  "navigation": 8338,
  "attachment": 8339,
  "itamin": 8340,
  "fertilizers": 8341,
  "What's": 8342,
  "gift": 8343,
  "equation": 8344,
  "Spr": 8345,
  "signals": 8346,
  "navigating": 8347,
  "seed": 8348,
  "Tre": 8349,
  "posite": 8350,
  "ingu": 8351,
  "urgency": 8352,
  "calor": 8353,
  "Legal": 8354,
  "incentivize": 8355,
  "ricular": 8356,
  "legacy": 8357,
  "mine": 8358,
  "socially": 8359,
  "Job": 8360,
  "flix": 8361,
  "biodegradable": 8362,
  "charts": 8363,
  "crust": 8364,
  "frag": 8365,
  "Finding": 8366,
  "olic": 8367,
  "grants": 8368,
  "residents": 8369,
  "dreams": 8370,
  "waiting": 8371,
  "lers": 8372,
  "globally": 8373,
  "dataset": 8374,
  "WHERE": 8375,
  "passport": 8376,
  "weapons": 8377,
  "gaps": 8378,
  "Oce": 8379,
  "parameters": 8380,
  "risky": 8381,
  "pure": 8382,
  "volunteers": 8383,
  "CR": 8384,
  "culturally": 8385,
  "coaching": 8386,
  "subsi": 8387,
  "burning": 8388,
  "gestion": 8389,
  "trek": 8390,
  "letting": 8391,
  "dium": 8392,
  "UK": 8393,
  "alled": 8394,
  "descriptions": 8395,
  "charges": 8396,
  "ague": 8397,
  "formed": 8398,
  "leaf": 8399,
  "malware": 8400,
  "Braz": 8401,
  "Offers": 8402,
  "joints": 8403,
  "Aim": 8404,
  "Joining": 8405,
  "rad": 8406,
  "rounded": 8407,
  "Meas": 8408,
  "Partner": 8409,
  "Group": 8410,
  "lavender": 8411,
  "Chat": 8412,
  "dining": 8413,
  "Netflix": 8414,
  "genetics": 8415,
  "correctness": 8416,
  "practition": 8417,
  "Veget": 8418,
  "lavery": 8419,
  "syrup": 8420,
  "unknown": 8421,
  "watches": 8422,
  "cuit": 8423,
  "nose": 8424,
  "wealthy": 8425,
  "teenagers": 8426,
  "Book": 8427,
  "nums": 8428,
  "tender": 8429,
  "ament": 8430,
  "explored": 8431,
  "idif": 8432,
  "Back": 8433,
  "cheaper": 8434,
  "oriented": 8435,
  "Photo": 8436,
  "dys": 8437,
  "Others": 8438,
  "Adjust": 8439,
  "patent": 8440,
  "Squ": 8441,
  "Scienti": 8442,
  "keys": 8443,
  "Pom": 8444,
  "radio": 8445,
  "uting": 8446,
  "ingredient": 8447,
  "Supporting": 8448,
  "personnel": 8449,
  "Moder": 8450,
  "dermat": 8451,
  "installed": 8452,
  "suspense": 8453,
  "reasoning": 8454,
  "Remove": 8455,
  "Bo": 8456,
  "Fru": 8457,
  "wave": 8458,
  "outline": 8459,
  "Feedback": 8460,
  "Brain": 8461,
  "Assess": 8462,
  "title>": 8463,
  "clarify": 8464,
  "radiation": 8465,
  "boring": 8466,
  "playful": 8467,
  "hats": 8468,
  "Keeping": 8469,
  "promin": 8470,
  "memes": 8471,
  "protest": 8472,
  "backup": 8473,
  "Offering": 8474,
  "endorse": 8475,
  "jealousy": 8476,
  "dered": 8477,
  "gil": 8478,
  "Dark": 8479,
  "Grand": 8480,
  "Would": 8481,
  "intuitive": 8482,
  "chore": 8483,
  "dollar": 8484,
  "prevalent": 8485,
  "grant": 8486,
  "pha": 8487,
  "Remo": 8488,
  "yes": 8489,
  "wheat": 8490,
  "DJ": 8491,
  "Internet": 8492,
  "crunch": 8493,
  "integers": 8494,
  "addresses": 8495,
  "ancers": 8496,
  "desires": 8497,
  "alleries": 8498,
  "empty": 8499,
  "placing": 8500,
  "Reality": 8501,
  "Discus": 8502,
  "unusual": 8503,
  "wake": 8504,
  "bubble": 8505,
  "dele": 8506,
  "Classi": 8507,
  "satellite": 8508,
  "withdraw": 8509,
  "lately": 8510,
  "scams": 8511,
  "yout": 8512,
  "impul": 8513,
  "narrow": 8514,
  "bert": 8515,
  "Selec": 8516,
  "grill": 8517,
  "Mer": 8518,
  "Empathy": 8519,
  "salads": 8520,
  "although": 8521,
  "atility": 8522,
  "museum": 8523,
  "annu": 8524,
  "Hope": 8525,
  "thetics": 8526,
  "nerves": 8527,
  "degradation": 8528,
  "exams": 8529,
  "gorous": 8530,
  "statistics": 8531,
  "avings": 8532,
  "registered": 8533,
  "accessing": 8534,
  "evoke": 8535,
  "Run": 8536,
  "Flexi": 8537,
  "inars": 8538,
  "Institute": 8539,
  "golden": 8540,
  "amic": 8541,
  "earning": 8542,
  "seg": 8543,
  "Church": 8544,
  "energized": 8545,
  "Tour": 8546,
  "occoli": 8547,
  "Mil": 8548,
  "impair": 8549,
  "cripts": 8550,
  "PR": 8551,
  "judgmental": 8552,
  "sunglasses": 8553,
  "incorporates": 8554,
  "oats": 8555,
  "upfront": 8556,
  "fighting": 8557,
  "contributes": 8558,
  "gardens": 8559,
  "pron": 8560,
  "Vitamin": 8561,
  "lender": 8562,
  "shipping": 8563,
  "hosting": 8564,
  "stuff": 8565,
  "pas": 8566,
  "satire": 8567,
  "rays": 8568,
  "Tell": 8569,
  "Neg": 8570,
  "terrain": 8571,
  "besides": 8572,
  "childhood": 8573,
  "sunset": 8574,
  "lace": 8575,
  "rep": 8576,
  "libraries": 8577,
  "hyper": 8578,
  "manufacturer": 8579,
  "cha": 8580,
  "alsa": 8581,
  "Love": 8582,
  "Arti": 8583,
  "resolving": 8584,
  "trait": 8585,
  "funny": 8586,
  "accum": 8587,
  "textiles": 8588,
  "angles": 8589,
  "ratio": 8590,
  "seasonal": 8591,
  "repeated": 8592,
  "charged": 8593,
  "peanut": 8594,
  "Bec": 8595,
  "appreciated": 8596,
  "orce": 8597,
  "Protect": 8598,
  "digestive": 8599,
  "Safety": 8600,
  "respective": 8601,
  "pull": 8602,
  "promise": 8603,
  "stains": 8604,
  "simulate": 8605,
  "timeless": 8606,
  "eless": 8607,
  "bac": 8608,
  "basket": 8609,
  "collaborating": 8610,
  "Trade": 8611,
  "smoothies": 8612,
  "react": 8613,
  "brut": 8614,
  "density": 8615,
  "Vegan": 8616,
  "othe": 8617,
  "circular": 8618,
  "mortgage": 8619,
  "sters": 8620,
  "shot": 8621,
  "mushrooms": 8622,
  "vec": 8623,
  "Phone": 8624,
  "Port": 8625,
  "amboo": 8626,
  "istical": 8627,
  "matrix": 8628,
  "Resistance": 8629,
  "crafts": 8630,
  "versus": 8631,
  "humanity": 8632,
  "unpredictable": 8633,
  "fundraising": 8634,
  "consulting": 8635,
  "maps": 8636,
  "magn": 8637,
  "2018": 8638,
  "chef": 8639,
  "compan": 8640,
  "Fed": 8641,
  "Pac": 8642,
  "Smith": 8643,
  "embracing": 8644,
  "mitigating": 8645,
  "showc": 8646,
  "Suc": 8647,
  "Fre": 8648,
  "Buddhism": 8649,
  "attorney": 8650,
  "DA": 8651,
  "burger": 8652,
  "Comple": 8653,
  "IM": 8654,
  "feminist": 8655,
  "honestly": 8656,
  "approxim": 8657,
  "Benef": 8658,
  "collections": 8659,
  "rolling": 8660,
  "ecological": 8661,
  "distracting": 8662,
  "confirm": 8663,
  "removal": 8664,
  "Asian": 8665,
  "correc": 8666,
  "utter": 8667,
  "polls": 8668,
  "landscapes": 8669,
  "guard": 8670,
  "tablespoons": 8671,
  "Museum": 8672,
  "affiti": 8673,
  "business's": 8674,
  "mountains": 8675,
  "entive": 8676,
  "CD": 8677,
  "versions": 8678,
  "plane": 8679,
  "treats": 8680,
  "Sat": 8681,
  "earthquake": 8682,
  "impress": 8683,
  "ean": 8684,
  "illet": 8685,
  "reflecting": 8686,
  "198": 8687,
  "Challenge": 8688,
  "installing": 8689,
  "Invol": 8690,
  "protagonist": 8691,
  "Service": 8692,
  "plug": 8693,
  "television": 8694,
  "lining": 8695,
  "connectivity": 8696,
  "chun": 8697,
  "raises": 8698,
  "USA": 8699,
  "booking": 8700,
  "diets": 8701,
  "Snap": 8702,
  "squats": 8703,
  "noodles": 8704,
  "homework": 8705,
  "enn": 8706,
  "distances": 8707,
  "drops": 8708,
  "expansion": 8709,
  "Participate": 8710,
  "ceremony": 8711,
  "surrogacy": 8712,
  "intimid": 8713,
  "straightforward": 8714,
  "controlling": 8715,
  "elder": 8716,
  "electrical": 8717,
  "architects": 8718,
  "ked": 8719,
  "guitar": 8720,
  "sustained": 8721,
  "securities": 8722,
  "women's": 8723,
  "irri": 8724,
  "shampoo": 8725,
  "exploitation": 8726,
  "rings": 8727,
  "provo": 8728,
  "Psych": 8729,
  "shower": 8730,
  "ella": 8731,
  "robot": 8732,
  "Calculate": 8733,
  "intentionally": 8734,
  "investor": 8735,
  "laugh": 8736,
  "gencies": 8737,
  "proposed": 8738,
  "injus": 8739,
  "galleries": 8740,
  "knows": 8741,
  "acur": 8742,
  "acurricular": 8743,
  "orientation": 8744,
  "headphones": 8745,
  "outweigh": 8746,
  "usions": 8747,
  "continually": 8748,
  "vigil": 8749,
  "horror": 8750,
  "kay": 8751,
  "Such": 8752,
  "maybe": 8753,
  "progressive": 8754,
  "adaptable": 8755,
  "Stress": 8756,
  "ops": 8757,
  "enhances": 8758,
  "meric": 8759,
  "ald": 8760,
  "extremely": 8761,
  "Pati": 8762,
  "linear": 8763,
  "donations": 8764,
  "cushion": 8765,
  "planned": 8766,
  "zero": 8767,
  "Ir": 8768,
  "integrating": 8769,
  "Come": 8770,
  "lawy": 8771,
  "transitioning": 8772,
  "congestion": 8773,
  "Platform": 8774,
  "girl": 8775,
  "API": 8776,
  "monies": 8777,
  "orship": 8778,
  "oted": 8779,
  "manipulation": 8780,
  "Sever": 8781,
  "enthusiasts": 8782,
  "concerning": 8783,
  "tent": 8784,
  "hazard": 8785,
  "Academy": 8786,
  "calorie": 8787,
  "bees": 8788,
  "Changes": 8789,
  "thereby": 8790,
  "tlebell": 8791,
  "Breath": 8792,
  "loud": 8793,
  "Tar": 8794,
  "team's": 8795,
  "lined": 8796,
  "Never": 8797,
  "queries": 8798,
  "resolved": 8799,
  "asana": 8800,
  "ligraphy": 8801,
  "Government": 8802,
  "speeds": 8803,
  "abular": 8804,
  "interconnected": 8805,
  "Street": 8806,
  "Beach": 8807,
  "Ocean": 8808,
  "celebrated": 8809,
  "ranch": 8810,
  "biological": 8811,
  "transaction": 8812,
  "slavery": 8813,
  "skip": 8814,
  "sized": 8815,
  "passengers": 8816,
  "wetlands": 8817,
  "Text": 8818,
  "empath": 8819,
  "False": 8820,
  "Mass": 8821,
  "itant": 8822,
  "opened": 8823,
  "une": 8824,
  "consumed": 8825,
  "clay": 8826,
  "End": 8827,
  "inputs": 8828,
  "lifes": 8829,
  "audience's": 8830,
  "disparities": 8831,
  "silk": 8832,
  "Transparen": 8833,
  "Lond": 8834,
  "offline": 8835,
  "Light": 8836,
  "bear": 8837,
  "definition": 8838,
  "immer": 8839,
  "cucumber": 8840,
  "London": 8841,
  "complications": 8842,
  "beforehand": 8843,
  "Emer": 8844,
  "Node": 8845,
  "discussed": 8846,
  "crowded": 8847,
  "friger": 8848,
  "ols": 8849,
  "fitting": 8850,
  "196": 8851,
  "apped": 8852,
  "oors": 8853,
  "Does": 8854,
  "operational": 8855,
  "explanation": 8856,
  "Tax": 8857,
  "Pose": 8858,
  "inely": 8859,
  "celebrating": 8860,
  "ulty": 8861,
  "bled": 8862,
  "Att": 8863,
  "Farm": 8864,
  "70": 8865,
  "Highlight": 8866,
  "puppy": 8867,
  "Nations": 8868,
  "breathable": 8869,
  "elabor": 8870,
  "icks": 8871,
  "Grilled": 8872,
  "paced": 8873,
  "prolong": 8874,
  "rhythm": 8875,
  "worship": 8876,
  "representatives": 8877,
  "artist's": 8878,
  "Regard": 8879,
  "debates": 8880,
  "complementary": 8881,
  "windows": 8882,
  "replicate": 8883,
  "soothing": 8884,
  "theft": 8885,
  "abulary": 8886,
  "desserts": 8887,
  "leveraging": 8888,
  "veness": 8889,
  "Pomodor": 8890,
  "altitude": 8891,
  "sche": 8892,
  "pairing": 8893,
  "surger": 8894,
  "asion": 8895,
  "strip": 8896,
  "gely": 8897,
  "Produc": 8898,
  "gon": 8899,
  "evening": 8900,
  "Influ": 8901,
  "textile": 8902,
  "aven": 8903,
  "largely": 8904,
  "others'": 8905,
  "skillet": 8906,
  "River": 8907,
  "th>": 8908,
  "prohi": 8909,
  "parental": 8910,
  "duty": 8911,
  "impacting": 8912,
  "epic": 8913,
  "webinars": 8914,
  "Industry": 8915,
  "demographic": 8916,
  "shade": 8917,
  "looked": 8918,
  "Pok": 8919,
  "eutic": 8920,
  "logic": 8921,
  "antivirus": 8922,
  "tourists": 8923,
  "loose": 8924,
  "wins": 8925,
  "unrealistic": 8926,
  "underrepresented": 8927,
  "disadvantages": 8928,
  "titles": 8929,
  "resor": 8930,
  "inge": 8931,
  "Reflect": 8932,
  "chia": 8933,
  "Willi": 8934,
  "Engine": 8935,
  "phenomenon": 8936,
  "paintings": 8937,
  "landmarks": 8938,
  "whatever": 8939,
  "uf": 8940,
  "magic": 8941,
  "contracts": 8942,
  "stands": 8943,
  "dictionary": 8944,
  "Gene": 8945,
  "Experi": 8946,
  "Initi": 8947,
  "instincts": 8948,
  "emergence": 8949,
  "obligations": 8950,
  "disposal": 8951,
  "Aware": 8952,
  "lobbying": 8953,
  "Den": 8954,
  "firms": 8955,
  "guardian": 8956,
  "adult": 8957,
  "sought": 8958,
  "walks": 8959,
  "cure": 8960,
  "teachings": 8961,
  "flag": 8962,
  "distingu": 8963,
  "departments": 8964,
  "iso": 8965,
  "Walking": 8966,
  "netic": 8967,
  "toys": 8968,
  "missed": 8969,
  "adverse": 8970,
  "div>": 8971,
  "mystery": 8972,
  "driver": 8973,
  "lie": 8974,
  "aqu": 8975,
  "elaborate": 8976,
  "multifaceted": 8977,
  "intentional": 8978,
  "fears": 8979,
  "Max": 8980,
  "endless": 8981,
  "phishing": 8982,
  "75": 8983,
  "Toky": 8984,
  "bris": 8985,
  "protections": 8986,
  "closure": 8987,
  "gains": 8988,
  "scholar": 8989,
  "fur": 8990,
  "sera": 8991,
  "Pain": 8992,
  "contribution": 8993,
  "German": 8994,
  "acies": 8995,
  "Alex": 8996,
  "Contact": 8997,
  "validation": 8998,
  "Coursera": 8999,
  "extracurricular": 9000,
  "Several": 9001,
  "Pack": 9002,
  "fantastic": 9003,
  "Fri": 9004,
  "fici": 9005,
  "orge": 9006,
  "permission": 9007,
  "impactful": 9008,
  "Express": 9009,
  "discrimin": 9010,
  "entering": 9011,
  "Video": 9012,
  "desert": 9013,
  "scenario": 9014,
  "Tokyo": 9015,
  "demanding": 9016,
  "intelligent": 9017,
  "Cross": 9018,
  "Phil": 9019,
  "grams": 9020,
  "vals": 9021,
  "irrigation": 9022,
  "Washing": 9023,
  "strengthening": 9024,
  "soothe": 9025,
  "reness": 9026,
  "mir": 9027,
  "divorce": 9028,
  "maintained": 9029,
  "Sti": 9030,
  "automatic": 9031,
  "Pomodoro": 9032,
  "consen": 9033,
  "props": 9034,
  "amb": 9035,
  "Pacific": 9036,
  "uted": 9037,
  "mosa": 9038,
  "distraction": 9039,
  "Hinduism": 9040,
  "meanings": 9041,
  "moisturizer": 9042,
  "Tem": 9043,
  "directory": 9044,
  "Sil": 9045,
  "standardized": 9046,
  "agend": 9047,
  "assertive": 9048,
  "vocabulary": 9049,
  "sold": 9050,
  "advancing": 9051,
  "drills": 9052,
  "sli": 9053,
  "Number": 9054,
  "humidity": 9055,
  "directed": 9056,
  "perpetuate": 9057,
  "withstand": 9058,
  "disciplinary": 9059,
  "Assistant": 9060,
  "Haw": 9061,
  "trendy": 9062,
  "legitimate": 9063,
  "trick": 9064,
  "etary": 9065,
  "hazards": 9066,
  "attempts": 9067,
  "dermatologist": 9068,
  "PTSD": 9069,
  "promptly": 9070,
  "nails": 9071,
  "Array": 9072,
  "Big": 9073,
  "happened": 9074,
  "3.": 9075,
  "Moon": 9076,
  "prais": 9077,
  "Awareness": 9078,
  "inherent": 9079,
  "Addressing": 9080,
  "credentials": 9081,
  "robe": 9082,
  "repetitive": 9083,
  "phy": 9084,
  "loving": 9085,
  "assistants": 9086,
  "discourse": 9087,
  "oque": 9088,
  "lesser": 9089,
  "settle": 9090,
  "inting": 9091,
  "employees'": 9092,
  "outfits": 9093,
  "Smooth": 9094,
  "\" ": 9095,
  "NG": 9096,
  "Spend": 9097,
  "Kn": 9098,
  "Remote": 9099,
  "Family": 9100,
  "quantity": 9101,
  "intersection": 9102,
  "carnation": 9103,
  "li>": 9104,
  "allocate": 9105,
  "gra": 9106,
  "segment": 9107,
  "House": 9108,
  "Team": 9109,
  "outreach": 9110,
  "printed": 9111,
  "panel": 9112,
  "soreness": 9113,
  "deployment": 9114,
  "scenic": 9115,
  "feasible": 9116,
  "guilty": 9117,
  "disagree": 9118,
  "inequalities": 9119,
  "soles": 9120,
  "Programs": 9121,
  "hesitant": 9122,
  "Researchers": 9123,
  "predicting": 9124,
  "boarding": 9125,
  "cumin": 9126,
  "Risk": 9127,
  "omile": 9128,
  "Fact": 9129,
  "tensions": 9130,
  "scary": 9131,
  "conditioner": 9132,
  "Classify": 9133,
  "ument": 9134,
  "Du": 9135,
  "souven": 9136,
  "herbal": 9137,
  "viewing": 9138,
  "tacos": 9139,
  "delay": 9140,
  "displacement": 9141,
  "typical": 9142,
  "pit": 9143,
  "puzzles": 9144,
  "wildfires": 9145,
  "Those": 9146,
  "toes": 9147,
  "evil": 9148,
  "Monit": 9149,
  "tification": 9150,
  "charity": 9151,
  "subsidies": 9152,
  "Privacy": 9153,
  "displays": 9154,
  "Yellow": 9155,
  "attempt": 9156,
  "fosters": 9157,
  "Chick": 9158,
  "steady": 9159,
  "blazer": 9160,
  "owner": 9161,
  "mirr": 9162,
  "MS": 9163,
  "ano": 9164,
  "Quality": 9165,
  "chatbot": 9166,
  "enhanced": 9167,
  "workday": 9168,
  "reference": 9169,
  "bee": 9170,
  "crew": 9171,
  "tall": 9172,
  "thy": 9173,
  "Potter": 9174,
  "dramatic": 9175,
  "Imag": 9176,
  "Imagine": 9177,
  "Latin": 9178,
  "youth": 9179,
  "bananas": 9180,
  "recon": 9181,
  "livestock": 9182,
  "graffiti": 9183,
  "Conservation": 9184,
  "geographic": 9185,
  "ultimate": 9186,
  "athlete": 9187,
  "prejud": 9188,
  "certainty": 9189,
  "broth": 9190,
  "Mobile": 9191,
  "capability": 9192,
  "Happy": 9193,
  "tones": 9194,
  "genuinely": 9195,
  "pest": 9196,
  "publish": 9197,
  "alike": 9198,
  "Thus": 9199,
  "Mess": 9200,
  "delays": 9201,
  "assem": 9202,
  "oca": 9203,
  "emoj": 9204,
  "cohesive": 9205,
  "Benefits": 9206,
  "personalities": 9207,
  "Grad": 9208,
  "Gold": 9209,
  "Baroque": 9210,
  "nest": 9211,
  "Nonetheless": 9212,
  "Nature": 9213,
  "eliness": 9214,
  "ignore": 9215,
  "IS": 9216,
  "accounting": 9217,
  "Integr": 9218,
  "Embrace": 9219,
  "dd": 9220,
  "cation": 9221,
  "entertaining": 9222,
  "Del": 9223,
  "scenery": 9224,
  "Process": 9225,
  "oe": 9226,
  "angel": 9227,
  "Generally": 9228,
  "Sharing": 9229,
  "publications": 9230,
  "evaluations": 9231,
  "reproductive": 9232,
  "templates": 9233,
  "Diversity": 9234,
  "lifespan": 9235,
  "Monitoring": 9236,
  "refriger": 9237,
  "emergencies": 9238,
  "exhibi": 9239,
  "Summarize": 9240,
  "interacting": 9241,
  "Success": 9242,
  "Consumers": 9243,
  "viral": 9244,
  "Reddit": 9245,
  "Organic": 9246,
  "Firstly": 9247,
  "norm": 9248,
  "metab": 9249,
  "ears": 9250,
  "adoptive": 9251,
  "Lar": 9252,
  "annual": 9253,
  "Blend": 9254,
  "sensation": 9255,
  "browser": 9256,
  "revers": 9257,
  "passions": 9258,
  "buc": 9259,
  "interpreted": 9260,
  "PA": 9261,
  "vigilant": 9262,
  "osem": 9263,
  "digestion": 9264,
  "ocoa": 9265,
  "Timer": 9266,
  "accommodation": 9267,
  "broken": 9268,
  "elderly": 9269,
  "conventions": 9270,
  "visions": 9271,
  "replacing": 9272,
  "outlines": 9273,
  "colonial": 9274,
  "polarization": 9275,
  "grief": 9276,
  "Mi": 9277,
  "alls": 9278,
  "Company": 9279,
  "blow": 9280,
  "Staying": 9281,
  "foam": 9282,
  "Android": 9283,
  "island": 9284,
  "divide": 9285,
  "candles": 9286,
  "James": 9287,
  "kid": 9288,
  "erup": 9289,
  "finger": 9290,
  "breathe": 9291,
  "breakdown": 9292,
  "opposite": 9293,
  "jackets": 9294,
  "therapeutic": 9295,
  "heated": 9296,
  "forgive": 9297,
  "aneously": 9298,
  "shades": 9299,
  "experimental": 9300,
  "stones": 9301,
  "indicators": 9302,
  "permanent": 9303,
  "coat": 9304,
  "greatest": 9305,
  "roads": 9306,
  "mobil": 9307,
  "adaptation": 9308,
  "illum": 9309,
  "chi": 9310,
  "Did": 9311,
  "Forest": 9312,
  "Gen": 9313,
  "decided": 9314,
  "integral": 9315,
  "majority": 9316,
  "Cha": 9317,
  "Seas": 9318,
  "spac": 9319,
  "breach": 9320,
  "breakthroughs": 9321,
  "fold": 9322,
  "Pur": 9323,
  "respectfully": 9324,
  "Drink": 9325,
  "sections": 9326,
  "circulation": 9327,
  "wheel": 9328,
  "AM": 9329,
  "turned": 9330,
  "weekly": 9331,
  "Ef": 9332,
  "lentils": 9333,
  "Divers": 9334,
  "wool": 9335,
  "hier": 9336,
  "propaganda": 9337,
  "yard": 9338,
  "Include": 9339,
  "adhere": 9340,
  "franchise": 9341,
  "celebrity": 9342,
  "lem": 9343,
  "planets": 9344,
  "imagination": 9345,
  "varied": 9346,
  "dust": 9347,
  "optimized": 9348,
  "exacerbate": 9349,
  "Rome": 9350,
  "irony": 9351,
  "imply": 9352,
  "tags": 9353,
  "ucch": 9354,
  "sweetness": 9355,
  "gathering": 9356,
  "99": 9357,
  "father": 9358,
  "rated": 9359,
  "bench": 9360,
  "atom": 9361,
  "ount": 9362,
  "iss": 9363,
  "HD": 9364,
  "privi": 9365,
  "showcasing": 9366,
  "triangle": 9367,
  "Hab": 9368,
  "echo": 9369,
  "polling": 9370,
  "Innov": 9371,
  "twice": 9372,
  "relies": 9373,
  "ying": 9374,
  "distribute": 9375,
  "rals": 9376,
  "welling": 9377,
  "traumatic": 9378,
  "lef": 9379,
  "logistics": 9380,
  "abil": 9381,
  "phins": 9382,
  "Content": 9383,
  "Ur": 9384,
  "p>": 9385,
  "Live": 9386,
  "edit": 9387,
  "motivating": 9388,
  "dum": 9389,
  "debris": 9390,
  "Down": 9391,
  "rivers": 9392,
  "university": 9393,
  "Hip": 9394,
  "photosynthesis": 9395,
  "whit": 9396,
  "referrals": 9397,
  "advocates": 9398,
  "diam": 9399,
  "resentment": 9400,
  "colleague": 9401,
  "Los": 9402,
  "satur": 9403,
  "reincarnation": 9404,
  "itions": 9405,
  "friendship": 9406,
  "references": 9407,
  "shelter": 9408,
  "lenses": 9409,
  "Lay": 9410,
  "biking": 9411,
  "fron": 9412,
  "rier": 9413,
  "covering": 9414,
  "Ag": 9415,
  "shine": 9416,
  "biom": 9417,
  "Dog": 9418,
  "allergy": 9419,
  "trum": 9420,
  "consists": 9421,
  "acquisition": 9422,
  "bulbs": 9423,
  "Agricult": 9424,
  "Foundation": 9425,
  "awards": 9426,
  "spon": 9427,
  "consensus": 9428,
  "modes": 9429,
  "horizon": 9430,
  "supervisor": 9431,
  "ora": 9432,
  "bin": 9433,
  "21": 9434,
  "Tree": 9435,
  "deepen": 9436,
  "misconceptions": 9437,
  "Club": 9438,
  "alignment": 9439,
  "professionally": 9440,
  "prominent": 9441,
  "validate": 9442,
  "Focusing": 9443,
  "trials": 9444,
  "dehydration": 9445,
  "passing": 9446,
  "switching": 9447,
  "finished": 9448,
  "mapping": 9449,
  "Zoom": 9450,
  "destroy": 9451,
  "span": 9452,
  "ache": 9453,
  "ael": 9454,
  "Select": 9455,
  "Drinking": 9456,
  "Cold": 9457,
  "Windows": 9458,
  "Christianity": 9459,
  "salsa": 9460,
  "Medical": 9461,
  "loneliness": 9462,
  "ulent": 9463,
  "audit": 9464,
  "Mac": 9465,
  "thread": 9466,
  "worker": 9467,
  "defense": 9468,
  "brutality": 9469,
  "agility": 9470,
  "gamers": 9471,
  "watering": 9472,
  "weakness": 9473,
  "Poor": 9474,
  "asm": 9475,
  "substance": 9476,
  "CE": 9477,
  "genetically": 9478,
  "conversion": 9479,
  "Let's": 9480,
  "Emphas": 9481,
  "sourcing": 9482,
  "thanks": 9483,
  "tsp": 9484,
  "Linu": 9485,
  "Linux": 9486,
  "offic": 9487,
  "broccoli": 9488,
  "icter": 9489,
  "Brand": 9490,
  "gary": 9491,
  "weightlifting": 9492,
  "recommendation": 9493,
  "freely": 9494,
  "Things": 9495,
  "premium": 9496,
  "BM": 9497,
  "rigorous": 9498,
  "allergic": 9499,
  "kept": 9500,
  "tivities": 9501,
  "Starting": 9502,
  "surprise": 9503,
  "Electric": 9504,
  "hydrate": 9505,
  "Hun": 9506,
  "critics": 9507,
  "carrying": 9508,
  "irical": 9509,
  "senses": 9510,
  "conform": 9511,
  "lefto": 9512,
  "Tri": 9513,
  "dict": 9514,
  "failed": 9515,
  "observations": 9516,
  "vivid": 9517,
  "holistic": 9518,
  "worse": 9519,
  "donors": 9520,
  "avy": 9521,
  "mutually": 9522,
  "mul": 9523,
  "servers": 9524,
  "murals": 9525,
  "wardrobe": 9526,
  "dental": 9527,
  "Transparency": 9528,
  "couldn't": 9529,
  "Recy": 9530,
  "fridge": 9531,
  "disagreements": 9532,
  "Slow": 9533,
  "Convert": 9534,
  "metaph": 9535,
  "cruise": 9536,
  "illustr": 9537,
  "tangy": 9538,
  "pump": 9539,
  "tration": 9540,
  "Games": 9541,
  "meats": 9542,
  "isure": 9543,
  "Sign": 9544,
  "rows": 9545,
  "Compu": 9546,
  "alerts": 9547,
  "heal": 9548,
  "presenting": 9549,
  "Adap": 9550,
  "genes": 9551,
  "Protein": 9552,
  "Christ": 9553,
  "Report": 9554,
  "wages": 9555,
  "activ": 9556,
  "Tex": 9557,
  "ceptive": 9558,
  "Insight": 9559,
  "cub": 9560,
  "proportion": 9561,
  "interrupting": 9562,
  "compromising": 9563,
  "Rain": 9564,
  "Relig": 9565,
  "hazardous": 9566,
  "Demo": 9567,
  "replaced": 9568,
  "perm": 9569,
  "22": 9570,
  "advisable": 9571,
  "Pan": 9572,
  "Hub": 9573,
  "prep": 9574,
  "cravings": 9575,
  "execute": 9576,
  "rican": 9577,
  "het": 9578,
  "Involve": 9579,
  "steel": 9580,
  "dimensional": 9581,
  "basil": 9582,
  "Carbon": 9583,
  "Mat": 9584,
  "circle": 9585,
  "interpersonal": 9586,
  "warmth": 9587,
  "Arch": 9588,
  "George": 9589,
  "gorize": 9590,
  "discourage": 9591,
  "disability": 9592,
  "utri": 9593,
  "malicious": 9594,
  "hydro": 9595,
  "jog": 9596,
  "grip": 9597,
  "Egyp": 9598,
  "Berlin": 9599,
  "multimedia": 9600,
  "initially": 9601,
  "flowing": 9602,
  "expose": 9603,
  "Key": 9604,
  "orn": 9605,
  "principle": 9606,
  "cocoa": 9607,
  "suscep": 9608,
  "yeast": 9609,
  "cryptocurrency": 9610,
  "chees": 9611,
  "Super": 9612,
  "DE": 9613,
  "aded": 9614,
  "itrus": 9615,
  "Word": 9616,
  "Hydr": 9617,
  "keyboard": 9618,
  "livel": 9619,
  "Users": 9620,
  "Sc": 9621,
  "violations": 9622,
  "demy": 9623,
  "viable": 9624,
  "rence": 9625,
  "Policy": 9626,
  "customizable": 9627,
  "sweat": 9628,
  "formats": 9629,
  "execu": 9630,
  "gging": 9631,
  "communications": 9632,
  "Fish": 9633,
  "scheme": 9634,
  "gestures": 9635,
  "dip": 9636,
  "oppression": 9637,
  "tissue": 9638,
  "discriminatory": 9639,
  "rom": 9640,
  "Combine": 9641,
  "simult": 9642,
  "iest": 9643,
  "lash": 9644,
  "bake": 9645,
  "Common": 9646,
  "subscri": 9647,
  "intervals": 9648,
  "Alternatively": 9649,
  "Oc": 9650,
  "Swim": 9651,
  "Sep": 9652,
  "fibers": 9653,
  "Improving": 9654,
  "fairs": 9655,
  "ucchini": 9656,
  "stimul": 9657,
  "andal": 9658,
  "Improve": 9659,
  "boosting": 9660,
  "Strong": 9661,
  "Organize": 9662,
  "figur": 9663,
  "immigration": 9664,
  "Defin": 9665,
  "neuro": 9666,
  "dominant": 9667,
  "circles": 9668,
  "rotation": 9669,
  "reless": 9670,
  "cially": 9671,
  "h1": 9672,
  "Lower": 9673,
  "Lives": 9674,
  "chooling": 9675,
  "pink": 9676,
  "encryp": 9677,
  "Heat": 9678,
  "compet": 9679,
  "distinguish": 9680,
  "Washington": 9681,
  "Moist": 9682,
  "Put": 9683,
  "marked": 9684,
  "Spread": 9685,
  "disput": 9686,
  "slower": 9687,
  "istry": 9688,
  "layout": 9689,
  "recycle": 9690,
  "fantasy": 9691,
  "culinary": 9692,
  "Fail": 9693,
  "dirt": 9694,
  "outlook": 9695,
  "exhale": 9696,
  "appears": 9697,
  "tends": 9698,
  "Bay": 9699,
  "Roasted": 9700,
  "ceremonies": 9701,
  "kinds": 9702,
  "harmon": 9703,
  "escalate": 9704,
  "ctic": 9705,
  "Leg": 9706,
  "Spain": 9707,
  "identification": 9708,
  "cock": 9709,
  "Indeed": 9710,
  "tense": 9711,
  "practiced": 9712,
  "almonds": 9713,
  "oily": 9714,
  "emb": 9715,
  "irrit": 9716,
  "Udemy": 9717,
  "Snapchat": 9718,
  "on's": 9719,
  "asets": 9720,
  "liveli": 9721,
  "Council": 9722,
  "Fes": 9723,
  "elong": 9724,
  "Ind": 9725,
  "polyester": 9726,
  "blends": 9727,
  "attain": 9728,
  "zones": 9729,
  "diffuser": 9730,
  "Account": 9731,
  "biotic": 9732,
  "calligraphy": 9733,
  "fortunately": 9734,
  "Old": 9735,
  "operators": 9736,
  "spring": 9737,
  "ander": 9738,
  "organizers": 9739,
  "ceptional": 9740,
  "character's": 9741,
  "answering": 9742,
  "dive": 9743,
  "Private": 9744,
  "AS": 9745,
  "broaden": 9746,
  "cord": 9747,
  "Law": 9748,
  "h1>": 9749,
  "enforcing": 9750,
  "towel": 9751,
  "Cat": 9752,
  "lecting": 9753,
  "umbers": 9754,
  "olf": 9755,
  "persu": 9756,
  "singing": 9757,
  "Switch": 9758,
  "throw": 9759,
  "Pred": 9760,
  "intoler": 9761,
  "collaboratively": 9762,
  "datasets": 9763,
  "recip": 9764,
  "turnover": 9765,
  "Fibonacci": 9766,
  "Ensuring": 9767,
  "Mars": 9768,
  "reject": 9769,
  "passive": 9770,
  "atr": 9771,
  "criticized": 9772,
  "catching": 9773,
  "listeners": 9774,
  "Jew": 9775,
  "Discuss": 9776,
  "plu": 9777,
  "imaging": 9778,
  "GM": 9779,
  "domain": 9780,
  "seasoning": 9781,
  "crum": 9782,
  "Whole": 9783,
  "Sales": 9784,
  "Ethical": 9785,
  "gave": 9786,
  "manus": 9787,
  "suite": 9788,
  "orative": 9789,
  "nes": 9790,
  "retr": 9791,
  "simpler": 9792,
  "reached": 9793,
  "agents": 9794,
  "kale": 9795,
  "Tum": 9796,
  "Deco": 9797,
  "Scot": 9798,
  "Establishing": 9799,
  "investig": 9800,
  "fines": 9801,
  "pharm": 9802,
  "releasing": 9803,
  "teaches": 9804,
  "internships": 9805,
  "Line": 9806,
  "Salt": 9807,
  "flood": 9808,
  "assessing": 9809,
  "icacy": 9810,
  "casting": 9811,
  "comfortably": 9812,
  "urgent": 9813,
  "ln": 9814,
  "CP": 9815,
  "Press": 9816,
  "spect": 9817,
  "fairly": 9818,
  "backpack": 9819,
  "approaching": 9820,
  "flights": 9821,
  "Inc": 9822,
  "resort": 9823,
  "LP": 9824,
  "slip": 9825,
  "unit": 9826,
  "neglect": 9827,
  "profici": 9828,
  "countless": 9829,
  "customization": 9830,
  "Beat": 9831,
  "determination": 9832,
  "venues": 9833,
  "iland": 9834,
  "signature": 9835,
  "Warm": 9836,
  "Coconut": 9837,
  "worrying": 9838,
  "enthusiasm": 9839,
  "athers": 9840,
  "dangers": 9841,
  "Partners": 9842,
  "Fil": 9843,
  "oppon": 9844,
  "partnering": 9845,
  "Elim": 9846,
  "approximately": 9847,
  "tune": 9848,
  "Remind": 9849,
  "nonprofit": 9850,
  "fraudulent": 9851,
  "accident": 9852,
  "conserv": 9853,
  "invention": 9854,
  "daunting": 9855,
  "paired": 9856,
  "posit": 9857,
  "stack": 9858,
  "smoke": 9859,
  "formulated": 9860,
  "Maintaining": 9861,
  "Aug": 9862,
  "vas": 9863,
  "historic": 9864,
  "geothermal": 9865,
  "Goals": 9866,
  "refin": 9867,
  "32": 9868,
  "Tes": 9869,
  "spice": 9870,
  "distress": 9871,
  "winning": 9872,
  "hunt": 9873,
  "acquire": 9874,
  "guest": 9875,
  "iors": 9876,
  "volcanic": 9877,
  "Michael": 9878,
  "piv": 9879,
  "isolated": 9880,
  "featured": 9881,
  "circuit": 9882,
  "kettlebell": 9883,
  "donate": 9884,
  "electroly": 9885,
  "summar": 9886,
  "toast": 9887,
  "osis": 9888,
  "sale": 9889,
  "payroll": 9890,
  "tuce": 9891,
  "audits": 9892,
  "finally": 9893,
  "episo": 9894,
  "superi": 9895,
  "Thailand": 9896,
  "FA": 9897,
  "ofu": 9898,
  "President": 9899,
  "agre": 9900,
  "ki": 9901,
  "Er": 9902,
  "Lou": 9903,
  "severance": 9904,
  "amor": 9905,
  "shadowing": 9906,
  "prospec": 9907,
  "decade": 9908,
  "estimate": 9909,
  "nourish": 9910,
  "integer": 9911,
  "Tay": 9912,
  "ashed": 9913,
  "2017": 9914,
  "shifts": 9915,
  "currents": 9916,
  "commis": 9917,
  "amy": 9918,
  "eline": 9919,
  "Negative": 9920,
  "pleasure": 9921,
  "closing": 9922,
  "Three": 9923,
  "vera": 9924,
  "dieti": 9925,
  "ittle": 9926,
  "sights": 9927,
  "regarded": 9928,
  "thritis": 9929,
  "Ever": 9930,
  "doubted": 9931,
  "Hard": 9932,
  "gloves": 9933,
  "misleading": 9934,
  "secret": 9935,
  "slice": 9936,
  "simultaneously": 9937,
  "rolls": 9938,
  "animations": 9939,
  "exceptional": 9940,
  "Lead": 9941,
  "perfection": 9942,
  "boredom": 9943,
  "farms": 9944,
  "ranking": 9945,
  "headaches": 9946,
  "stricter": 9947,
  "archy": 9948,
  "matching": 9949,
  "Networking": 9950,
  "celery": 9951,
  "David": 9952,
  "promotional": 9953,
  "disruptions": 9954,
  "info": 9955,
  "viewer": 9956,
  "trains": 9957,
  "mediation": 9958,
  "mysterious": 9959,
  "transformation": 9960,
  "unconscious": 9961,
  "visits": 9962,
  "baked": 9963,
  "earthquakes": 9964,
  "undoubted": 9965,
  "undoubtedly": 9966,
  "Distr": 9967,
  "worsen": 9968,
  "advers": 9969,
  "calling": 9970,
  "witness": 9971,
  "studios": 9972,
  "explicit": 9973,
  "LA": 9974,
  "conditioning": 9975,
  "deserve": 9976,
  "subtext": 9977,
  "agent": 9978,
  "socioeconomic": 9979,
  "gravity": 9980,
  "discovering": 9981,
  "pling": 9982,
  "aerobic": 9983,
  "boiled": 9984,
  "vaccines": 9985,
  "Tools": 9986,
  "default": 9987,
  "Brazil": 9988,
  "tile": 9989,
  "suspect": 9990,
  "stew": 9991,
  "Spo": 9992,
  "advertise": 9993,
  "diagnose": 9994,
  "SW": 9995,
  "hang": 9996,
  "civic": 9997,
  "committing": 9998,
  "Cath": 9999,
  "tortill": 10000,
  "Central": 10001,
  "waterproof": 10002,
  "ulous": 10003,
  "flying": 10004,
  "Py": 10005,
  "storms": 10006,
  "syll": 10007,
  "insulation": 10008,
  "minority": 10009,
  "predat": 10010,
  "NGOs": 10011,
  "Ath": 10012,
  "lecture": 10013,
  "cozy": 10014,
  "fragrances": 10015,
  "relevance": 10016,
  "Advocate": 10017,
  "Society": 10018,
  "Bob": 10019,
  "Acces": 10020,
  "berg": 10021,
  "hospitality": 10022,
  "lateral": 10023,
  "batt": 10024,
  "Optimize": 10025,
  "dign": 10026,
  "rides": 10027,
  "lingerie": 10028,
  "coin": 10029,
  "rapport": 10030,
  "Simply": 10031,
  "Bab": 10032,
  "magazines": 10033,
  "Vari": 10034,
  "honor": 10035,
  "concert": 10036,
  "ches": 10037,
  "tangible": 10038,
  "institution": 10039,
  "offset": 10040,
  "phase": 10041,
  "organizational": 10042,
  "ankle": 10043,
  "sauces": 10044,
  "35": 10045,
  "observing": 10046,
  "ography": 10047,
  "unity": 10048,
  "opol": 10049,
  "Fair": 10050,
  "hashtag": 10051,
  "Cas": 10052,
  "spoken": 10053,
  "bamboo": 10054,
  "Prime": 10055,
  "stadi": 10056,
  "Secondly": 10057,
  "duci": 10058,
  "abr": 10059,
  "tablets": 10060,
  "emphasized": 10061,
  "gau": 10062,
  "cats": 10063,
  "alpha": 10064,
  "invo": 10065,
  "category": 10066,
  "Ess": 10067,
  "givers": 10068,
  "theast": 10069,
  "garment": 10070,
  "studied": 10071,
  "vegetation": 10072,
  "transforming": 10073,
  "obtaining": 10074,
  "Swift": 10075,
  "haps": 10076,
  "Tesla": 10077,
  "Tumbl": 10078,
  "dietitian": 10079,
  "paralle": 10080,
  "SPF": 10081,
  "metric": 10082,
  "Auth": 10083,
  "unwind": 10084,
  "eze": 10085,
  "spine": 10086,
  "</tr>": 10087,
  "EV": 10088,
  "lst": 10089,
  "interviewer": 10090,
  "var": 10091,
  "Brands": 10092,
  "playlists": 10093,
  "itan": 10094,
  "idel": 10095,
  "iPhone": 10096,
  "sodium": 10097,
  "wage": 10098,
  "liance": 10099,
  "punc": 10100,
  "styling": 10101,
  "securely": 10102,
  "strawberries": 10103,
  "wallet": 10104,
  "Modern": 10105,
  "Personalized": 10106,
  "junction": 10107,
  "sugars": 10108,
  "seating": 10109,
  "quest": 10110,
  "Nuts": 10111,
  "hormones": 10112,
  "Gratitude": 10113,
  "avenger": 10114,
  "outer": 10115,
  "Depression": 10116,
  "minimalist": 10117,
  "Oil": 10118,
  "lang": 10119,
  "observed": 10120,
  "leisure": 10121,
  "biology": 10122,
  "Fund": 10123,
  "Sea": 10124,
  "Tumblr": 10125,
  "drives": 10126,
  "Gard": 10127,
  "Depart": 10128,
  "arthritis": 10129,
  "Pick": 10130,
  "begins": 10131,
  "meters": 10132,
  "Wars": 10133,
  "houses": 10134,
  "Guid": 10135,
  "dil": 10136,
  "inquiries": 10137,
  "Enter": 10138,
  "Lemon": 10139,
  "Cir": 10140,
  "mature": 10141,
  "prove": 10142,
  "praise": 10143,
  "Boo": 10144,
  "enem": 10145,
  "astron": 10146,
  "illustrate": 10147,
  "kil": 10148,
  "Relax": 10149,
  "emit": 10150,
  "verages": 10151,
  "Augmented": 10152,
  "stays": 10153,
  "Brown": 10154,
  "lots": 10155,
  "Prog": 10156,
  "ifts": 10157,
  "Services": 10158,
  "metaphors": 10159,
  "complaints": 10160,
  "<tr>": 10161,
  "Seeking": 10162,
  "traders": 10163,
  "emphasizing": 10164,
  "Educating": 10165,
  "drone": 10166,
  "Information": 10167,
  "Tea": 10168,
  "substances": 10169,
  "claimed": 10170,
  "ripe": 10171,
  "empathize": 10172,
  "eligible": 10173,
  "antro": 10174,
  "tasking": 10175,
  "provoking": 10176,
  "contestants": 10177,
  "gamification": 10178,
  "commentary": 10179,
  "disputes": 10180,
  "cleans": 10181,
  "graphical": 10182,
  "Sky": 10183,
  "statistical": 10184,
  "bodyweight": 10185,
  "tons": 10186,
  "openness": 10187,
  "println": 10188,
  "Eco": 10189,
  "recur": 10190,
  "mentation": 10191,
  "empowering": 10192,
  "smoothly": 10193,
  "chor": 10194,
  "pastoral": 10195,
  "mentee": 10196,
  "Form": 10197,
  "seasons": 10198,
  "cherry": 10199,
  "exists": 10200,
  "engr": 10201,
  "waist": 10202,
  "Pic": 10203,
  "python": 10204,
  "burgers": 10205,
  "monog": 10206,
  "traction": 10207,
  "cruel": 10208,
  "Animal": 10209,
  "expanded": 10210,
  "virtually": 10211,
  "reflected": 10212,
  "Chocolate": 10213,
  "minds": 10214,
  "Convers": 10215,
  "Appro": 10216,
  "translate": 10217,
  "irls": 10218,
  "arrive": 10219,
  "camps": 10220,
  "estimated": 10221,
  "picnic": 10222,
  "workwear": 10223,
  "grows": 10224,
  "Pep": 10225,
  "demonstrating": 10226,
  "rational": 10227,
  "coaches": 10228,
  "Protection": 10229,
  "Taylor": 10230,
  "snip": 10231,
  "Sports": 10232,
  "hedge": 10233,
  "waters": 10234,
  "travels": 10235,
  "Night": 10236,
  "rainforest": 10237,
  "fluid": 10238,
  "Influenc": 10239,
  "Dan": 10240,
  "Imp": 10241,
  "origami": 10242,
  "VIP": 10243,
  "Technical": 10244,
  "Lab": 10245,
  "Platforms": 10246,
  "curry": 10247,
  "weekend": 10248,
  "imparti": 10249,
  "nostal": 10250,
  "nostalg": 10251,
  "Third": 10252,
  "drawn": 10253,
  "disturb": 10254,
  "Type": 10255,
  "mediator": 10256,
  "Medicine": 10257,
  "mold": 10258,
  "minced": 10259,
  "conference": 10260,
  "hormone": 10261,
  "cocktail": 10262,
  "allocation": 10263,
  "amplify": 10264,
  "connects": 10265,
  "incorrect": 10266,
  "Preheat": 10267,
  "Sar": 10268,
  "tropical": 10269,
  "Roll": 10270,
  "Strate": 10271,
  "bacterial": 10272,
  "buzz": 10273,
  "ETF": 10274,
  "inkles": 10275,
  "Cate": 10276,
  "regulated": 10277,
  "themed": 10278,
  "Asana": 10279,
  "Sort": 10280,
  "website's": 10281,
  "Ham": 10282,
  "orm": 10283,
  "column": 10284,
  "samples": 10285,
  "Ru": 10286,
  "cosplay": 10287,
  "dignity": 10288,
  "Spotify": 10289,
  "Fire": 10290,
  "sticks": 10291,
  "instrumental": 10292,
  "BA": 10293,
  "emojis": 10294,
  "microph": 10295,
  "fluids": 10296,
  "ister": 10297,
  "Yosem": 10298,
  "Yosemite": 10299,
  "soc": 10300,
  "basketball": 10301,
  "Slack": 10302,
  "idelity": 10303,
  "joke": 10304,
  "customer's": 10305,
  "Federal": 10306,
  "decentralized": 10307,
  "soups": 10308,
  "demonstrated": 10309,
  "dre": 10310,
  "Mark": 10311,
  "prison": 10312,
  "sored": 10313,
  "vector": 10314,
  "playlist": 10315,
  "SS": 10316,
  "sprinkle": 10317,
  "conjunction": 10318,
  "Electr": 10319,
  "Catholic": 10320,
  "mechanism": 10321,
  "OR": 10322,
  "inaccurate": 10323,
  "cens": 10324,
  "theore": 10325,
  "Agree": 10326,
  "nuances": 10327,
  "render": 10328,
  "alley": 10329,
  "Cool": 10330,
  "olling": 10331,
  "shifting": 10332,
  "Replace": 10333,
  "intri": 10334,
  "aero": 10335,
  "Bio": 10336,
  "neighborhood": 10337,
  "Definitely": 10338,
  "utens": 10339,
  "units": 10340,
  "factual": 10341,
  "Ancient": 10342,
  "Volunteering": 10343,
  "Strength": 10344,
  "mutations": 10345,
  "Matter": 10346,
  "omega": 10347,
  "Whats": 10348,
  "users'": 10349,
  "innovate": 10350,
  "Hom": 10351,
  "sacrificing": 10352,
  "Simple": 10353,
  "bait": 10354,
  "stro": 10355,
  "processor": 10356,
  "Log": 10357,
  "Regul": 10358,
  "sin": 10359,
  "footwear": 10360,
  "wonderful": 10361,
  "complements": 10362,
  "holiday": 10363,
  "lectures": 10364,
  "disconnect": 10365,
  "bulk": 10366,
  "lege": 10367,
  "Cooking": 10368,
  "measurements": 10369,
  "Cel": 10370,
  "angels": 10371,
  "Cred": 10372,
  "occasions": 10373,
  "ala": 10374,
  "Francis": 10375,
  "Row": 10376,
  "divided": 10377,
  "Software": 10378,
  "seat": 10379,
  "capturing": 10380,
  "Jack": 10381,
  "Ado": 10382,
  "ensi": 10383,
  "drag": 10384,
  "izzle": 10385,
  "regim": 10386,
  "died": 10387,
  "presentations": 10388,
  "investigate": 10389,
  "pad": 10390,
  "apprenticeship": 10391,
  "Doing": 10392,
  "unions": 10393,
  "vocal": 10394,
  "drying": 10395,
  "caregivers": 10396,
  "occurred": 10397,
  "ossing": 10398,
  "hydrogen": 10399,
  "Because": 10400,
  "portions": 10401,
  "independently": 10402,
  "chanting": 10403,
  "omics": 10404,
  "scru": 10405,
  "attracting": 10406,
  "alien": 10407,
  "portable": 10408,
  "refuge": 10409,
  "screening": 10410,
  "spons": 10411,
  "administration": 10412,
  "NASA": 10413,
  "viruses": 10414,
  "Fer": 10415,
  "tam": 10416,
  "eliminating": 10417,
  "syntax": 10418,
  "adaptations": 10419,
  "Cu": 10420,
  "expressed": 10421,
  "representing": 10422,
  "misuse": 10423,
  "pour": 10424,
  "knowledgeable": 10425,
  "disruption": 10426,
  "livelihoods": 10427,
  "28": 10428,
  "urious": 10429,
  "poc": 10430,
  "Choosing": 10431,
  "exhibitions": 10432,
  "Too": 10433,
  "guilt": 10434,
  "kick": 10435,
  "maple": 10436,
  "chemistry": 10437,
  "entities": 10438,
  "amel": 10439,
  "Scientists": 10440,
  "Rich": 10441,
  "stitutes": 10442,
  "legislation": 10443,
  "pride": 10444,
  "stiff": 10445,
  "gumes": 10446,
  "Lever": 10447,
  "Clearly": 10448,
  "columns": 10449,
  "Stir": 10450,
  "demonstrates": 10451,
  "Egypt": 10452,
  "substanti": 10453,
  "WhatsApp": 10454,
  "practitioners": 10455,
  "directories": 10456,
  "mainly": 10457,
  "regain": 10458,
  "perseverance": 10459,
  "spa": 10460,
  "Ken": 10461,
  "skir": 10462,
  "za": 10463,
  "shrimp": 10464,
  "customers'": 10465,
  "talents": 10466,
  "elegant": 10467,
  "Adobe": 10468,
  "rainfall": 10469,
  "stance": 10470,
  "bsp": 10471,
  "marin": 10472,
  "chunks": 10473,
  "exhaust": 10474,
  "lens": 10475,
  "assume": 10476,
  "Jane": 10477,
  "clock": 10478,
  "traditionally": 10479,
  "desir": 10480,
  "complexities": 10481,
  "classify": 10482,
  "breeding": 10483,
  "consultation": 10484,
  "Chronic": 10485,
  "appointments": 10486,
  "heric": 10487,
  "Enhanced": 10488,
  "mole": 10489,
  "ifting": 10490,
  "dollars": 10491,
  "understands": 10492,
  "23": 10493,
  "sugary": 10494,
  "polite": 10495,
  "std": 10496,
  "zucchini": 10497,
  "fare": 10498,
  "finds": 10499,
  "strange": 10500,
  "devast": 10501,
  "Performance": 10502,
  "corner": 10503,
  "Equ": 10504,
  "alysis": 10505,
  "inery": 10506,
  "FT": 10507,
  "stabil": 10508,
  "pleasant": 10509,
  "mathematics": 10510,
  "Season": 10511,
  "landing": 10512,
  "gymn": 10513,
  "infection": 10514,
  "liability": 10515,
  "json": 10516,
  "worlds": 10517,
  "attempting": 10518,
  "2016": 10519,
  "gged": 10520,
  "AW": 10521,
  "mediums": 10522,
  "souvenirs": 10523,
  "Tele": 10524,
  "renting": 10525,
  "dece": 10526,
  "told": 10527,
  "turmeric": 10528,
  "license": 10529,
  "crackers": 10530,
  "float": 10531,
  "susceptible": 10532,
  "striking": 10533,
  "ighter": 10534,
  "Avocado": 10535,
  "itative": 10536,
  "undergo": 10537,
  "sanc": 10538,
  "immersion": 10539,
  "Introduc": 10540,
  "commands": 10541,
  "rip": 10542,
  "veys": 10543,
  "omb": 10544,
  "Everyone": 10545,
  "Stop": 10546,
  "influencing": 10547,
  "opposition": 10548,
  "bedroom": 10549,
  "Cover": 10550,
  "pher": 10551,
  "judgments": 10552,
  "granola": 10553,
  "measured": 10554,
  "Story": 10555,
  "aspir": 10556,
  "uation": 10557,
  "boxing": 10558,
  "removed": 10559,
  "division": 10560,
  "Chan": 10561,
  "ami": 10562,
  "compress": 10563,
  "SWOT": 10564,
  "photographers": 10565,
  "ES": 10566,
  "Where": 10567,
  "cakes": 10568,
  "gall": 10569,
  "alive": 10570,
  "prioritizes": 10571,
  "soften": 10572,
  "floral": 10573,
  "sexuality": 10574,
  "unemployment": 10575,
  "creatively": 10576,
  "accessed": 10577,
  "ife": 10578,
  "Department": 10579,
  "reviewing": 10580,
  "disrupted": 10581,
  "individualized": 10582,
  "keyword": 10583,
  "jections": 10584,
  "Assign": 10585,
  "Frank": 10586,
  "molecules": 10587,
  "credible": 10588,
  "shore": 10589,
  "Tor": 10590,
  "listed": 10591,
  "insecurity": 10592,
  "PS": 10593,
  "portrayal": 10594,
  "Greece": 10595,
  "auts": 10596,
  "Paul": 10597,
  "pineapple": 10598,
  "hostels": 10599,
  "captiv": 10600,
  "bother": 10601,
  "utch": 10602,
  "Southeast": 10603,
  "Sweet": 10604,
  "accelerate": 10605,
  "grandparents": 10606,
  "stitch": 10607,
  "Sand": 10608,
  "topped": 10609,
  "prolonged": 10610,
  "donating": 10611,
  "competitions": 10612,
  "Exposure": 10613,
  "Wa": 10614,
  "puzzle": 10615,
  "competing": 10616,
  "hew": 10617,
  "lunges": 10618,
  "JS": 10619,
  "cryptocurrencies": 10620,
  "otion": 10621,
  "HP": 10622,
  "Cop": 10623,
  "aved": 10624,
  "Draw": 10625,
  "classrooms": 10626,
  "assis": 10627,
  "probability": 10628,
  "campus": 10629,
  "Special": 10630,
  "Flexibility": 10631,
  "dili": 10632,
  "Democr": 10633,
  "observation": 10634,
  "publicly": 10635,
  "Korean": 10636,
  "documentaries": 10637,
  "diagram": 10638,
  "stomach": 10639,
  "cilantro": 10640,
  "motor": 10641,
  "Math": 10642,
  "regener": 10643,
  "efficacy": 10644,
  "Hawai": 10645,
  "Breathing": 10646,
  "caring": 10647,
  "listener": 10648,
  "wetland": 10649,
  "establishment": 10650,
  "infin": 10651,
  "infringe": 10652,
  "financially": 10653,
  "lifetime": 10654,
  "Gather": 10655,
  "Angeles": 10656,
  "hackers": 10657,
  "morality": 10658,
  "Quick": 10659,
  "seminars": 10660,
  "Fac": 10661,
  "award": 10662,
  "margin": 10663,
  "lettuce": 10664,
  "shut": 10665,
  "Dead": 10666,
  "Mart": 10667,
  "rebuild": 10668,
  "constitu": 10669,
  "browsing": 10670,
  "reuse": 10671,
  "visited": 10672,
  "Stream": 10673,
  "metals": 10674,
  "2015": 10675,
  "Eliminate": 10676,
  "haling": 10677,
  "IV": 10678,
  "novels": 10679,
  "GD": 10680,
  "generates": 10681,
  "spam": 10682,
  "shots": 10683,
  "Emergency": 10684,
  "tious": 10685,
  "utensils": 10686,
  "approved": 10687,
  "Artists": 10688,
  "Ta": 10689,
  "Festival": 10690,
  "Collaborating": 10691,
  "enrich": 10692,
  "endorphins": 10693,
  "counting": 10694,
  "Investors": 10695,
  "Guide": 10696,
  "Stone": 10697,
  "tract": 10698,
  "Ment": 10699,
  "Again": 10700,
  "lake": 10701,
  "geometric": 10702,
  "pivot": 10703,
  "recipient": 10704,
  "renowned": 10705,
  "izers": 10706,
  "ede": 10707,
  "conflicting": 10708,
  "moti": 10709,
  "cookies": 10710,
  "ameter": 10711,
  "steep": 10712,
  "disrespectful": 10713,
  "avoided": 10714,
  "Que": 10715,
  "decorative": 10716,
  "mile": 10717,
  "patches": 10718,
  "oatmeal": 10719,
  "weed": 10720,
  "blending": 10721,
  "neys": 10722,
  "Cognitive": 10723,
  "plates": 10724,
  "applicable": 10725,
  "Bank": 10726,
  "exhibit": 10727,
  "laptops": 10728,
  "adaptive": 10729,
  "CC": 10730,
  "victories": 10731,
  "skeptical": 10732,
  "hurrican": 10733,
  "Hal": 10734,
  "scents": 10735,
  "setup": 10736,
  "Visualization": 10737,
  "</div>": 10738,
  "damages": 10739,
  "silver": 10740,
  "assistive": 10741,
  "annuity": 10742,
  "builds": 10743,
  "Clar": 10744,
  "chores": 10745,
  "holes": 10746,
  "uel": 10747,
  "Email": 10748,
  "balm": 10749,
  "cooler": 10750,
  "violate": 10751,
  "showcases": 10752,
  "agger": 10753,
  "Agriculture": 10754,
  "Point": 10755,
  "Increasing": 10756,
  "Known": 10757,
  "Korea": 10758,
  "Pour": 10759,
  "pin": 10760,
  "interval": 10761,
  "beverages": 10762,
  "airs": 10763,
  "odies": 10764,
  "ita": 10765,
  "struggled": 10766,
  "workplaces": 10767,
  "surgery": 10768,
  "brushing": 10769,
  "cancel": 10770,
  "Lake": 10771,
  "gly": 10772,
  "wrinkles": 10773,
  "agenda": 10774,
  "hello": 10775,
  "Kingdom": 10776,
  "orrow": 10777,
  "imbalances": 10778,
  "cm": 10779,
  "newsp": 10780,
  "intimate": 10781,
  "melted": 10782,
  "Customers": 10783,
  "veter": 10784,
  "erg": 10785,
  "twists": 10786,
  "venti": 10787,
  "civilizations": 10788,
  "Sau": 10789,
  "drought": 10790,
  "General": 10791,
  "subre": 10792,
  "Ho": 10793,
  "mim": 10794,
  "lingu": 10795,
  "interruptions": 10796,
  "bage": 10797,
  "loading": 10798,
  "Print": 10799,
  "talented": 10800,
  "Island": 10801,
  "Leave": 10802,
  "breathtaking": 10803,
  "tbsp": 10804,
  "vaccine": 10805,
  "battles": 10806,
  "internship": 10807,
  "PE": 10808,
  "400": 10809,
  "compounds": 10810,
  "pip": 10811,
  "sque": 10812,
  "jur": 10813,
  "compound": 10814,
  "ider": 10815,
  "Bake": 10816,
  "tear": 10817,
  "ende": 10818,
  "drome": 10819,
  "cipitation": 10820,
  "Mad": 10821,
  "prika": 10822,
  "ffer": 10823,
  "icity": 10824,
  "Healthy": 10825,
  "hostel": 10826,
  "ISP": 10827,
  "pork": 10828,
  "shred": 10829,
  "seven": 10830,
  "meditating": 10831,
  "mothers": 10832,
  "incident": 10833,
  "rose": 10834,
  "aerospace": 10835,
  "remark": 10836,
  "game's": 10837,
  "exposing": 10838,
  "diversify": 10839,
  "sauna": 10840,
  "occurring": 10841,
  "robotic": 10842,
  "luxurious": 10843,
  "sung": 10844,
  "vy": 10845,
  "Mary": 10846,
  "recorded": 10847,
  "citrus": 10848,
  "Negoti": 10849,
  "Univers": 10850,
  "bite": 10851,
  "oranges": 10852,
  "blings": 10853,
  "metabol": 10854,
  "artworks": 10855,
  "socks": 10856,
  "IRA": 10857,
  "anytime": 10858,
  "repeating": 10859,
  "earrings": 10860,
  "atre": 10861,
  "lakes": 10862,
  "Leadership": 10863,
  "himself": 10864,
  "tides": 10865,
  "axy": 10866,
  "surviv": 10867,
  "studio": 10868,
  "graphies": 10869,
  "aesthetics": 10870,
  "gluc": 10871,
  "fermented": 10872,
  "labe": 10873,
  "labeled": 10874,
  "nish": 10875,
  "ranges": 10876,
  "Confl": 10877,
  "Breaking": 10878,
  "Document": 10879,
  "territ": 10880,
  "chron": 10881,
  "Fitness": 10882,
  "pH": 10883,
  "varieties": 10884,
  "Thr": 10885,
  "thermost": 10886,
  "mouse": 10887,
  "Lie": 10888,
  "evaluated": 10889,
  "SM": 10890,
  "bought": 10891,
  "Collaborative": 10892,
  "bowls": 10893,
  "ingo": 10894,
  "lifelong": 10895,
  "Sound": 10896,
  "author's": 10897,
  "vs": 10898,
  "chew": 10899,
  "god": 10900,
  "ivered": 10901,
  "immerse": 10902,
  "snippet": 10903,
  "Hi": 10904,
  "esterol": 10905,
  "anticipate": 10906,
  "passes": 10907,
  "dryness": 10908,
  "killing": 10909,
  "melody": 10910,
  "inity": 10911,
  "phenomena": 10912,
  "scrut": 10913,
  "flaws": 10914,
  "operator": 10915,
  "examine": 10916,
  "Chi": 10917,
  "church": 10918,
  "Dy": 10919,
  "Decide": 10920,
  "receptive": 10921,
  "immigr": 10922,
  "forecasts": 10923,
  "planner": 10924,
  "officers": 10925,
  "Chic": 10926,
  "Competi": 10927,
  "shouldn't": 10928,
  "edges": 10929,
  "prosper": 10930,
  "centrate": 10931,
  "indicates": 10932,
  "budgets": 10933,
  "suppress": 10934,
  "blended": 10935,
  "Organization": 10936,
  "hadow": 10937,
  "households": 10938,
  "BS": 10939,
  "mandatory": 10940,
  "dings": 10941,
  "talks": 10942,
  "You'll": 10943,
  "melon": 10944,
  "discount": 10945,
  "27": 10946,
  "bacon": 10947,
  "iOS": 10948,
  "carpool": 10949,
  "diversification": 10950,
  "Butter": 10951,
  "elector": 10952,
  "Parks": 10953,
  "engineer": 10954,
  "brushes": 10955,
  "saut": 10956,
  "typing": 10957,
  "imper": 10958,
  "Event": 10959,
  "encing": 10960,
  "cheap": 10961,
  "quotes": 10962,
  "cancell": 10963,
  "sneaker": 10964,
  "pointing": 10965,
  "employee's": 10966,
  "Road": 10967,
  "radius": 10968,
  "argued": 10969,
  "Arab": 10970,
  "saturated": 10971,
  "explaining": 10972,
  "insulin": 10973,
  "Administr": 10974,
  "promises": 10975,
  "Sor": 10976,
  "parking": 10977,
  "shoot": 10978,
  "pursuit": 10979,
  "iller": 10980,
  "soundtrack": 10981,
  "spectrum": 10982,
  "humorous": 10983,
  "atsby": 10984,
  "recall": 10985,
  "landfill": 10986,
  "batch": 10987,
  "praised": 10988,
  "grazing": 10989,
  "nap": 10990,
  "climb": 10991,
  "delivered": 10992,
  "empowerment": 10993,
  "Glass": 10994,
  "collap": 10995,
  "structural": 10996,
  "stur": 10997,
  "auc": 10998,
  "outdated": 10999,
  "methodology": 11000,
  "memoir": 11001,
  "sweetened": 11002,
  "whitening": 11003,
  "Attending": 11004,
  "precipitation": 11005,
  "gevity": 11006,
  "utions": 11007,
  "conclusions": 11008,
  "cycles": 11009,
  "iterate": 11010,
  "Gatsby": 11011,
  "newsletters": 11012,
  "borrowing": 11013,
  "stalking": 11014,
  "artis": 11015,
  "impairments": 11016,
  "itiner": 11017,
  "chairs": 11018,
  "antibiotics": 11019,
  "Forgiveness": 11020,
  "heads": 11021,
  "transferable": 11022,
  "seeks": 11023,
  "<body>": 11024,
  "crash": 11025,
  "Ra": 11026,
  "UI": 11027,
  "engraving": 11028,
  "crafted": 11029,
  "theaters": 11030,
  "tread": 11031,
  "oxide": 11032,
  "NLP": 11033,
  "Yellowstone": 11034,
  "sandwiches": 11035,
  "teenage": 11036,
  "gauge": 11037,
  "ordinary": 11038,
  "indoors": 11039,
  "Ze": 11040,
  "aint": 11041,
  "Only": 11042,
  "fon": 11043,
  "Impact": 11044,
  "tled": 11045,
  "sadness": 11046,
  "chiro": 11047,
  "autism": 11048,
  "Party": 11049,
  "plication": 11050,
  "amorous": 11051,
  "Es": 11052,
  "Interactive": 11053,
  "Nevertheless": 11054,
  "icon": 11055,
  "consolid": 11056,
  "approval": 11057,
  "communic": 11058,
  "Dance": 11059,
  "syllab": 11060,
  "visa": 11061,
  "prescri": 11062,
  "entrepreneurship": 11063,
  "diversified": 11064,
  "AWS": 11065,
  "optional": 11066,
  "supervised": 11067,
  "Oper": 11068,
  "Minim": 11069,
  "boxes": 11070,
  "proposition": 11071,
  "dup": 11072,
  "encountered": 11073,
  "classification": 11074,
  "Mount": 11075,
  "ians": 11076,
  "described": 11077,
  "Emphasize": 11078,
  "Skills": 11079,
  "transmission": 11080,
  "sheets": 11081,
  "tee": 11082,
  "marketplace": 11083,
  "cholesterol": 11084,
  "safeguard": 11085,
  "blender": 11086,
  "chord": 11087,
  "ectious": 11088,
  "26": 11089,
  "adoles": 11090,
  "signing": 11091,
  "hunting": 11092,
  "obes": 11093,
  "rupt": 11094,
  "sar": 11095,
  "glutes": 11096,
  "Tai": 11097,
  "araoke": 11098,
  "newer": 11099,
  "justify": 11100,
  "Disney": 11101,
  "Commission": 11102,
  "enzy": 11103,
  "contrad": 11104,
  "rinse": 11105,
  "Alice": 11106,
  "remarkable": 11107,
  "Rust": 11108,
  "Bit": 11109,
  "let's": 11110,
  "shame": 11111,
  "Prop": 11112,
  "updating": 11113,
  "aviation": 11114,
  "Banana": 11115,
  "</html>": 11116,
  "productions": 11117,
  "55": 11118,
  "ione": 11119,
  "touching": 11120,
  "Sty": 11121,
  "Gam": 11122,
  "actor": 11123,
  "unfamiliar": 11124,
  "Hor": 11125,
  "BI": 11126,
  "fingers": 11127,
  "wil": 11128,
  "trace": 11129,
  "homeschooling": 11130,
  "depicted": 11131,
  "Jud": 11132,
  "tricks": 11133,
  "Brit": 11134,
  "acle": 11135,
  "ROI": 11136,
  "erved": 11137,
  "Office": 11138,
  "</body>": 11139,
  "colleges": 11140,
  "Islamic": 11141,
  "Spending": 11142,
  "timelines": 11143,
  "angry": 11144,
  "receives": 11145,
  "illuminated": 11146,
  "Next": 11147,
  "grounded": 11148,
  "Spir": 11149,
  "brick": 11150,
  "association": 11151,
  "Urban": 11152,
  "organs": 11153,
  "civilization": 11154,
  "sleek": 11155,
  "bones": 11156,
  "Short": 11157,
  "Cul": 11158,
  "rocks": 11159,
  "you'd": 11160,
  "Opt": 11161,
  "Swed": 11162,
  "Compose": 11163,
  "restrict": 11164,
  "occasionally": 11165,
  "butes": 11166,
  "Authenti": 11167,
  "seekers": 11168,
  "pregnant": 11169,
  "curve": 11170,
  "detriment": 11171,
  "Leverage": 11172,
  "desirable": 11173,
  "conservative": 11174,
  "individuality": 11175,
  "Cham": 11176,
  "intersec": 11177,
  "Francisco": 11178,
  "tickets": 11179,
  "mechanical": 11180,
  "siblings": 11181,
  "Mu": 11182,
  "melting": 11183,
  "Product": 11184,
  "hassle": 11185,
  "adventures": 11186,
  "Cream": 11187,
  "Rice": 11188,
  "ballots": 11189,
  "calculated": 11190,
  "pum": 11191,
  "longevity": 11192,
  "inates": 11193,
  "reaches": 11194,
  "tians": 11195,
  "clinics": 11196,
  "hydrop": 11197,
  "execution": 11198,
  "Chicago": 11199,
  "Investment": 11200,
  "lawyer": 11201,
  "Ign": 11202,
  "winds": 11203,
  "cend": 11204,
  "cuisines": 11205,
  "costumes": 11206,
  "Exp": 11207,
  "behave": 11208,
  "debts": 11209,
  "athon": 11210,
  "separation": 11211,
  "west": 11212,
  "Planning": 11213,
  "airlines": 11214,
  "uary": 11215,
  "secrets": 11216,
  "undermine": 11217,
  "tempting": 11218,
  "canvas": 11219,
  "Turk": 11220,
  "garments": 11221,
  "seniors": 11222,
  "scuba": 11223,
  "buildup": 11224,
  "preced": 11225,
  "turkey": 11226,
  "hikes": 11227,
  "fers": 11228,
  "Gaming": 11229,
  "Swimming": 11230,
  "hospital": 11231,
  "glucose": 11232,
  "upset": 11233,
  "thered": 11234,
  "simplify": 11235,
  "ota": 11236,
  "alum": 11237,
  "Honey": 11238,
  "volatility": 11239,
  "dash": 11240,
  "physi": 11241,
  "counted": 11242,
  "CH": 11243,
  "wines": 11244,
  "agreed": 11245,
  "adequately": 11246,
[...]
